663c6404
84000049
ffb6b691
ef65b19e
9246edb4
3c9820a4
09648b5b
082122b7
e49048da
d89209a5
26013fe4
da4853e2
dfe4cb25
6c36e4c9
bb6bf32e
afa572d7
2db57dac
41d98480
b1004859
89fff04d
93bfd964
1bf9b7f8
7e3fdc89
3270372f
db12059b
2000924c
5f4d8481
b082a7ed
f4692dc1
00922eff
81696047
4926a52c
670e4b78
d9204fdb
0f7df093
d6264049
06c037b3
01c96760
8390904c
c9f48000
90002582
52050805
64f7b244
9bcfff6e
fe42347b
c7ffc208
93b31034
67fec9b7
38bdfff8
00f93782
fb13ced3
a0192fc0
0b05fccf
033fc57f
00076de0
07fffd80
00016fb2
e09bf64b
21f413dd
ff0dbfa0
00ff81e4
b626db80
0d066b6c
9cdcc1ff
76381626
bd68001b
b0001137
00207808
84ff3c6e
27600060
fa3f0501
ff7bffdf
f84621c4
7fff9c00
64001bf7
e70cefff
ffcd4bf7
1b06cfef
899f8fff
f5c08348
0b23e2c3
d9539000
f3be8c7e
7c497fff
36f48bef
ffebdef6
e070079c
d800127f
4a47effe
f77ffac0
feda6fff
2406800b
09e0ecdf
3017f027
97276bf9
a04dfebf
89007b79
79201adf
e076d01c
80406200
00100209
9fb1805c
a81efff8
685c6840
1a79bd3e
7fd378f0
f8c0c800
93ce24df
6b26ac46
72f58df2
1b3a15bb
2fe4893b
8c9d9440
92284ecf
35e46530
97d88508
44dc38b1
f4e14c16
80371800
dc0d9fcb
07b3ad3f
b0efe643
9477a16d
c0c9e02c
43685b7f
fc407672
feff791f
31c8624f
945238ed
0bde7a1c
a8feccda
050d3412
911c4bf4
fa084b20
3c61bf25
29243104
17ebff8e
550102d4
9fc2f0fc
6f270030
72d444b4
fcb81005
21c5cc65
0e7ff837
01ec427c
881b6182
fdcadbbf
400571ff
fda16d80
1d072923
cb07ffc1
4939645c
97813212
fffccde4
ffdfe05f
0c164f2c
7683b13b
81114014
c9b8df40
197b248f
4edf61b7
2da7c18d
5901bee6
bfb826f0
886c4893
ff6009e7
32491bbf
9f927fe3
2ff97acd
ffd80fb1
ecf3e907
c7fdd879
091fccd0
0fcfd800
3ffe4ff6
6cc02226
dd81000c
d09bf62f
8240904d
a27bc9bd
c7be7909
6004ec02
b40e3ef0
e3e43317
7e0fc020
0371ffd9
92803030
844003fb
1386c317
381cc0d3
4025febf
a871c84a
41202fd7
9209f38e
07f9012d
04006030
0b4a1385
8949f2c0
687c7fff
7c4327ba
fefdd9fe
06310000
480992f0
fc9dc8fd
3008f3e4
f0c805e2
0186fc00
48452d20
05c9bd18
3c067cff
0562b0d8
437b19a2
e3113c24
c7058006
d00faecb
7ff17f6f
400199cd
221013f2
bc072f11
07fd3207
33d889f5
11032780
c0200fc0
afd8217f
01f21903
1001f7e0
6e06deda
e13040f0
03c4893f
01c813f4
c9a85ee0
5f04eb76
0e17efe1
033e2cfc
b87ffbc0
707e0481
43f74766
01198040
1fa80980
fc0c07bc
0000fd1e
4fc001f2
e85f7934
0767b836
81dc140e
bdb7805a
c763ad92
93c0844b
ffa077fb
05117004
d2013597
e000cc9f
2127fe07
8bea0070
3ffe240c
08e2d248
71fe1b12
0b664003
e8d17600
da7f0279
ecb4efc0
4007f77a
593b1db0
f3fa7808
c90010cf
103decfe
5b7edef8
faffe957
7e80d361
fc36fcd3
ff4389f0
da419c05
c3f5ebff
ff000f00
3e201770
7fd20fc0
d8ff8e78
1fffe609
b2e2ece0
e89e95d0
b1b91793
ed51f4ec
03128c8d
ffe91b88
9c4fa7a3
e701e939
6181b797
f9894f12
85006d98
06c23d0d
807e944a
b72407b4
ffef03fd
e079b87f
adfffc70
7da410b9
40f042e0
80000637
0df923f1
f021c840
02c100f8
6801fc82
e3f9ffe3
b709fc00
2b6e03b2
f47f03e1
c7f42ffb
bf101ffe
046bfdff
fca88098
00841f8d
1f9dbfe0
16080a78
f1c8df98
0b817fc0
90ffb5ec
86f01b70
fc2c3fff
16e9009d
7fbf6117
1e3a38fc
b2d807df
0ecf0401
5ffa3310
285d1b86
13fe5ff7
0c00c41b
7ee9a09e
6e5bf248
837187e9
830073a0
e3a24036
2c1244c5
bd00b65b
fae40f0f
980190bf
36bf4924
49f69196
217267db
200df81a
e04fbfec
85c80c84
3680b24b
17dfc939
ec97ff80
c001f227
2dff0036
2db8016c
1b007091
0770700e
6d0edbbc
d9fd3251
80003c8e
4de05b25
64dc968e
b7d86ce9
6db67800
27003381
cd0db893
2d81317f
fe2b41c3
87df100f
43fe24bf
1a6845a4
fc2ff5d9
e0824b81
dbdfb03f
7f874520
e4ede7e2
00980834
8ff363c0
237fffe3
bf03717a
4639f32d
1df6b1fd
880be9f8
f1ef03a0
ec6f571f
f801803f
0fe00b3f
372ffadc
f4145189
806557ef
804dbc03
7f139772
f1d81df0
038000e0
38ffe1dc
4811fcf0
8090c2c0
708279f8
6f9703e1
899d28dc
b83b9dc6
0fc5000f
bfd88000
4710c7ff
cc06fb0f
307fc41b
d9f7c0d9
7e1f0a3e
e24ed0dc
17c1c0c0
01afbbda
1d8f253e
5ef0483a
c3cb67c0
07cfc503
bf4b4a21
dbe46309
9c00f92a
501e0135
00ba5421
4f8fc4e0
083c0fef
13d91ffe
fc5a4f00
c77e601a
fde43073
e0777fe3
ff1bc0c0
be19ee69
b4fe0581
34000412
01ffc4ef
107e3e02
7c1c707f
7fe87694
617940b4
27d435e1
70173ffe
037df100
27367d01
e8278371
dc233c9f
061ff989
b7969a15
706ffed5
300473c0
07ef6000
8616cf71
7f2009b9
701e7d81
d20d20a2
53058439
9326e790
00624fd9
da237e7f
07849811
0c74df22
faef81c4
b83b010f
01edd0fc
1b4b802a
5eb67536
1d8f5ffe
d5006d3b
4e00402d
f04fe910
bb244040
4833724c
422de0f9
c62c0138
36c9e005
4e8227a4
bcf07593
f040c1b5
40017eb3
f9174d5a
01e2098f
c00f728a
596ffffa
03cf1e96
e1299b60
03017fc7
7087f7f0
eef307fa
81102000
8900810e
024047be
ef840f80
02036e0f
580ec6f0
f8016efa
7b97e101
d836c320
0163fe29
03e0000d
0100fe0a
041ff038
5a216780
e07db7ea
0500011e
e3000260
00500360
0b385bfd
4d89b80d
b2d5d964
90e3f1b9
0e01a036
d7fe7a4a
17773646
90bf0400
91f38083
f91c8600
afdbec71
00062efb
fcc00168
801b911f
f3f01848
fff7a03f
7f41dcf3
5274e6e0
091473f8
bf403f83
7c7e03f3
c796feff
7c07f47f
1ffec120
401fb12f
ff3fb9d0
eac03f3f
40406e01
29e4dffe
bc81b630
c4e1f7ff
d026b47f
1aff0201
7f9f9bf8
70689dd0
7382c081
bcfd6dc0
87cb7350
fc0c26fc
c083f288
b611220b
eecb0077
a20d8bc6
0ffc6c03
ffadc039
0001f967
0d68fc00
cb804727
ff937ffe
b000e04c
03fff40b
fdedcf08
f001ffcb
007fede3
b115fe07
dffc9cf5
ac7e49fd
f7fdfe78
98baf7fe
f7f03ff6
ceffb23f
07ffffff
e7f902dc
07ffffb9
c7c80002
025b20ff
f8f7f12f
91f0ff81
028ffff7
ffe3c978
0f7d03b2
01048100
97fc01cf
7e7bc360
93f47f2d
881ffe30
fb0401c1
1fbffedf
24039bff
abffd460
ee28281f
9c0d97fc
7938c1a1
ff9fe61b
ffbed1ca
4fd9620d
c069bafe
269370d6
86fc927f
14da2477
48d06db4
6c196440
1a493622
e7730833
3c247f4c
9f764b24
79fa7437
4b036408
9b0b883a
d8ffbf3b
52bedb6d
13d8009a
2f726f43
aebe9b10
d242f56f
dbea6027
4ec57a6c
92374470
b7236ff9
89e6f261
a7dc061e
a67b3f65
58531311
966da49b
b4fc31e7
6935b67e
936ee6db
c05ac962
64fb3d9e
c2eec9e4
36084271
8e80f97b
fc9d2c22
f92d81bf
76f6feff
4bed49b8
27ffd005
7ee0a2fb
bfb3e8ec
16ffbe6f
4dc99c70
fc812527
2cfd9268
0e6727ba
e4f9c3d9
07d80200
ac886af0
2c04b867
fbff8e4f
d2cbfd89
040d0c8b
05fff17f
09acdd92
2fafbe1d
c61c8e25
7e108237
d3ee0300
fbe27e9e
00006076
db9bd86c
3828f24d
8ed81c48
a45a0fbd
186fb690
2f793270
bc247ce4
be036657
f6f9fd43
5a307fff
e0fc0d38
ffd2e705
63c6d043
f128ffc8
09b4dd8f
ec76f8fe
00c49cfe
00399fe6
039dc0dc
af03c582
7fc4ffff
de80bf00
869dec1b
7ea49c89
c3f5f8ff
d2e22faa
6e368ff6
1f8c021a
3c009e7f
0137c08e
e08bf91c
81ffdfff
b203f908
14afc17f
06e0d5b8
33905869
ff80b4e0
ba00694a
7f4ca401
f4b3e2f3
18020537
befd0434
00064f28
277a5010
91a4ef81
3dd0c7d9
696cbd19
fe46b4a4
da43efa0
0025d93a
fa732032
a44004fe
cac4f059
0a0bf2c9
7e69b7f4
361bf27f
7da7ffb6
3c0075e0
f0136f20
b237f7cd
ffa6c86d
c88059f7
cfe745ed
9b6c889a
001daed8
99f04d90
d848192e
203fdeec
12188e4b
d893e411
89a30500
6fa4cb93
9f92cb7d
cb14fe08
c663f001
fe535a9f
16c00130
05d92174
14103682
a5f5c920
6c24006c
cf749f83
46249015
6d249ffe
ab682403
b47d8800
32dbdf2f
05b7c223
281db9b8
ad31b2e0
20712dff
46643fc1
00e7fc8f
b1fff524
0025b7e8
88b9e340
9c01efb7
c9e9b205
01ff907f
7f96d920
00ffe43f
a7ff7c80
b78c764d
037d35ff
b632842d
b5fd20df
791d0f15
9174d84e
c92fd767
e600482c
f6133fd9
be79fc8f
03876da4
f21c41af
3f9f08d9
9b641c19
4f7f47b4
67e7237e
dbd897d3
8de94f78
1dd860d6
be240a49
923ff901
03418003
09448d07
9200f8cd
3f82e870
f5fcadbd
8e03fc73
3d2f788c
41ff4976
967305fb
149e4b09
2fe20031
edb074f4
e097cedb
ffe04267
805fe019
24f4c500
36007c7e
81ccc5f8
78377cc1
0c6d6559
f8dc0407
728fe5a7
4d1c1fa2
7247e67e
f5cbc322
37d877a9
48097821
8c1e39e2
bf3f9f72
9a0cfa47
62f0f69c
ff608fc8
40381fef
0f814322
fae3f2ff
7645fc9f
b07ffe20
46c20fff
21b03d83
2ff3393e
3405caec
6f7faf90
03c22403
780c53fe
86831fdf
febbe4ec
03fb203e
5ec8f074
ffc878f8
3e007840
17e84ccc
238e5eca
e2400017
81c7ffe9
f81695ad
e0c24518
739e8bb6
e0fab124
c2083b8a
6e8783f9
2d91371f
dfc082fd
820b6220
64032a0c
cb734931
02090023
e0800040
50277c88
000cabd7
84c0d770
56ddf38b
6ff0cfb0
0f40ef30
90389058
d1a0ebee
261e7f14
3804807d
10aa4151
3496e7e0
da029e88
c241c9e2
0101d4b3
095498c4
e130f800
bbb06847
c065e4af
73480e4c
81800030
c636017f
dcdc8000
44132afa
101d97ea
4a4a2417
21b7cea4
e6dea47b
06417033
08a93f18
279fe9e0
c1db9fef
840e8184
c93c8fce
000617fc
01cd87f1
3b00fe3f
0216c32d
1f86b6c0
de3d249a
f7fa003f
404de5f7
dfdff818
be27d90b
004087f9
f2017f40
70b1306f
dbfed800
f86873fc
161fe82d
93a04f01
c6da4323
6df7ed27
47fde8cb
1607e7ff
c26005b0
2d44dfea
f83c90c0
86df57ff
fc32fcdb
3d1fec03
81e6f035
4dc4b13d
77ffff9f
c1f8e124
0bf3ffe6
23603279
d9c31efd
e0015d57
c07a2ffd
916f0b81
a0001a40
4e247c08
798301bc
4b054782
fffc80f9
ff4361ff
0069bfff
04d37568
01250280
bbf0c720
c8045018
77dfb6fb
26818173
4803666f
ec200dbe
c3f64f25
01e04d87
7f242db3
fc809816
4f13fedf
1ff83790
6d80431d
a7fc2e4b
8180084d
5501d8e4
1fef41f0
3d90b80f
ec97f81b
7f7ff19f
0ffc8001
6c799e73
b87a93ff
02fb790d
224cc827
26cfbe63
f2b7f7e0
b2fccfc3
47fc001b
fc189fc9
4874fdc2
6764fe4b
83e40582
366eb6f7
bc9b7038
01f81e81
1ff6c1f0
00ff8a62
f77813c0
de01001e
ffe0a5ff
33f017f7
ec7f322c
df8b211f
c9b709a1
400edf23
ff83fae2
936f9cbd
0ff239bc
bb13405b
fda47251
83dcf20f
7210065e
fe3f4fd2
cffba803
a16ff97e
dc04ec7f
ffe91913
ffe09e27
7fe61fff
e5b73e01
00d7e64d
71a00035
0b0ff908
04000cc2
f0e7bfcd
078e4bef
020051fd
7e5fec60
1bb5a600
1b600005
ffe60815
c005a693
cc0c0137
0d008360
bc3020a5
22f769fd
714cc5f9
936ac700
c7ffcf04
fda0e83e
1307efff
ff7ff000
bfcffe49
06ffdfa0
ff809e08
843fed9f
b0317f00
5bffbe47
dffc13be
327dc7c3
02c4e919
4db087ff
00313b62
0420b64f
000be170
fff204c6
3fe68de0
6d08e82c
1e4c0cc2
349ff000
82203e6c
e6ce3864
c7fd7e49
15bb37c7
077e197f
fc93713e
69b923fa
9e72015b
8cffaf84
8b415ded
40cdc11f
013ffdb0
873ff2d0
f49027b7
f8fb66cf
a1ff987f
ff09bce5
c8fffeed
f7f4d961
24a1d916
cedbb027
ff372486
f3f8002b
341f16dc
ff780dec
c34f86ef
966c103e
69b71c73
ba59db66
f02bda45
843ec363
404fcbf4
30defa48
49cc901e
df8a37ce
ca2007fc
8e136f03
d1733f7f
e47bd1e2
3d891c16
ccc81f2b
da102e4f
17fae47b
ffeff87c
c0fee0ff
1fd6e1fe
ac027ce0
4d0bee00
3de5ed26
d3d41200
3962ec05
ef3b25f0
00120fff
58801bcb
26c80867
007f8013
ff6389ef
4ee4800d
8381a4e0
25000e22
8800fc70
52790107
5f9cf850
00051000
a42640e0
de676e2f
7e39017f
0403f9f8
89e00e4c
0ff9fdfd
0d964b00
d09bf93f
f820140f
fed801c3
17fc17d1
2202fe9b
9b900100
05bb8800
6c6e687a
f7fe400f
fcec3438
8a0409ff
e821b813
1153fe2f
80f6a000
23be45d1
c1a88e21
845f905f
fc0248fc
ffffecfd
f027fc01
e49bfdfc
8ce3fbb8
c0008ef4
be01c8ed
17e2f681
aed7e07c
fa934102
040f7300
62c53c0e
12fbf3a1
f813e1df
fd1a8eb4
908586d6
f13b1ca4
d338ef7b
e4aff928
01e001f8
3f87fc04
cfef7c9c
14cd2f40
d427c40f
79b8a13e
f1f7b3f1
13ff231d
64cf96ad
081d8fbb
92284246
00ad8417
b82b8a3b
72c9382e
203567e2
3a283271
1e091160
d0079641
cff44170
901ba601
6237fc73
0eebd6f4
0c0f2dcf
25344e7a
21207441
523ae570
13100748
04e5b2e2
482bf791
bcc34102
bbdf80da
7ff625bf
4801e5b3
401e4730
91a71b92
e9f2980c
0b24001f
70b06096
0cb5095a
7f8103be
d8000010
5bed272d
00544723
6de721f9
6b6f9481
4b5fbffa
fdb12684
08b03c83
b0020e5f
6fac0b6f
14688300
8015f204
cfc7234d
3a40686f
5fda7849
c920fc36
826d34ad
24ffb659
8fc02409
e41da764
96e05b26
7c07ec3e
32f0587b
0bd24981
1200b804
23c24000
a281aa9f
002123f0
13fbd27f
9affb07d
f1c003b0
fe4f2007
1f002bc7
0f28003e
e8127a00
276c2590
40f800b1
dbe833fd
105e8160
bcf1f17f
61476f80
44e412d1
f5e0276e
e17a1fe3
ffc30e12
affecbff
00161f1b
38217ecf
8f78fe00
fbd6d00a
c0ece6f8
de4be20c
f031761d
0c03e4dd
7260c108
4b8117de
00000a43
fed6fc17
f9f8bf23
ffecc03a
1410dd7e
fd0ce6f4
407c3291
93f412de
fc01ff9b
f60d71fc
000f7c5f
44480cd8
c9fd8907
10b700b7
431eca00
ffe48e47
ff816139
90032706
5a5c9d07
c1274812
10012367
2724fc00
81f89c7c
d6e0065e
06de9e5b
f4b69fc0
4084000c
82fd3c02
6de8e3fe
65f9f8dd
78d86645
b43bec96
1b81e073
235e1ad0
80200f1f
42173e07
30073e1b
967d135b
67a0c1dc
f9cd3f8b
6bc6909e
7584ffe2
a299dd31
1ee003fd
fe48deda
fca04fb6
f77409be
eaf41686
f4e4803d
b1b48377
13603485
212c0120
92281767
117e43fd
20cc9df8
ec59d669
3079b127
a600efc0
3da53cbf
f87e6d40
2499b240
95b7fb49
82012536
3c0fb004
4dffbd7d
12cacec2
122fff11
b2cb6fd0
904f4221
832ca1b0
b27e0925
e00f20ff
4ecb25bc
03340866
8d0d04e4
2f6dcfa9
f8111405
91145a07
f7f48176
c5221dbf
ff49f89f
49fc4dff
0000002e
c1099002
871b72fe
0927ec6d
ffdd3dd0
8ed0020d
602403e9
7bffd962
b7bfffa0
6c002d8f
e443b782
f6e31fb7
c9f10027
4cbf86dd
0046be00
5e789a5d
02403793
3ef9e204
95b40705
fe712766
20fb7186
6c04936d
9b26c0b3
5f715fff
f9fb73b6
2669127c
241b8d85
d0107914
f74a14d3
00fe443f
0ddafd00
027bfd60
a321decf
6b7fe170
960b2660
b0de97f4
0c137ebf
e6c74fb0
f74a0935
efe83f3f
9606a116
d7d57edd
9369f34f
b00ffe04
c02f7d67
71fadb30
dfe2b4d0
c2e47da5
e925ec26
d8453c3e
3056dece
418d0c80
f02c1504
a0e47132
693e6fff
24d2082d
26f26583
0ce61848
4079380c
57ebd20a
6dd00e0b
0be8e68c
84dde442
8e64ec7b
ab5efd27
eb100f00
01e36390
3fe0c014
a69f33a4
6c399bbd
9bff80d0
a9fa5901
de012e44
016db71b
fefff27f
0b685e5e
9dcc3312
07b3bfe4
b60973cf
0369a235
f63b0d86
5db066e5
9f41fba7
d5fe37b4
88bb2e90
f34bd0bf
0727ac5f
c47b524e
125a1f86
3f7b2e43
93da9b7e
f03b73ff
dbf87037
1647fb7c
b37b26dc
17e2577f
8df6fb4d
2f2064d2
ba1f2f00
78348611
6fead6fa
4cb8363b
38b516be
bf04f6cc
00120533
05c4e006
1c77df1e
7f6b0170
7ffee82c
0bb3d85c
1ffdc000
8fa64070
eb7e2a3b
313f7e27
01dffb80
2472ee19
fd01d03b
1fc38a80
ffc400fc
031f0de7
01ff1fcc
1f8fc030
b834bc40
e7a6e3b0
fc707c67
cfe85038
08370ca3
17f34f00
c01f8dcd
012c7193
1bf6d000
0eb7801a
0e791c41
a17c3722
f7eb713f
f0a95fca
98212587
22d304c5
f02fe3fe
9f1786dc
1940f869
33c48002
60fed6c0
bf8586a6
f878ccfc
e0b20403
17930240
bd912313
4dfda6ad
07de4c06
25c01860
f886d2db
e021763f
d6c5df34
99b8d067
da079464
fc92124c
d77ec0c0
ccd81df8
16fcd11e
ff61329b
c485924f
92ef026f
826baf01
7b2fc1ae
46d83d00
6cf01b39
801c0000
03c69912
b99a241b
d91ee2cd
0a4d61eb
0749ba9c
1d05b667
6920a7d5
dbe68219
822bde48
06effbf6
7fe9eff0
fccdc131
edf6fc79
1e4e383f
f00019f8
0239223d
6070086f
3f606eb7
0cf68263
d391bef0
537f0b08
344ff21a
9e8ecc80
02e03ca4
8e17bf08
f27995fc
ffde5618
0e61afbd
d0601403
3eddaa82
cde89b80
81cf393b
40fcc036
f0102f36
1d73c33f
482cf9f0
fc340488
fcc225fe
ee45ea17
9c2870fb
f4e9b02d
5cf879b7
f9009c3e
f04ac5f5
757d2e91
2c3fc9f9
61001901
db60649a
9067d30f
f27822c1
b8249007
201d9401
efbf1680
487fa09f
7fc03be0
c840dbf4
800bf353
7e10fc00
a000bf97
b3686dd3
04153501
ffffc000
12fcb000
8c752014
1fded103
fbe00b10
a027108f
a00d27f4
030b2fbf
21901f4e
5f80a200
e81a7fff
727cbc27
83b9bff4
90a04078
0537ff84
fd004a10
dd272419
0ffd0d01
0a040292
0827729a
25c13ff2
3c00dcf4
76016ef8
123ff3e9
1a402dbc
60fd8d3b
f996c88e
126ddb21
fc20ff4f
b9a59d8f
c000a9f7
180c8e5f
01e992c9
c0889910
1903c9e8
07edbffe
e20066bc
07fc4d27
ed848d89
82fffcfc
c080713c
0a6003a4
666dfffc
1a020a63
702223b6
2c81c27f
b7ffe9f2
80440f09
1bdcf907
a8cfdde2
2e3c90ed
1feefe98
da201f09
7fee880e
fd926823
486c0d34
82096d88
fb6e59a4
db69480f
eec7db9c
4a4d2bdb
a6f037f6
9b4adb69
77d1dbe4
d92c4851
ec77f37d
4000d9f6
cf67b84b
109bff96
85993a00
3e95cb04
36ce538c
097fd929
db7c4934
00000c92
6e6dd8fa
790822f9
ba987e02
d40d0f7d
490096f6
904c016c
61b6f44c
8000ac26
8cffff30
5f46bedb
362d96d8
73db1832
080f37cc
246cb666
f6dee77f
a5d35bff
c8488915
37679602
c00d3b76
1012420e
6bff0fd9
a0332d03
000013c0
f1dfe024
0b137a7f
0114053f
e10d83f0
6c496dfd
760086c3
9ec81f12
a007ffd8
5b00326f
e5df200c
13b666e9
f8904de0
6e09626f
ae50b603
04130e04
47a02fa1
e4f06ffe
1202490f
ff0013b2
fd8c9b73
0601082f
80081229
5a4007db
ec1109b4
6e4bbf84
05f13fb0
00ffc266
8928d820
1c0426fc
00107e3f
68013569
ff7e00f4
2961f12b
c94f1fc0
9bc067ff
beff847f
81f80f6c
1acef2d2
f807fa00
4c397227
70206803
841e0f4a
8147ff8d
03a6ffb0
1d1a7f30
65efdbf4
f87f1fe3
079c56ff
9e469bfe
a70f50ff
248b4921
ec847790
cd5040fe
00004244
b6c341c8
2286c1a1
67e20c00
bb684071
e3de04fe
34005548
2606026f
8181b7d0
b6a42924
ff03603f
1bf4401f
ffff9190
de00c7ff
dbfed03f
fe7c8f4c
0e01fffb
a49006bc
f9ef61ff
8c87c48d
604027fc
7e8100fc
aff97de0
fc087913
05ff45b4
00193f8d
fc4c117a
d0e1eed7
70b81de1
908d9a1d
87e7800d
7df21800
9fff7828
3f887dfa
8c0f9805
202d0054
f9032069
002619ff
04003e01
6f43813f
5fff329f
1725c863
13ebf5db
85d80841
9c0a487b
fc682fff
bfe01b81
e8590123
ffd9b37f
058f4100
bc001f12
173f63a5
12c00000
01839024
bf807fd0
0a8f173f
e21bbfa0
00107fff
6d44d8e0
2c8f2280
05a00025
be18a1fe
e10ecec0
cc1d93e7
2b000301
dd363fe4
017f6df0
7b893fce
02b1f4c0
c71273d9
0000ff0d
9e721f01
3f020819
8d060206
08040b41
d80bfdef
849f8238
1d71fbd3
c0058138
fdce8f82
9ffe5f6b
ee13464f
b5f803f9
613927a4
b08a0f77
11382484
001b0213
3ffec3b9
88c8869b
e1be1221
7f03a6ca
a6059efb
4c9f6f45
1e90102b
76efeaf0
1bed34e4
2efb6124
c840f7a1
ffe24f20
0b7ea637
ff4b25bf
df7804eb
c761086f
8df8072f
7dbe270b
36704a4f
c1cc3f89
a09f6127
c79bc5d8
3a481ce1
24740b0d
21012d7f
07d8d7c2
9f763f00
2694eecd
92443e39
747af979
0f5cd137
81977db0
22cdc92c
0350bf61
25f88160
9f6fa6da
b5ed97e0
fe009380
fb76c7a7
d0da327c
0dfb62d0
dc640102
27fc6e3f
37991199
620048d8
861ff0fe
9287a064
1a0af965
fdd317db
0807fd27
6c36df32
0efd7608
923fe382
221059db
26450f07
b6f06c7e
04827c00
40dfb03f
624ffdb2
f7e5d7fc
9c9c6040
49e81b00
e35ec1db
d90d8690
56407ffb
ee0e4043
67003024
fbc51c01
d87e421e
ff6e5e68
dbf3fff1
6f78df05
c019005b
0e3affef
a219383c
24ff8e6d
f0979440
7f6f853f
3cbfda6f
1a64f3ef
0049fadc
00500d75
ffbf5c7e
00000003
48b27fe0
0018edfe
b7a021e0
06fe4530
f181edf9
dff0b4fe
00712ffe
0603ae00
218122fc
5b904dab
630dbc04
fd8fedef
e80029c0
8024cb7f
01f77f29
e9fffb20
0157fbd9
3ff4f210
d2f442c9
b3f856da
6c0cbdbb
8fb650b2
8641fe4e
a8f6e632
5d3f4d0f
77265b5b
61a0d56e
2c7c49c4
adf70422
ffc0028d
dbb07e21
0112700f
29374027
9baf2480
25ff228d
167f3887
b60a2988
29292e01
de2046c7
bddc0838
0ff7e3a8
99f9eef1
778000f8
7bbf8010
9263f4d7
d917d985
f539ffe8
5bebc7eb
e3393ba5
8e9de5fd
b43713eb
a35ed797
5d779b09
014958d8
1443c948
b58747ea
025b8052
21034bb7
24341ce0
209ec06c
ffe3f6d1
c8800050
e0ff2143
fff18232
0e45bccf
64fa7ce0
00447fd7
00d93ed0
0194c800
e8e33008
0812fd94
e37f7fec
a41ffdbf
7ff80276
ed7bd6a0
07fdf298
f6ed1e50
83ffffff
7fe1e008
80082db0
fc0fc900
200d8005
0e98ffd9
f8aa7be1
d7fa91ef
81fba000
bc23ad6c
c0018117
7efe1c7c
fffff390
f5c02e7f
0b3db011
fe7fe870
2b47fd27
c23dbc49
000148e4
88b22c15
91052fe7
3b25ebdf
07640fb9
9002bfc0
84fff31d
fb276db0
80349f8f
78421fb7
fb1cbeda
01e916fe
4581b003
179989f5
fd9bdffa
7f00f314
d0175d84
40b0018b
876e27e0
0ad83138
9c40c000
db6da01f
0a247ffe
90020281
d8367e5e
e6a46e62
7b94e7f7
93d63e02
3b0d460f
6204dbb0
dc6d6623
0dfff13c
ff37ef68
a4b7dfc6
fe9c4810
84ad206e
fffe0b3b
fe03f168
4f071b1b
9fc0387e
d0fff116
73bf51ee
a37e8862
fec00004
ec34e691
bfd60124
7edf8fa9
6021f913
5fffbc36
57b78c36
bf2ffc21
804dce7f
003fb00e
01800040
bc3c0000
fcc891fc
88c957ee
4000dd10
37e00247
b91c92b1
17b7c287
beecdff0
fb703ef1
6f7318c0
4081f9ff
fe1f6a69
034f93bd
12fc0fe6
b407dc4e
ff86c009
b7d12598
1fc684fd
fc17f672
cf659fb6
9ffc0dfd
fff500f8
ba648094
6db78136
98627586
4083b736
af581fc6
1bbcf8e4
2c809769
6c5d0ced
e161a7ad
b0c4a6e3
15b17c96
77b242c0
a107f6c8
ddb6d341
d3d8482d
bfe9b000
047e07ed
3ec64a40
3c12a273
69221bdb
93087ac3
f326c5b0
b2580d47
e59f20ff
88c24021
06b6c1ef
fb6acd02
6f9a0dad
bffd9191
8e5c4104
4361cc2c
79017f40
f801f1f0
2583cfb7
5260816c
4169fe9f
41e40d78
0e00ec3f
186d3b03
b003ede0
481c1c1f
2c9648ec
34659495
179003b5
40b4a824
7ebf4583
ff85e3c0
2f813938
5eddfff6
607f3e02
427185e4
0f23d018
7d01df00
d64fe7d9
8803980f
1d0503ff
b07fe7f2
57f3d002
07c78200
7f9d372f
c3538126
fd381fe5
3bfd467b
c010687f
fe4097fd
f03e241b
26d86d65
0fd800e0
d8922ec2
89a29926
6e40e786
3e1b4363
c8fc801d
fff37bdf
2ffb3537
a0fff004
a95b7e4d
001048fc
20c09e60
4e2ae4d0
e20fa6ec
443cf6e5
0f05fe32
9dbfc70c
012193d8
9664f209
0001dff3
7ff1b200
4b3b0d83
74034fe2
b213853b
b6c7ff4a
c50f3f23
471c17df
cc030805
f38a08ff
00a384fc
004207fc
ecbf4f02
c3098234
9cbf1781
f002820d
bfe43320
21dda000
e44037e7
ebd3afe6
f02b078e
1765dfeb
eb64f618
70b00396
1aa78622
e81e2002
f9bf0c7f
c83e5f25
6716f67b
4f3f6ce0
1e740128
f80137f8
7fc36d3f
0188f200
f8a4bfe9
0184fa29
f9242f0c
e6dc9e87
b677fb71
bc65b820
fe03fbe1
fe2010b7
534305f3
fe9c7280
3bcb37f3
e49df004
85bff6bf
00327909
81eedadf
34b3fff7
e1fd4101
fffa42cf
3e9d0808
fee29d99
240d2513
8913613f
6926672b
ef9c8377
8776497b
f0b00388
64a1843b
38e49726
fe84ce39
90012642
8de08ba6
5f26c86d
000f97fb
9904cec6
39b36793
f6043980
b34091a6
4cc10e79
924df8e6
1f983124
cffc4b26
8278001b
ff04091b
0fe76549
fa6e6ce0
396423c8
8180e359
1cc784f6
2cf24d3b
0596de3f
92cd3110
099be98d
829d23ec
000a009a
c7e06a75
7fe0cf82
bc01c580
c03cdcbc
11fe283a
002027e8
069b7f3f
803f801c
e072389f
8b804fe7
05c39d3c
1c05b7e8
69000821
fed87c74
e00a4e41
c0183fb7
0030c181
03b67af0
900ff9f8
57f93364
1aea0793
c003be04
31887d8f
5c72ffb4
26086926
06f4e600
fb812b60
fff7f145
8005a72d
a789dfd5
ef044cb1
7efffb95
fc0f8722
f8db6404
70b7bffe
c80c3ee4
7b9d3030
dfe88dbf
61b96b33
d002437f
d1e44a94
8dfedb22
5b000fc5
f16649b4
10178933
7014847c
6b582e6b
7bb5cdea
c30c9f33
9eddd87d
2121b680
fb2036c9
bcf76037
64ffd080
fb211f47
49cb784d
347d9076
2c1c1a69
97496e80
5ff2481a
4d24914b
492126f6
fa798de5
28ecb3b6
1b7b60d0
0ebf1dd7
8fa4bb60
25d93316
1b407bd0
1993d2c9
02cad1ac
285240f8
e11814b9
3264164b
9c073f13
b619b3b0
0018d81f
dfbba6c1
b9666c09
ba3108b7
5336c86d
38d8de4b
c9cfdcdd
8411b46d
1af03186
11b0c812
103bf6e6
362de824
9ffea3f4
47c038ac
97c01ed9
7a4424cc
40f4dc27
85e39102
69002d93
25937bb3
e9c04d99
633b609f
aecd0bff
036e50c9
a2600960
020f201f
560f85db
b7699809
e216db25
d04fee08
066681b7
240189da
2ffc8526
80a6e14b
c3f61009
8be02086
9f46142c
edd80000
9f137fc7
11d8145a
e78026ff
a7ec00b8
6ef6cf09
e787dd09
edbbf4c8
fe36ec97
b07f67fd
c061351f
b5b4c027
4836407d
f803b1b7
837b7230
84961b1b
3f84afde
b4df430e
dcd0b093
05fcedba
6fcbfe6c
dfe4bd83
48c0150d
7ed964ba
c811c0f8
1807024d
21f7030c
c421a06c
cbef9137
01ebb588
12cbffe0
276605ec
e800dff0
400621fc
c127d94e
1a80e183
4020336c
2ffdffff
7e4cd7fd
06cdc7ce
c8074900
2283fa0f
ec49fc92
07e04b37
6e1807e8
bf4dd01f
c29267bf
4d87c39b
1268e9d2
f80c49ff
8bf7f03f
149fc9ff
02e3c530
7eff4e69
9f8da6e4
05000074
00049248
c04a3f08
dc938d26
0193ecf6
f440cca8
9fe011a0
69f44362
3017e7fa
c80037c8
b07d33e8
c27bd3ad
22c15025
bf929877
9d3c28d7
b8d2ea25
ff423fef
a4d60772
8053b245
23ebc900
791017df
78d7da7d
de36948d
20216748
dfc2522b
892f0830
a666799c
e093bdbc
9c380332
10f08303
26d813d4
14660caf
008ef93e
859ab9c7
a5aec201
e857fb47
ff1f8e59
b5353dcf
eee60b75
4eb47218
01e26fdf
a05a5a1c
3fdd2eaf
0ace2cb6
cc1529c0
d3173e10
9ebcd7ae
de6dff7b
41b9b6da
7da4e5f2
fffd6c9e
830cf927
6fa00d96
ff76986f
92f78056
09eb6b9d
db264202
e003ff64
455b08a6
67ee0993
e31fd7fb
e443907d
936d3cbf
f6fb33e4
fff37c16
b43374be
47e76c12
ceff219a
00241947
3ff66ffc
f3f0ee49
f246fc8f
e4fa003f
c927db41
daf946e6
1ed1e1b6
fffb0d92
6bd9b19f
c8140b7f
68176fd8
1b4017ef
5a807eed
f042f3fe
d3b2c841
81236d36
8034dd2d
0428d925
45cd76cd
edff137b
004c339b
3a24c100
0cddd800
64c97ac0
4b3fbe0b
6979a5b8
50300180
cf0932d9
d2805b7c
21b01f3e
93086801
049a0288
0a3fca60
db59b204
927ed9b6
3cff6de4
c0200da2
b64e2886
9e308800
340ce7fe
04d82f5a
69a2e948
f243d82c
003d9fe7
3bf29604
1d694487
36267e7d
3f512790
34b037f9
4f040d03
4d7c9bd6
409b9093
0e39237e
37fe7e93
72026221
e94f0f9a
fede4e83
10000007
a9294d00
df37db3d
222707ff
f3bb0761
f39000f7
5217d3f9
08d99ffb
00748ffc
48479658
fa6d3c23
0d125da1
26e7c900
6cbec1f1
a6fe1202
3f17e2dc
c1a4da00
a4505d1b
c078323f
fe0a02ce
f7fa14ed
040175ff
7ff800f8
024b0093
00012b7c
013333d9
1e409be4
1bf0d048
f482500e
12048012
00bc0ec0
863d9c01
600151a7
3818ff36
7df6b8f9
e4f7fddb
c7a00fe4
ff2783e3
6f6ddbe3
409f81bc
b20bfb1f
d93002fd
c71379d7
de4f03ef
2006873f
bb0c1678
08380e86
1bfef800
0701fbd8
6821ed30
7df3c0f0
2bff07f9
065fa3fe
19be4fc0
6b030dfe
c5803ecb
e52cbdbe
78a2c168
8126d4f2
3ffece1e
e5e6fffe
008349c7
3e827db0
03047fd2
8ebaf130
f6c40fec
a01bfb26
ed361920
604ef0eb
dfecd7c3
7fc94f92
8361387f
a4000014
ce34dafc
08c274d2
c842f1a4
4039b6e6
3a7dec1e
e5f36e73
68d02341
8ff67f2c
2713350e
4b796b0c
9b7ffac0
f801a91f
18379f8f
dbfb61c4
a40349b0
ffff9b71
da49b49f
10127426
19009a40
9a7fdf50
90810606
8d907f3c
bc79867f
80f01c6c
6e92da66
8909b6d2
24f063f4
09015e69
d3db6401
c7632125
c063e10f
581783c4
1b66485a
561401b6
62bec8ff
5b008783
098b6d92
7d00a290
bbec4119
96cbe810
d7f18100
0b6d9f0f
b2d9fecc
3f61793d
ec6c092d
12d87435
6dcd23e8
096e4a5c
a6733dfa
2cd24b00
e26d101b
ebd9e4ff
2013dc67
ef4586d5
b25a2513
24ff1720
600038fc
00f90dbb
38177dd0
cb2dc019
0bf97497
7bb6d86e
b5009fc0
f24db69e
adc30100
0059f4db
883c0806
00dffdf3
36927f25
6d621bfa
1dfecf93
a0f60100
bbfa600e
c87e7b2d
033605cf
691b325e
9cb8b21b
5c07fe25
2fef0175
00427ffc
e601367d
0a210101
1c7ffda0
ffd79df2
6cbfe1b1
0c6f90fe
379b0090
85ff09f1
1276cfe8
b003f332
d82c03eb
fff23fe4
05d1e4ba
5d9a009f
0bcbc09b
601bb86b
007b205c
1bf4dfb4
1b027850
fec41806
cb0036d6
b0218eb6
f7393dbf
e7cde934
76c36117
6cee0052
efeeffef
02f24dfe
4f66ec69
f4f2fdab
c803fffc
81790d40
af9f004c
7cfd9249
881bdfb2
c16ed89b
3bf782f7
fac8fefe
f84976c0
07ec8c94
7c4c9cad
93e9c0f2
3c217e5e
ee26df81
690e4862
f4f022e9
c40792e9
fe76e67e
0ff3bfa7
fffbc410
da91961e
649ee977
fe76745a
12e9b735
cae079bd
b61051fe
ff4e6121
b85fb2d8
90ffe07f
7c01fff0
f9058ed9
01efbe93
144e385c
f80017c0
8002c831
08721a1d
fffed090
ffe40fff
a7ffeff7
c01ffebd
ff7eb6fa
3fc0053f
c7e07fda
8e4fbe0e
9ffe5857
f80be618
64bfe98f
fff00000
905fbfe7
b7ff6824
f202117f
dd6fffff
6ff04a52
207dbe1c
f9080380
fe7c010f
4bc3e61f
e21c7e10
81f2f409
7fe99003
108bf9c0
f1fd1000
0404eedb
fc16dd00
6b707d35
c3fe5864
1de2a427
69b853fc
0d8edf65
b7fa7eae
7bb27548
f6122ee0
801971e8
01b7810d
4916040d
eda5f200
0e176017
022fc018
b8dff887
76048371
4815ff03
97e67636
31c00460
017ec9fc
3fc9f9f8
f4017c30
1fa7d003
47004d86
b0380124
fff627e3
bfa7fbd8
7dffe2f2
c25fd8fc
448191a7
74010874
e8bdc7e1
ef03a27e
9ff92d7d
dd7bffe1
f92d1667
fddf327d
fc0e9403
2eece44e
0034f3c2
12401f80
9aff96fa
33c83c68
0ce64319
feeedcdb
3fe660af
e44fba5a
00737004
21a50a03
03f2c0d0
1f1b4911
674edb00
40899b02
84fcb1fc
bc401e95
aff3f66f
c69ae82e
2ca09bb3
040db064
1b13e640
97f01df8
6d86cb30
cfde9410
890170b6
8d1ad927
60209038
2d0d247a
85f4d0bb
c4f3bb76
ffff1fc9
5b71533f
5ec77c1c
53e4ded8
e3fc0717
46e4f077
b6c8b672
ff2db763
adff803f
7ed65393
c8112924
049ffdd2
bfbe80fe
fe002717
52aed92d
ff9f000e
e00e06bf
90ffc073
7017a7fe
fb9ec776
d7f26fd0
b7c0e060
8b85feff
3d80b5b8
0203ff84
417ff740
37ff8fbb
6677fe01
e900396f
3f33c180
7fb6290f
63ac006e
7289fb33
045b01f8
d7f7359c
df1f803b
8ff81f86
7d207edf
7fff77e7
7bc2207f
fc6dde0a
c0fce9eb
25913f6c
134dbffc
1bfffec2
f8930490
fcfe753f
fffcfb90
86a4ed8d
7fde0701
3fe1d420
6db701a1
60b70003
1082adbf
f0309ff4
ef803a07
80dff08a
77e2c440
ef72c7e0
26defdbe
20064806
5d612224
bb9ffef6
89a0fb33
800e6a1f
bfffded0
c9a569c3
604dd825
f7e1fc17
80a0e010
f085838b
e79b7400
77b9fcdf
00717fe2
dd71ed37
64792402
1133a09a
11347b35
926fd8f6
3f16cbc0
400025f3
b0cb2e48
0036f481
b1276440
5243e00b
e8b64cfb
81cc8a8f
b0f9b433
77fcff95
eeeda83f
bb6691f1
ec7fd56d
f9076def
76f4009f
278a9101
4015927b
c920ecf6
9e8db937
c66cd268
b0282548
2494537c
024d8cb6
2e19348c
9c85f8ff
1b0cd69d
3f29ecba
8e1a4325
4d03d920
5246ec6f
e78d3322
00667492
1dc37e90
6774669e
6c010d67
fd306c7a
e7fbdda7
cdff803f
7db3239d
e4379463
40cd7ffc
1f5b3b6f
fe6c1964
fbacd1fc
ce27004e
c2fec12f
bd0336ae
4169eade
ede03e80
279007f3
fd07ebe5
dc75e8ff
f92ec0c8
d2f7f27d
0a66b241
f89b80e3
43b7dfbf
d34dbeb7
1dda17c0
967b3849
acfbe704
a6b21b36
fdbe0bf9
8bf21c1e
809378ff
0ec8db7e
e2303c38
b8559ef3
69081b4d
87b65e1b
78ebb1be
b247f04e
1d06b481
e3d84bf4
4e4925b6
2e527a18
26fb8019
0b5b6409
6dbe36a0
e5da4737
6fb42cbd
65f6c803
1967ec30
f65a0340
5c24e10d
ffe00c27
57180dbf
2493b6db
f90d57fb
a8000f83
7a7efb65
cfff9989
c1395304
809db014
a49b62d9
fe387150
8688013c
a08467fb
be69dc5b
c453ce00
9fdb94d8
0c0099fe
6de5a419
25906a05
080f3269
83f2da19
89210013
edf4df85
eff16803
48da0a24
b0071dbe
e5e82483
202ffe3b
00496d31
458db6c2
88bb725b
4c36ef85
6d925f97
043c480b
12d0901e
f7f20360
07502604
99c0241f
7c0f4f86
f925ff61
fe177d82
a0020f3f
e46c80ec
024bee0c
5bfdb681
20007fcf
7fad8169
b74017f0
1ee0f4dd
0202df3c
99132804
040085b0
0d392400
604f8080
df8e8a7c
6effe175
3f01c990
f406c238
00430c01
e340305c
fc76f0e7
00bffc21
00591481
fb426c37
ffe48050
768379ff
c40c9bf9
7e00f610
bc8db840
effe37c4
8fd1fe2d
ffdbc31c
001f8818
0b98e90e
15fe0003
c0df9edb
a006f60f
e0c015ff
48ec19cd
28c003de
0fb0c774
f8440bfe
f645e01f
826784ff
c6543bcf
8078f31f
1eae90e3
784001c0
f93ecb6c
fc2c04e1
fb1fe8f8
ed2c9b40
8004c90f
660d1fbc
6ecb1fc9
e36df4eb
3dfeb624
e04723d0
0b9762c1
fd1be9c4
b2317d9f
080d4f25
b0824be1
2b26f5f0
2042c099
f9124cec
f27967fb
d4e6fd60
c6d1e5fb
69049646
6533fcdb
240052f7
75a6fefd
6c18a124
4b1a01fb
8336d832
f22c05c1
96d926cb
01e667e8
6ed85a12
27fc3e26
9187ed4d
0f9ffed5
12870ae6
1823e3c1
65cd3212
27830127
af02212d
207e0006
1be4bfe4
7f400782
e1b20b64
812ff203
41f841b4
011987f2
439c361a
f41f9c08
6dc84002
cf805f0b
016be090
cd14dedc
d00d9fde
d6076433
007edb63
0827fdf8
8443242b
241acb1b
47300000
93a72970
dc71ff64
1413c1c4
be001676
0bf64200
01fc0810
87d80508
6c3f19f3
479889eb
3f400902
914f1934
c7926646
90877c91
0bdf060c
ccedb4bf
c600d2e8
98e7ffdc
e3fa2ff0
9326c848
9f969dc4
3704b502
ba983e36
7f835a41
a25c1b63
76fb68b3
432f3f3a
cee1fd5e
2579c35d
866b3d90
fe7a6800
3f33d2e0
1bc8c033
36c13e2f
07f85f31
766e1343
6cfbbd1a
eee90027
9c701765
4d6d45e8
de524dbb
f000dd44
c69cf2cf
3777ebbc
efc1f8e4
0975fd9b
e7775330
6f78c71b
a000eb01
00286287
502ed87d
00264302
e13fbf18
6c01f6e4
f4c0424b
e89fc96f
c2084edb
7e248dfe
0e58dea5
46c0c01c
4f20f3fd
f6333cf2
d82189fc
005fed87
4000bfc9
040ff852
fbfec022
0b7874fa
bfcda5e0
27fd8027
742694bf
34dd26fc
96e02d07
4e54fefc
2c9f0a0d
30985277
b00f7080
ffffffff
e1036e3f
8001efdb
1f906e6c
be03e040
01f4b77d
7e48fad9
0a60393f
eff843f2
f7e7eb66
b36197d0
7dfec322
6c91ffdb
e61d06e1
93b6013f
3496cda0
a507c900
7df03192
4e76641f
fed371e7
a5880b76
67fe5109
e01fc7f0
25f90878
5b790101
df421692
cfe9ffc9
ed8cbcf5
b4936f49
cbff3b40
c0102924
803ffedf
b3d1a3ed
3fb7bc01
edfb6c09
fdb7d9b3
a6e91076
3edff29b
a7c005ca
815bd30c
ea1e9e27
6cb2e47e
1b72586f
309a72c9
dc025294
43496586
f8dfe770
dfb6ff8f
1bf7f6cf
061c8b40
93ff4bb2
fbffb9ff
b81f9041
fd337505
49f6417d
f8c3fe37
841b69e9
03e990e4
f8000ef4
89ed0873
02422721
a6e04dc0
6dfc8381
00b03ff2
216f75ff
49a49b7a
84023000
29f69dfe
fca60000
5b4607ff
e7100c3b
dd24936d
1bfa24ff
389360c9
ffd16140
e2c81302
f84f7e7f
84a76bff
1f529962
10ec41c3
30b6c3de
d3047a60
e8d3f059
32df222f
0181e40b
b7fcf278
04f0e409
2c9a6640
17016f81
bb78ac6f
931fc9bc
83fc8dde
7266d348
21926460
06e4f74f
0bc9c89f
bc984ad7
062fff82
9ec6eb93
2599097f
cb7cea26
6d792702
f4f24224
c0e407cf
80485b82
cc86ecda
276df7cc
4fdf24c0
3bebfee6
47fc4c07
1005e472
9acfff00
44dbe6ef
b7e036b3
de869b6f
d95fe842
c2292408
30818cdd
20747a0d
32023e8f
61f6fe08
040bb037
4bb7f0f7
ffffef66
02ec4edd
9d3fe3b6
f8e0fdbf
0457bee5
1f0b6a46
61401610
b93fe4e7
eded0101
210087df
136cec1b
01acc3c4
258009e0
dfa064c9
3907e790
f57740fc
bfe08d8e
36fe6d96
48024afc
09000dc2
f72b232d
078229fd
7fe3c003
683d4cd2
effc0f00
7defe7df
b04b1ff3
20825f43
401001bf
8fba41b7
48393b3d
b0afdff4
89080010
dc49d0f6
c50ceffe
00cb127e
80451000
3412be74
4fa12c6e
dcff76c0
fffc3eed
f419fffb
5c3effe4
6680fff3
d81b7096
e1fff601
e91fb91d
f6d92d9d
1dfffc84
48801c40
7680172e
617880fb
f4600000
14033e8f
be9f3f24
9b0a7fff
ce001b03
e812fad2
93905ffd
c90121a0
6c1e58ff
0121bd10
7c046cbd
3c81e1d3
34882236
0808b825
6748ffe0
f1f7feca
fbbc059f
076dd99e
34ad8249
492ddb7e
c34e402a
cf03067e
6907b28b
8344fdde
efdbc9f8
b2341132
034059fe
391647f5
fa5f056d
1b07c373
01da3fd9
78a000b2
ec7e197b
df80724f
73a69d6f
03fc4bda
b4148fb3
7e746681
20ba902f
f6d3b6e4
7646db93
e248edec
6edb47f4
6dbc0106
6f6cda4c
a88cfe77
26582476
3c42c87b
5be771fc
89f8031e
fb5f5964
f458fdc7
6800326c
21fe9052
07f539a6
6e2064ec
8db70ec2
df807827
06fe4f46
2657df60
27fff3f7
41f84109
6dffa000
cffffdb3
6f261132
e076bcef
363fed36
f0c0036c
916ff685
24988580
873de450
c5977493
c3790ece
21fbda7f
2da37900
097fe9bf
c17ffc24
bf9d8fc4
cf9eb099
b71b30b8
088e41fb
76d18bd9
f26bd190
252d0f65
f6eda630
9803d5f7
24c23f01
b49a9c1f
afe823ff
73fdd097
3e1bb9f3
d1480bb0
ffde286f
23132607
8bea4f96
f3b9197f
b6021f64
4f781629
63cc309c
3b5d07fb
897ff3da
f4653fa5
4ef79fd7
fbfcbf5e
f93e05ff
07eef400
203b0d0e
83801012
3902f7fd
f949fe00
4282605f
c2f47c0e
88ff92b2
e0f09167
9c96c577
fef6c070
42ff231b
ba180fef
f547f5ca
13c03fe4
7fe8c55b
1e025004
b420b610
b400bc0e
edbfe175
2508492c
36e91240
a1411b86
da04b26d
b825b6c6
20dbdc40
103e09f1
cffdb04b
7f748592
6f6fcbf6
c01fe3f9
6e4bfb20
9f86cf8d
da926fcf
424f358f
987fc963
587fc900
a4b5a592
6f921623
40580ed6
9107f21b
d20db040
12df5ba4
ef80dab2
6d96e600
5f900902
76368122
c978cb04
d041a0e0
c8c0ad8a
196b209c
470232c0
f1365801
761a86df
2f7c0010
f007fec0
fc0e10d7
07e100ff
1a07feca
be412ffc
3dfc73ff
00c01ffe
0b0900f4
fcdf90d7
8bc4e3ff
e401fc1d
c9ebf930
f7e80089
43f7f92b
004df83a
01f9fff4
fa4c02e0
fe6c2005
908b49ff
9fdfe8e3
80e3affa
7c5c1c24
0191005c
07010e70
30384c00
f685da40
fa038006
8145fef1
4cbe6ffd
65a25030
00cfd031
812a2f18
f823014d
fffffbf1
0c7e6c8f
b1f24f2f
89f07e77
6e65312c
27e7b24f
48d8d05b
800f3b2e
2efbfec4
6ccc9a4b
ca4fbd93
cfd27e5d
268e9496
7f6feb09
24cfe179
f8d30712
e0224b63
44925a2d
46fa2b84
13360173
4f3402d1
c75d92d2
1805cfff
30bafdda
26442409
ddbfd604
b69bb6c2
9d8cdbd9
604afd11
7c9df534
cdfc8f66
96681b04
f4d46d94
52c87242
f92db17e
6f8824b7
9b3edf92
1e7fff6c
b3df69a3
0837bcf5
0848d24b
2ffea322
92bfdf90
7851b06c
230577c0
201022de
0cac05df
ff3fc128
966497cf
ee4ddeff
00fffffb
4ddbb6c9
5f9de76f
27806fde
af27bc0a
a3cfc120
f802ca20
00bc420f
cef03f03
c0dc1eef
b7db960f
dff924fd
5007fffc
0e588010
00261201
9c000078
7a678127
d52dc936
7be80790
05204020
048b00fe
0f632640
792b3e00
3417d8db
fadd91eb
7244890f
8358fada
061b4f37
6ef6f5fe
559837f4
a2020b36
1d20d7b7
db51b69c
00000614
88001dea
d3d9801b
96e30e05
ffdc005d
3d8db0da
f2908048
9b300401
90983fbf
a0c0bc5f
0c27e06b
344e1240
968db120
e5ff2141
226409ff
cda4690d
9067646e
f2712c9f
30263637
7c0252ff
73b62dbb
c984da61
12179b10
e0f03bf8
28e21bc4
b482ecbe
dfa40002
ef9c67f0
0d86de4d
c000030d
c11cf084
a4ff13ff
234dd521
3b0c7bfd
01870012
f1c34099
c7106002
85ff407e
3931ffb7
bc8db110
df267c8c
602f7fff
c1005bfb
40d76fff
fc16e090
f84007df
1ffb630f
51006c92
070db05b
09830480
43f08006
300017f3
20c802b2
480036e1
b003e9fe
06ff5d0f
641224db
3e6da10a
01eef204
00063810
6cff96d2
85fd2121
09fe3fed
00831a88
a019bcdc
1c03fd93
7c1adb7d
8c3ffcfd
60307c9c
6d20059e
af1eeae7
52eb5b1b
bb26fdfb
b627701b
b82320fd
d8545d9f
001f93ed
3c1f593f
2f4dc03a
8b7837de
bfe8b4e1
4d196a3f
7c25b5ba
3efd80e4
c5e84073
4fef93f2
939f4898
df0393ed
d0d801f2
e441fd5f
10e37be8
8086d22c
3fe06d90
2eee6bc0
31009c53
1e826ed3
802c5b5a
4f04c060
ff04c904
fcf56236
107b6b36
07f6f906
7e0ec020
fad2c412
fff6d827
37000105
bbefd857
22190e6d
481325dc
a72b06f0
efff89a3
c06c4035
fe499259
bf6ffedc
4bffb6d1
ffb72422
80f1f6c7
b7eefc50
7f7ffb6d
24c90200
fe13fb7f
f3fbb68b
42e2d5a2
fdff2002
59365f7e
37f90b89
181997a6
7ffff2fb
e3e9fb92
8924b42d
cdff7368
97e0619c
98225fc0
90c05c84
b724731e
0f800e2d
600ce280
6470031b
0013c31c
13ec4052
2b412d8a
b60213c0
c03f2337
9b47df75
001da5bf
59ec8a70
a47bf0fc
834bf37d
1f7ca61a
a3707fd8
6713d228
0fdf600c
f276d0e8
f8104ff8
6401ffef
fe61d091
c01d864d
2d17ff8b
16d00fe3
000fdfc8
7ff81f44
ff8fe480
304c20dd
36089669
1c0126df
6f148bfa
feed8682
000e869d
c083c044
0522dbf9
03a427f6
7b623d2d
03e03552
0390d0c0
bfe3a981
4000d248
8fbe4882
fddbb03e
f0057ff1
25cfe936
040e6f99
24611dc1
c39fe903
61ffff08
ec11ff04
fb1fa120
fc9fd825
f58011cd
f25c1778
07c3ac30
f1c49c10
8341ffff
fd1ffa48
905cfe0f
8f80c8c1
036f89a4
1658b569
108084e1
0ffc99f7
7afbfb92
fb08c0ff
3610900f
67f959fc
213ffa47
cb00803d
0b7f8f70
98727f60
072ddafc
ffef8ad2
fc012525
49fe8f7f
4172113e
e0065ffe
00f40e3f
2a004030
20902880
780081ce
7d8819ff
2001f920
c01486db
b7d92072
40001680
e800774c
06072041
00327fe0
df70d7d8
7ac9182e
8285d8fe
20009e06
5308ec7e
1602e0e8
00007008
fd040e48
fb0de023
ff9ed200
0038050f
21011f76
431f8990
0fdbed43
c8ad0700
e79b6ee6
fe383c0d
0d0ef49e
f06d2ddf
f62c1013
6fbff4fc
7ff271ba
1c21efe8
fff6c32c
49ff803f
afd01d9c
30b98021
7e00bff4
8e00a68c
12c197df
d81e9007
e9c3028d
9f8fa003
00bfa827
fb8c3ff8
9f8c3e1d
07e45e02
f9ff8d7d
14aebf3f
2ffcf278
d7e2ff7c
cf47a013
24f00003
e007a308
e1f81b1f
1f63de36
ffc1e238
60ffff05
d2e01d1f
bc17dbfa
f24175be
5ff87a0b
1ed8b818
fff2c018
c7304d2d
86244c4e
bc06d8bb
0164765f
68e6087e
1007c75b
088111b7
10cf4400
fd30a7c4
3fee001b
607ec10d
f4b1dddb
184d8048
b25ae419
000dff81
d004f037
06fa1b61
f0767ca0
7b26bd26
165b099a
200ec19b
f11db223
d9d8f4f6
061c5a11
340c8c3c
726c2721
6df7d331
c805f9b0
00f81809
5037e8fe
390fec5b
7fc9ecae
7b7fa5c4
016de920
7642eeff
01f7ff02
db7c8967
70646006
bffa169b
3bf9affb
820a0000
1fbedfe6
63183104
7db92ef2
ec5b9d18
f49a5fe2
00e8ce7d
ceb22613
792c8938
937da036
13792047
e6fdccd3
cc300001
0189bede
2b61b45f
01d83272
0effdbdf
7820b4bb
3048d876
9d9b7800
00ecd1ac
725ff522
db843be0
cf7db400
7e7b0490
27cfd9fe
49208023
ff7b18b0
b93b0767
6403f464
34c73eb7
fce1c402
90a45f80
7e3b0061
0f8299f8
19606806
4ffee4ac
04937bd2
f8c80b3a
ffa86649
6cf46483
9fefb0c1
3613fd4f
de7f98e8
84e08c80
f21efc74
3f79785d
e7e07439
0fc3fc35
4865781c
3807f3c6
b677bd08
b47e488c
e5e18f21
6e3f07ff
1e82481c
fffeb43c
83fffc09
e07db900
c0006424
880b52d9
beafc0dd
c7e7f348
d019e07e
bd826642
e80cbd24
80053e5f
fa7f0100
180609d4
87cf1470
04001fe0
dae90c40
be16fb41
1f407c91
e8fc897c
7e010393
44e82680
d90384d8
bd35f7b7
04221ff4
448ff95e
020f97c6
bfbc01d0
00c06ffd
0f5bbefe
16c6793e
7c413620
99a4e101
92a1fffc
04805021
0a279fc0
07088700
240003f5
a0204180
48004204
a7ebd3ec
a0036801
01a04003
07e2ff60
8032c86d
9f132fa7
36030910
cbb82800
e031cfe7
00ef2098
b67e0881
bffd9296
6f1afdb7
f716ffa5
369ea103
0407b6de
8dfc0c40
b809c0e1
337c9e67
b1ff8249
966486d7
bbc91010
920860e6
d00e3ffd
b0c2127c
2e101ca2
7fffe891
038369da
9e3f28b2
1ececbff
fc432fc8
41db784c
c09faed2
d8e46c3c
ea07601f
f7c81939
c163e9f7
cdbc825b
c2ffe0c3
c97d9c78
4d3fd3ae
fc11bbfe
12ebf8d1
90d0ba0e
da1e0ec5
cfff2c09
c4869f6f
eff0db9f
ffaee95e
c80fda4d
ebc92250
c99bed26
91a56f93
360dc004
fcdc76d3
fff9e07d
dad71f9a
395d39be
e1b6f742
f9192393
fa644038
b41ed87d
fd498dac
03f88a47
f6c00472
11ce7f9b
ff6d9e01
ee84ec12
e39db43e
dbfdcde6
4647ff64
b1491707
136c9363
cff9bb00
d995d8df
bbfc0923
93604cdd
73262091
b605bd13
00c99592
a3c6e7eb
189acfef
00241ff4
bc0fa4ea
e6ec17c7
f7ffda7e
8c4f8603
93000218
0e20fdb8
f9322044
7fc3b0d8
803c1f96
817fc937
e697f668
d9e61ffd
83767fdb
0fe7d3e8
0cfb73e0
d37fd900
ff1db641
5dbe1b66
f1b1e700
b49c9f7c
99f42581
ec8f2723
48827c3d
0d7802e7
e37fff3d
191bf136
f3f81ba9
0795b20f
3f170e26
9ef8ec69
fc612041
25a47bf4
78033194
03cbd91e
054bff74
ffcc2000
60120097
f70002ca
185b8076
0cf00d68
201036b2
f00483fe
fa02449f
d6b77fff
36013fef
2049fd00
d6dffbf8
180bff10
dff4e022
607ef827
01380005
b2482de0
7ed065fd
77dfe050
fd07e419
db1ff37f
aedeffff
a1aff803
c1bfb6ff
b1fffc00
fffcbec0
87fd2b7c
0432421f
bc01e404
c1bcf6c8
ffff8202
001e6867
ad04fffd
4982465e
1fb1279b
a37c01d0
ed9fdc4d
c4113fff
7613e07e
b20f93cb
d340dc01
361f927e
0fdbefb6
fec9d220
ff227a23
f9b5e433
b5bffeff
993e6db4
7000938f
bff21892
efd94838
e3a5be48
9bcdeedf
84061e0b
0fa489a3
d74d341f
c0ad605f
fba4fd76
a37d1b25
096813e7
9000638a
c096331d
e0033b27
7a1ffcbf
6e5c08b3
302c8331
9139ff4a
03d534d8
b4690f51
0dbe6000
f7b6b0df
7d93e053
240dbc0d
63fffc12
fe001121
825ff831
fb310000
7b268f82
0963ffdb
9a02c9fc
40d9b605
abf22200
93de4a27
e6de4246
4b80e59b
ffc0081c
25ff8040
fbff1c00
6782c71f
82ec4c13
0f37b5bd
bf5e1000
fdb8b3fe
e0275a89
e04ccd23
ffff1bcb
f8a7fb8b
17ff170d
64803e4f
7ff5f2f6
d04b2122
c01bd06e
f38307e1
f3fc4806
017f486f
9fcc434e
ff8d941b
67e3afcb
f21c17fb
6081c1ac
34d6c888
0876f02e
78827800
fc04893f
8e1fdf4b
9dfe4fdc
0367f269
02c16554
03e0c0f8
0ffffe04
497a48fd
1f2030da
3efee808
9ff7c3e1
4c00b85f
001da4b7
d23c9492
93ba6de4
87eb0026
fffc16ad
340605bf
2ffdb6ff
b1bfe97b
06a7adb4
df60fe7f
404fcfd2
dbb26c4c
2de6e64e
b400fecd
760fe5c3
18259d82
09ff00a2
fc2fcb60
a03bfecb
97e7e07f
67fe3a03
fee7f3f8
ed7c1392
fbf6f8ff
3f978000
f76fb8aa
bc363b3e
f81d7fb8
0d798591
2f9ec81f
7977f279
680f139f
fff4803f
3fbf80ff
71ecde6e
9f890380
049dfe30
bf17fea0
dffa90ff
ffe571fc
fe3f3be0
c10a5800
f8ffb7cf
793f9f41
627ec200
dffc01ae
7ffec036
e87fb107
e7e6d03f
f8000e82
127d306f
bff4cdeb
183fec00
91c18100
7b668186
7ff60139
e0fe26f3
3fc00f7b
7fff091e
e0d36ef0
f0824993
76f8f54b
12b605c0
6851102e
ed2da7f0
10dfe549
c1e3ebb5
170bfc59
1f7439c0
7923ac00
7f7fc001
187fbec0
fcfc0147
36401eff
0fdfc400
c722d920
ee41dfe9
202248a6
7f0fb028
ff789e32
9fdf81e1
a7300030
01c73f4d
04bfc1ed
c3e2d178
0fef244b
f3d0f9fd
d23fdbc4
00867c0f
01ff0012
b01f7e38
ce07897d
1ff02f33
770341b9
2004ff80
fb41a01c
f97f80c7
87f847f1
0b298b3e
7863da2a
f0c0dff2
bbc1e502
02200f5f
61bce18f
1ffbb163
07c86d19
ff6e1daa
c80000df
d26c5eae
0d001ab9
140dbe39
9a1e1138
8cd80002
824897fc
d80400c2
970061fe
087fdf03
332c0800
fff6c4f5
6b3727e1
42a0419f
7f16087f
03ee2011
c2344f09
6f474bf0
3c910c3a
df249f65
00448126
002e3b0c
c0ecf808
7f5f703a
01247850
021b7980
9bf7f64c
9f1247bf
1fbe2088
0047e080
e3f7d909
6de9fc01
460a0812
d30f801a
ff080024
0293fd27
1815c81e
50100ffd
74407900
fc1a0003
c6de1923
040703ef
e5f04ffb
ffe086c1
bf87ec29
0effc403
4424bb30
9c1bffdf
bc2204a4
87fff24f
0bd9e680
e081b87a
e5248426
b0061adf
5b7f9ded
40e32209
8008a030
23806193
b4ef7925
ee17f3cd
e2ccced3
00e4801d
81391fdb
486d591b
cffc71ff
ba3b7e9e
be3096f7
b81f8d7f
e7ffdbcc
bc403b3f
03000241
8f797c00
0bf3cc89
cf9021f0
0407f1ff
fe9fe3e4
390305d3
00ffe05a
b7fe0cdc
f0fd037d
d2cfe1df
67f01d1f
200011ef
c91002e1
037e649b
39fc8bf8
21cb1bc9
1e4e4ff0
922a3128
9f45fbf6
b200198d
65be0eec
843fcbf1
cbf79605
c93458d8
7fdf0d00
63ffb0ff
501bf6e7
203f9a18
e4fe7cc0
f8000f2f
c667f381
93e82783
af1a09a2
080727d7
00036f12
ffe03d18
00183c01
ea781bfb
217fb03f
c0c8825e
1fca7f9f
396106f3
de0e1000
b10807ff
53e000d8
b64be24c
1fefc001
704005ff
ee79e100
6b243e80
bee5601d
80069395
7d8ee3f3
646017b5
01031402
1e4e4020
0120bf36
80387b60
bc00d464
fdb6165d
2dfccab7
02489490
4927efd2
0348640e
5dc24001
ca24481b
fc40fdf2
2193fb21
00009e4f
29a0e790
bf9074d9
ff006d31
b7dfbfdf
d6a0c7a4
84ff8e06
8654c289
92002fa9
56e50006
bdb40f80
e0503fbd
0004e2db
9d0001fe
1cfb4741
c0000fdf
8243bd87
3c2136e5
0b100c40
4fb4decd
216fb808
24000804
4bff5041
000fe7fa
03d2f471
f7dffb80
23f0c81f
621fc278
6c38ff07
7870680e
268e0417
fee6dedc
0245076c
74fe487f
7fc0e5d0
ffb3f6fd
407278ff
e1f9b226
fef02001
c426d52d
ba3ffc41
3fcd837f
d813b124
24c3a6f6
ffc80001
c917d83f
50d13a7f
00005fe0
13ffbb74
96f8ff48
02b2c403
8b3c0826
7f248075
700f2160
e0e4f3b8
de877a0e
010b000d
70498d40
00064e4f
328e841a
26d3e5e9
1be9a801
83914d85
d69e0fdd
7fd826ff
04965bff
f4f48004
fb3ed1b2
c07ff9b4
d7ec5e45
7f4b2fef
7f7fb642
bc83f1fb
ed4f1a72
a050e001
fb901329
04123c0f
33819f36
03b34ffa
fa20fc90
7c77d0f4
ec23f581
205f6cdb
99024fa0
fbbf8bfe
99f9ff6d
a0f7a814
35bf8da0
49368249
db97ed19
6ffefb6a
daefee9b
1c11cb27
0080d864
47a02e4a
8364b102
4ca684d8
fd1e8b8c
7da785fe
00053308
06cba1bf
c73fa12c
a01b73ff
724ec249
f20bd2de
4ff005f9
2d36c34e
06487f06
648160b4
02491812
9006d86e
49ebe957
02cec329
0f87e49e
db4e680b
52ca0892
40b6381b
06d24ffa
4c2401ae
e097b69f
2cf83005
6c269343
6dd6a97e
7cd3f93f
c0b73ff2
43fdc901
cdb64fb6
026bff87
1a4d389f
d9f7d0c3
9004c83e
60fd2fe0
ff37653a
4bc809fd
fd7df002
4b6fb6f3
b613e7a4
10000010
0027e909
7986a65e
eea400b9
4bfa400f
ffd262f0
fb49ff04
42e04eb6
009a0fcf
fc08004b
fde96cc0
30001d01
404dc372
0667f07f
00361000
2ffe0304
029ffbbb
4890dc8b
e20da4be
df002204
c1cee18e
0f10060b
e30a7012
7a937d8f
3081c026
12fbd1ff
0fbff870
c7ee687e
f920090f
ffe00fff
e5d91b03
3ed9121b
08017c0c
fd9bb5f6
52186ff7
814f007b
2c013880
25fea9b7
490b7de1
df9fc178
a7ffbc0f
bfffea42
6536ffa5
fc8fb7f9
03a025c2
dfb04ffe
c92182df
03dbee09
3fb3e438
586c29fb
088027b6
1789b202
3fdfe258
400164ce
e09dff61
7e503baf
fcc6c09e
0fb2003a
0b62487f
7fc05a7c
409a30a2
fedbe4fb
8a011f8e
8078a8ec
4093000f
1746032e
94d9b7e0
826e0936
800de27e
9ffe80e5
2cea2986
6c3fdb42
9dc7ccdb
ffff902a
0ec2be19
edc8bca1
ff03f209
853fe495
c380bf3f
ed1c2010
018323a0
5d86417e
e8fdc0d2
704edfe9
4100811f
076db636
83601390
8bf62ebf
3fe7efdc
b0dc1974
d98f66d0
f0e0067c
909700f9
2c12c31c
bd02d009
ffffff95
a76cd864
3462d4dc
c1385b68
c27fb1c6
36643f34
f8270fb3
fdcbdb6f
039bfd81
fe5b7adc
004e826d
cde44258
40cc038d
fe6024bc
55f236cd
24df0c68
3bec3ede
f36fde23
f6e4933f
780074e5
1a0eb5ca
91fe3731
618fffe4
c03dcfff
3490976b
3677d920
46d9f324
32c90002
7f6fb7db
400bc66b
7ec81fb6
c08fced8
0024fec4
16d92700
5836e6eb
b76e68c0
1fe4c384
4d670072
c5ff2597
b622c206
4c0da200
2ffde240
49312e45
6d9f0092
0b232fc7
8ce6c477
2f9ceeff
e44004fe
9e96ffc9
fff02349
6dff803b
0fa9ff9f
f77df0a0
c77efea4
3bc9f22c
e4be9678
df13fc84
de02af80
ffee0136
28ffc988
a9b39fcc
f7cfd83f
06dc1f12
921fef74
1c8a7734
c9e2691b
5a4fd1ff
fa796c00
5cff8530
8787fc8c
1fcdbf1f
7b9efefc
9f4c8e72
d7fe21bf
c95266f5
f7761fef
646f331f
2f299029
7a7e7c3e
ffcec107
8343486e
77fdde0e
07fffb90
ffe3f85b
fe06a766
024ff413
5fbfe938
4640429e
0d6ff41e
4ec20e0f
1a64e2f2
ff9201c8
3b29980d
f7b023e2
feb90167
01fff6ff
fb0b06de
ffc800df
87fa7e1f
e23f600f
3c582792
ff3d1531
f6c9ffbf
fb6ffc03
faff92ff
80193e97
4069361c
85067f7d
3efc87a9
3f1e76d0
082c8b07
fe6fc272
3e7b7dbf
1a52125b
06c5bffe
a7a43f9c
872ff187
402ee378
3c001273
fd64b248
b61bc026
0049b4dc
c82013d8
003c7fd1
0f806680
78000c6e
50360802
167ff9c0
c0040a04
1200ff81
9ffff858
cde049a7
0fedfc21
fa49effc
f8ef01ef
12621edf
b45e9f00
7fd60bf9
d920f07b
52c8027f
58007632
02fa000e
0fe3c008
30007fff
80bf6bad
a005b49f
87100c27
bc1cc94f
c00f004f
6630492d
fe01fcbf
e07be413
86447cc5
0107c190
2c00594c
36417209
6c010024
0329a32c
063b1fef
405c2bce
5f0dc0e1
49d026ff
72a09932
1e4d3118
40fbc9b4
01dafdce
d27bfb03
2b02053f
0bcae17f
227f17e0
f83c6dc5
0024cc6f
5006b037
c0c04077
f5a0d7ff
907920bd
4b1a5d04
5244f00c
7ca6c308
08fd6f7f
80a4c450
1c017791
d619fb30
7f260583
20096d18
7e246489
7240487e
1f9316f9
058107df
013b1fee
806f8014
4d8c7804
6c089b93
87737fe7
fbffb23f
efef636d
f65ff923
87378bc4
991ff007
242413ff
3f1e708a
807f1ff0
a102869f
8003efff
2e07fffe
f733f920
07fd6bfb
da09e800
0001fdff
24c28643
01c537f6
fd075f40
100011f2
b00203fe
a03cc0ff
0dfffff0
01bfc980
60ce0b9a
bdad860f
848827f6
17a1fd2c
3ffc0076
bff86101
97fe390f
b491d496
7fc216a7
8c91a4fa
a91a1da7
b1206053
bdf61567
c9f3445b
dfb12dff
048e1d13
0043ff24
7a1b1a48
31fc64d9
b53b6fa7
49e105f2
cbe496df
161fb7bf
c9472bc4
1e9034de
a4018e37
7b3fd20d
c02109fd
bb29c844
7fec837f
7e46b00d
25fb7800
4d27fbcb
920d3cb3
9ffe9603
809966d7
afd8db05
feb03d27
e8dc0f48
88405f93
839250ac
0d2b917f
9b9a6460
79bd9102
6dfc009b
0033b7ff
43fa4f0e
b3c413f5
92fedb61
63200024
7fe8a5bf
fdf99b3e
07250591
4901efb9
5dfff4da
cb7ffe13
7fac207d
24c296da
d29bafd2
6e14121a
007fba12
f0679e00
4965e0a1
2e7f9346
501f3800
b5bf4f80
1a60db21
4904c11c
8800276c
db3676d9
b6db364a
781b72ff
2f6f1f7f
6121b9e3
241f9310
1a5466dc
34964650
fd4bec03
4a227497
0762c560
f006c1f8
fc209d0d
c6fc32d8
35c01e0e
434910d8
111bffc2
003999d1
0c1040d4
d8ce95ff
5e420fb4
f809f100
c56007bc
f096ec13
6bfeff23
f7007901
0cb8dc2f
1dfa0d80
58fe5340
821b93ee
dbb01919
c27c8ff0
7e96e003
1fd127a5
025fe4c7
3f58fc18
8867e201
302401f8
8fc003f2
e4773efc
8004211e
0b40881f
24c00010
c4448f83
c0037f97
0044ff7b
f3044326
8b4761f3
36e02b80
ede2a04c
30179191
50e14481
fadd5e25
1803ddde
c5c0f6c4
cc151c47
4da75c12
06a24210
1c4a4980
0201f511
bf89782a
03640f99
3e5b10a1
fc84231b
98bbf142
24401b83
70c85fc4
4b443939
ba80c4c2
13a837e7
737541c8
13f4cc79
15acc072
044245d7
156a89f0
f841a9fc
c1f6700f
e12c1069
9b72c890
818444db
4eac90f3
0029c25a
94fff041
2cbf8009
dd8181cb
001c7ca8
3ec8e409
40bd81d9
27dabfb6
5f31f025
f67349bf
fbfc6523
8746fb69
9e4e37ff
9f01dd37
76900258
bc003048
f2a98503
2b00fc03
078deeff
012bd1c8
c67f76f4
7c9e3a92
c02303e1
74b712df
94b607a0
ffff8fbe
e0d7ee6b
8c7d2c1d
0068013f
c007dff3
43ced901
d7ed1fff
84629600
1c945f9e
5b653643
f1649ade
e78404e5
7d2dfbb4
91d924f9
7c4e002d
d2722f48
b10f0936
7240d823
96219609
13cbb264
01bdedd0
db6648f0
d03664b9
607fb9f7
fb2cf4d9
95019fb7
43f4b6c8
46db49e7
7c050198
997fda20
fa5d4970
368a128f
236ccf2d
44d972d4
7b00fb04
d64db006
d8da4558
9c080698
7c16d0ec
07fdbcb6
efff650f
fc85f81f
530c924e
6c24b016
84434767
e4f7903c
4672834d
f959d364
c13c0c37
ffc4ffff
fdfe3e64
05ec883b
ed3f364c
8c7d7ffd
10ec483f
f7f881ec
0483061f
ec841208
803f640f
43b93f4c
db1efed8
41ff0801
05b00102
176dec1f
f0fffb81
c84d84cb
fefc1092
0780c079
c1900b20
0b6b9088
7ec4c050
7a2cb008
00ffb273
50bbfc60
2f9ffc8c
cffec630
1fc02d83
e1be5eec
ff815001
04338219
e067c7f8
4effa102
40059dfb
0037d101
209ff4f8
d24a837d
fff3b820
ff1fc29b
2172fc24
ff7db0d9
07004fc0
8ff02d3d
9d064b5c
beef96eb
9ff41331
fbf9d976
02fdbfc7
61f0afcd
7fdb33cb
37f44900
dffef807
014c09ff
f67e70cd
c95b1daf
dbf20004
be5f5ffa
fc90d102
0685c3ff
fdfdfec8
865f6e4c
147efb8f
e12d0a0f
fff64d76
7e7304ef
1649278b
f3fcc821
239028d3
c064e59b
603c43f3
6403b37b
d927d864
ffe3e792
a001d8ff
741266f9
61cb4c9f
e033fc3c
040049b1
f09c9025
006de3ec
f89809db
4426fdff
14179700
d3f206ff
934f123e
e1be8490
48227204
463e0328
3e003f50
dcdb4807
6ec001be
bffe0081
c0061ffd
b0c8e205
8031ba9b
0fcfd1c4
5c387e6e
80e7e116
f49d99c0
0106e25a
1bedcb00
45e6fbba
6ecb207f
1e15381c
203ffcc6
02c06c4e
0306a4f2
b26efb1e
59e973fd
6ff2e824
26c83ecb
b60ff84b
1dfff9bc
a4fff608
76009bfb
6d811fe7
ff63ffd8
b036fc86
b2de3702
67f06329
003f6a32
dfd64124
cdffc9b0
f2289aff
ff803413
07fdfc05
81001240
9d8c26fd
9be37dff
e84f804d
6d9fa011
effd76ff
9027f83f
2490013e
7d9b7ec9
fee6eb77
9a6cfc65
f7fbf6cc
c6240476
a42fe073
2568b7bf
79befa4f
2669ff21
f798b01b
a6efffde
3ffeff07
e500f06b
f759c157
b2f9f05d
150074d8
84000870
dbd7ce1f
b8036e07
89ffe500
effdfff7
1213f038
bff9f7a1
7f8025fd
011ee9c3
803ffef3
3fffc08e
c03c4480
059fe3ef
bd800000
1fe57a3f
fbed0d00
e144c703
e0fd9e03
8d3262df
03fe5000
8f20113f
3fffec02
619e0602
ff08212f
5eda178f
f069385c
5bf9c803
903bc03e
5906067f
3cbfb3ee
003c1e60
f04bf8a2
6bfbf6a7
9643f6b0
870f16c1
40002dc0
07e47ddb
27b200de
e703f1b0
e0349c0f
cfff4cb7
d0fd8321
01f21d80
bfb7ef93
bdec521b
7f07ff01
f857d234
fd438a03
307e110f
a36e0703
3c9677ff
fff18080
9ede05f3
c0a07038
0f8000c1
787e3b1f
01403f2f
ffc81c8c
e7d1f85f
3a1e0231
8c00fd7e
9c4d024f
070f703c
8a07a780
0629f81f
25dbdfb9
08a224d7
f3f1f0f7
3c8ffff7
904992f9
fd7f0681
fc920de6
217f7fe1
41ffd9a9
f0de835b
0d7d9a0f
9fe5f9fb
53cd9fff
e0dcfbf9
62697fef
e465ff40
7e7852e9
f0fff48b
ffeff8db
7c8805bf
01bff8bf
3b7a0e48
e4c0fd02
a60ff017
006d5ff8
000ec3a0
21bd9e12
e05db9ff
fffba2b3
0b82249f
18040d7a
95f7bcf8
3300bfc0
fc08801b
0648c873
b0923ce0
c043214a
ad813d06
808867ff
f68169f7
cc2fb7e1
f7ea4fc3
40ffe408
0bf827a4
66cfdb74
eb2407ff
87fb7fff
b8345b00
340917fd
698f1bab
0ffffb8b
87006fff
5e449fd6
086eefe2
07000242
8c24c2f4
9cfffffc
380f00cc
11e64800
ffcf0810
804013e5
ddbe819f
ffb23f1f
41d3ddff
7c081c70
0068fb42
200283ff
13260fe9
02629fdc
3074a160
d0fde103
b3d01b3a
5f3048ec
79c0619c
effef037
3b2b866b
800b03b6
e11004f8
ddf7c402
1924f6dd
20e6c4ac
fb024e1e
8dd305f7
dc97f901
f89d40fc
40c90dab
5ff93043
3eef89c2
fbf8c183
644dc6dd
fe61f1ff
8fa41fd0
43ffff01
ff9d9038
5af09873
800dfcfc
c7e43245
807e01f0
1b7ff8cc
ffff9006
7ef93dd3
b363f62a
081c800f
fffddf41
83ba3adf
c46c8d3f
0e4f07ff
fffd8013
3202fa7c
3fdb7db0
27c8d8e4
40112c4b
a13225d0
7f481fef
5cfc9ffb
6e72d41e
d06c3ef2
4803ffdc
3ee484d6
3e00b8e4
305c86db
4ddb0dfd
80f1ce04
cbf37ede
6241eebe
64c1af7d
97af6f36
852dc5e2
c20db0fd
3863afff
3203524d
33409264
daf80238
8dbfe397
c212f794
1fdf48b6
76a6e01d
4f81cb64
e0635270
6c16a056
0feef61f
f99216f9
fd28cb6d
f337793f
45425ebf
799d93fa
625a1820
3fe0b0c9
fe0bdefe
fff927fd
e5d829ff
f0c6c3ff
20c82603
18002c30
3d341e20
93e1204c
76740f56
884ffdc5
efcf9137
1b52fa7c
421a046e
fe701483
7fa00e07
284beb8d
e3b777db
3d1c5f6e
de5ef2e4
e809405e
01802d01
0709d896
4c129023
b79083c0
7b60000d
d002fee0
b4980c55
7f7c9e3f
a1ffec30
fff680e4
8f03fc03
1c59640f
c404eeef
0bc18077
3db019e0
08f791c8
01f02c10
e6e633df
3fffef41
8f00d8fe
90bec542
5f027fbb
4a800f88
2180d3a8
c43d8243
f1c000f6
40036723
06bfeb83
f41fbffe
08b003c6
0018f732
c9bb0bd0
63fe07fd
000afe87
bec8f80e
ffa602fc
006c403f
4807e000
c0306896
5c9ffe00
b644faa0
7ffe1ffd
c0007fc0
7e18eb0f
60cfdf20
cee83100
41ffbfff
ad65e67c
66e2f9ac
b275e7ef
65b65000
df04b017
904ae1b6
3fffeb7c
530d85b4
9f4b7c08
e4b2cd8d
da6ffe89
a6d92528
03f250d3
0dccbb07
20c99fde
7f012027
ae6ced92
b64ed60d
0dc0120d
07fccc40
52592db8
2cf24b61
89e5809b
ac494c00
241f712d
4c6d9feb
901b6600
24ffe184
27ecbc35
f67fa5b0
f8b6799a
d92cd08b
b5fb2db7
c4925b27
2d01920c
c6df6c93
64690366
c70d3e37
803b7e5f
184eb076
3de3b747
b3ef15f8
f7600e9f
5b2021f9
a006c450
f7acd6df
f900bc12
dcbf001f
61b1e9ff
d69f07f8
91edffed
02413fff
fe097eeb
33fff3c8
f47ec260
fec92c27
3ae6c03b
03ff0f20
3f8dbe6f
fffced00
e069305f
d8007ff9
0da001bc
4d764160
7043c1da
b7fd380f
1d2190ff
a91b04c8
2532ed0d
816fd260
a5fe69ec
7ac72025
00d7481e
c7bf0b96
f60bedf6
dffed981
efec1c9f
ee17ff49
748d357f
4bff8dcf
0e07bf91
f4ee7088
f803cc00
a63bec0f
02609bfb
ffb00592
609297c1
448421f3
8ce06fca
815ffcca
d7cd903d
0725913c
fef20670
999bffff
3febfef9
fa084940
ea6f877c
f220003e
03c761e9
2809385d
ff03883f
fefffc14
e6a4c6b3
b76bf6d7
81b4427d
ffbfc7e3
2d0017be
ff773cf3
e07bfa39
214b7fbc
51078040
c07e3f20
3d69de0f
7c12f442
4371e700
c8e476d8
d0b07f84
1bee47d7
400f8013
70f7394f
0831d901
c223bfc6
09e6ee07
3f8e13f8
370062b8
05c78482
0d46c0e0
78f037fd
b6c5ff9f
7fff45f4
07ec0080
7637a3f0
646dc0fc
1913b2c7
ef007da8
0d8fc381
d7c00801
0d8799ad
f06e66e5
65e13454
3b980ff2
23b1f858
451dae16
8eff9341
7c1048ff
483e7b0b
fe7fe4f3
fffe6fe5
78e00c1b
c90dec89
000b783e
c8ffc1c8
fc0afefc
1bdce473
7ef85e90
042d74d9
03100859
fde10bc8
1e0f6c09
5e9fc920
2b92722a
6ff801b4
7eec0072
df360827
d7cdddff
1bfdfffc
3d3fd9f8
9e080804
db6adcbc
e7b00027
7ffd2cc1
1ffbfbf0
fc8001ff
4d84c4d1
9eecdeec
cbe2fe08
0009187b
9fffa492
00ff33ed
f087fe4e
dbe483e3
82fef0c8
c03fe0f0
fff1d39d
e6997088
0607ff0c
3f60a0fd
4cdf87c3
097823ad
104041f8
df43cfff
92401670
ff00d112
025a00c7
6180a3cc
bff1b903
3ff261b0
cf79bc0a
1ec58bff
00bf8049
8c3b9690
fc8a0011
f65d0fff
0c94127d
0e7927fc
f8f87232
b406004b
344ff616
800e6a0f
ff76dec6
5e1016ff
c04a02de
c5b4625f
2380389a
f8600b1d
f97e03f8
fb80112f
a7c7b609
b229e010
27ff38b0
bb2986fb
bcc4935d
1cd6936d
886f8e60
714818db
1bcd0c82
f898167f
793ffecc
b3e9f4d2
06de6f79
68dbe4b8
dff1cfb8
f325f6a6
ce5f9279
f27e0f33
036fd0fe
cb7f81f9
19fffd1f
1df94bfc
c164e831
c9ab78de
66edfdbf
0f73fcbc
6ff6c620
6b7c2d26
ffc8937a
3d27df64
c6c2ed00
33543982
f0c9233d
e9804f89
2926ac97
9a07c731
a4265ff0
f3e7cd21
603e963f
ff587f91
c92b5ecb
d3d57c7c
853c1c49
d2cfc8a2
c6fe5fdf
dfd3a98c
f313e83e
ec7fc163
0afffadb
05b79e34
a3f04118
7203c889
e9b4fd2b
28cd096b
303b9073
b6017b41
d331406e
c1c4bbc3
4e13c08e
3609581c
6f136d5b
52e80efe
9f8df922
3bb98e78
50be5f92
5ffe005c
9d9f75bc
01b8059f
ccb63e71
bc1f83d8
7a64c911
13933083
26ee6da0
c01b59b5
cffe11c4
f96c18de
fdc8267c
e6cda239
bf9b92e7
c18dbb78
fdc866c4
cec52111
b6dbf21d
db498722
a7790981
d856fa4d
ff061310
f9e80110
829b7cef
ddf00596
01787025
82591202
1bbb2799
3b3e6a61
fee66dc0
e00a8515
5ffc64f6
0246d838
ecefb5c0
b0016b09
cf84db09
d7b27ecc
9ff4f005
d946f35b
2125f8da
27e491b3
40d9f2c9
b66de364
0001c9bd
7fd6fffc
cc00ce88
26c9bec0
fcd6dffc
03527fff
30fd94be
fcc92661
29362cdf
84027e09
36c0110d
e8141900
3e800ad8
01af2410
41b6017f
c4f8de7f
2078dbc8
a3003e43
04f1a424
b174d890
dbf72ffd
1aa5f622
acf6007e
0c0d2000
e59bf5de
16fedcb2
698ff03a
a7fe0849
84001b63
9332df2c
64df62ce
01904de9
e1bf1445
67edbf3f
f405fe03
5c490067
f8a0b7ff
33d8197f
1c012874
46ff1040
0167d000
1b009080
1b40b26f
00013a6e
a25008d7
cb03e8c8
8f800156
d8be396f
24800090
7fb80c95
63b5e01a
efebc692
f5caff37
0c81881f
fc018e6f
03ff1b4f
7a4f3f00
c080d3b7
4f3b0481
fee8b4b4
2f2017d9
8734026f
fc04acfc
df7c021e
400221a2
07fdfc24
24000ad4
be266c00
fefe0d03
eef30fc0
f81f98f4
ef87d913
f8e49456
eda914d6
e51134fd
645b4dbe
087fd86a
d960dcdb
b4091e7f
6fd82d49
08e4d7a0
7e400081
f07c6859
f1bfe9fc
467fdf67
497f957a
9ef00c92
ff631436
fd7fe36d
de7e3fbf
f805ecd7
8d3481eb
d2a00009
86db6fcc
fff4fe79
0f98001f
36fed874
59b0b988
d98fc03f
d810ee00
f2137aff
9fee37fc
a7f2df58
e940e4c9
6b0ca7d9
b02dc9b7
8d78fc20
d331fb7d
87180765
d006fb86
fb91c003
f9f5bcdb
6802000c
e58830de
1f0fafc7
0027fffa
48362854
fe407f48
13cb6361
17860b01
fddcbdb9
c0d2638d
3811b363
04e07d31
01ba7801
f3e9073d
03fc1737
97d83fff
7cba7f0d
f974824b
01c0f6d9
6062fd82
c6e000c3
becfde21
1fc00783
0b2401fe
03e8a092
03ff3c99
781d7eff
93f465bf
e5ff49ae
71c817bf
f05b37fe
0bcff904
436cceb6
8ac00753
e7f9fcdd
e88265ff
df66d309
1bb987bf
ff980677
eb1fcbf5
3e1dbadf
81db4fb0
04bcc42f
39b00f08
8d6edac6
b6130206
dc0d01ad
642153e4
0188c7df
ffdee0c1
cd92ebef
fe2f7fef
d3e3a79f
bbe40e97
9a0bf7e0
e1f370fd
d06a9d80
7787eaa7
ed413f58
f0e89f3e
01ec8bbb
d026a0ec
3f671701
a5ee83bf
3e7ffebd
ef91443e
cfbec2ae
03705f99
f86f4ec7
d8248c06
03df496c
f49bc6c8
efbfa212
05f3e893
6ff48908
1607d1b7
60f93db4
5834fbfb
084b6db2
da0086f0
e0137687
7c2fda36
fc2c1090
9bfe4007
1ed8237c
364036dc
b6909baf
efe17fbd
bbfff6fc
3822d9a4
40275fc6
09ab4f0f
e9240fc9
d90d3401
4f692cb7
b481dfe4
49b6ec81
9b93b620
0b77fa0c
efa7d750
3cdb2bd3
0480e930
01d8d392
fccd8590
87037417
8e27feb0
000e3b1b
37e273f0
7e069ba1
a3f92400
bfdbf3e9
f097b3cf
0103330b
8042fc07
7837fdf6
f411f044
1dc00fe0
8806e780
e3ebffbc
4003f21b
69b7bfee
fff640e1
fcf837fe
9a4063fe
9defffff
07feb100
06072380
ac7dfefc
20082d81
6fc0fffa
080c0103
02e001ef
01c08008
804a06e0
3fe20877
7a1f02da
27ee3818
432404cc
8f673771
1fb07835
02fde001
a420a00a
23fe2f03
c7627031
ff6f04be
9bffd807
30400180
0fba09f1
cb160a3d
301f9e84
c17ffe05
fffffe9f
c343f22d
3fffff3b
1fc00efc
011d90c3
0ffe3c08
bf97c000
f9ee0cc0
400fe3ff
bc109003
3f650c3c
c13f1f80
43f05d03
d8ffdf9b
de2ac6e9
fff212e0
3bfd640d
fffa4311
680d8087
ed1abb7f
750117c1
de4c1094
1b33f817
d402c00c
df8436da
6b7c6cad
927f3b4f
4bfe0125
7ce37499
41ffbfc4
7ecbcef3
5bed845b
a64e4428
65a8b89b
ff6df29b
2cb6e5b1
809034fe
6d3c001a
31249b81
1c82cbd0
99ff0372
74be9346
dc010266
3fedb636
2e8014f0
a7fd7ee8
7e0d9c47
9b680312
448fc954
d224f652
97d92131
6d36597c
83279010
7b6ffd9d
b597c860
74da8094
852d0346
c1ce20b5
046dfb3e
dfc727ef
e8fb531f
10276dbd
d237ff81
9ffd6f33
7fe026df
91d0fff3
07f80f03
29018110
803a0020
649040d4
0ffffe17
25780ffe
def3da80
401ff3f8
ff0617b6
01b03e93
17f476ff
00cf0382
feb3c2e2
bb1df000
f6ffe3f0
da8009b7
192d05b6
a5fd4824
020e8001
d8ffff7b
0da7fc0a
6bfdbd00
e0408e15
fe6923df
83fbbe10
fb120028
818003ad
f6700000
04c5f6bb
407ffb80
182c3598
f7024d24
ffdfd6f2
cb611205
abec80fc
d210fc48
6070603c
17fb6de8
11dffe7a
27ee26d0
1c007a3b
84e43ba1
f86d9bfd
adfc0df0
d806ffa1
e760f783
1effbd0c
f0bafbf4
e27c017f
05683633
d7f90ace
d3e28ff1
db607ffb
fe486c1f
198b22c1
4dfdc8ba
07fdbd20
000fdb00
fc1c03c8
24cdb36a
feb637fc
804774d5
def4c41f
ed2bccdb
e4fd85e8
2079f7f1
24c17b2d
6f05b1f8
33f686af
13b63db6
9602d7df
7e2e0420
d3f6c07d
a8b3edf5
d347d293
7c7730c5
db84d731
49d93ea0
ff012e1f
6f65a36d
de2ff383
f51bbccd
c18c45fc
cdacbd9e
a243807e
9feff006
5e003b2f
dff8cb31
3e0d5074
cb0107ff
44b0c0a3
3b2ca4cf
cdd9f4c1
7eb24d03
204d93bc
982d1a0b
b6114922
496a5b74
18bc0d96
3682d9bc
407b626e
fb0cb862
e92005a1
4e484c07
bffff677
bbfe48bc
8997610e
7fe9ff8b
f84daaff
f6d87ff7
9fff7441
295dca3d
8127da01
8ffef79c
0090b29a
c0008048
00380016
c082ce80
b0a1efc4
92c4d401
1f1b82ed
437ef9f0
00400c92
07ff20d2
36836ec8
24001002
deb7efd8
01248a3e
fecf6269
e536ff61
f9040134
ffafc913
43fed9db
6409b4ff
0c49337f
9cdfb7ec
b7fd9664
fb7ef7f7
0006dbfb
d8d9b807
4fbde202
f3d3bd0a
301afe27
e9ec4b9a
e4164ec7
33000345
00196806
da33b95d
24dba03d
d9b901bd
e7e970ff
501e07fb
17d83f12
81705fd4
4be012d0
3a832246
4c76c2e0
ff854dd0
4c01393f
a2f89013
3c034bcc
a1c935c0
43b2580a
00807d88
fd3003a3
bff4a4f3
ccd82012
7038021d
4bed031b
e0110f78
440bad8c
137035bc
1bdfc0e6
9002c876
de40835e
ceff8858
006dbcc1
f990cf43
60184026
fed8ffe9
1470a95e
68fdbff8
7d3fe3b1
ef498935
35fed927
9fc1f1ff
7471b7ff
d22279f5
fec71267
f4090283
088011e0
8094bfd8
a6847d15
07b3f9b8
8907ecbe
3e09fcfd
c13fa7d1
006ffc0e
81a80709
402483ff
e0c7fdfa
1b800d1e
e8037bf8
48029bfc
400e4193
d8e1fff8
01a783f9
1c86dcde
5a0db441
f9fcae10
b4263fff
10dcb6da
17b68c08
ff69b7db
e926fdb7
ed34fa0b
98690213
c1ffb298
cf20937f
dbc93fd3
b890bfa6
81b41a4c
fe4c4d64
b4a16004
0d1237c1
bc90313c
f6f79247
4937ff92
07891f9e
06d1f7f2
5e7ffa60
d289c0ff
3fe06da4
7eb70b08
4566c692
b4db2036
0db6db6f
9b4081bb
7ffeb6cc
ffa43b64
a76c7624
f6f26fa4
a8001b41
fe6cb493
1afc4dbf
7cb0107c
d27f5a18
dbfcd104
cf807ccf
fc22d9a3
70436a3f
76d99872
901cde03
43d00364
6c302fb6
49ffdb33
ffdfca52
00c3768f
e5b6db5e
70009ffc
13ff2dfe
44f80047
5d0580b6
92581175
6dccc498
fe242c1d
0d8036b7
2c81bafa
db26f00b
805807f1
7e9d3925
c809b7f9
f004a713
01fff81e
4adb5612
26d36c96
23ce01be
7b25b3b9
0f094886
6232de85
06030049
524e1b9e
6c944f70
876f0b36
b640dfb2
ec00eb6c
ffa4fcdc
6cb6bd63
8e657d20
4c6de828
def6da9e
64e13e05
c325f604
0009fef2
63be3fd2
9d2cbcff
fecbdbef
f759b007
af1b478f
0834ff93
93cd800d
0693b208
822ff340
d8a86dff
c0a3e100
17df41ff
c36e4a00
207fa271
0083fc9d
0b0b492c
df3dff36
8035ffb6
27e84089
19ec05a0
49a0db0c
2e024779
2e681608
ef4f7d39
f25ec8ed
9d75893f
7f19b071
0e2a00f2
24be3908
cd491909
ad8f7fcb
019f9246
f3ffd60a
e3707fff
eef79727
9ec05641
654c0905
77e8658f
fa4a40d0
c2f30023
01cf1006
007807d6
9a2139fb
58124c6f
ffe0cffd
0c397aa5
e1fa3640
0120b669
139cfb00
1bfb9244
bcc9fc35
e7b16655
c36fef78
07965fbe
9904db59
7efef9de
bfdbe018
fe910ff6
eafd9271
e292ea4b
bfffed2d
be9bfff7
0fe00038
6fa1f33e
08f87fe1
0180ba73
c12d0000
6725edc2
0a079c93
fbdbdb21
03b9776f
cfc09ed0
2fdf67a2
c2efff21
7c10bdf3
fc983c47
e4e583ec
f8000009
633fb51f
0363fa00
6ffa1fa0
01a45f05
f9187058
9000021f
e02fffa3
fefffd2d
08b6efc3
88722656
407d7fe7
ffe807cc
220bbb17
0218083f
ff34fc92
fd329803
051be01c
06ff34a0
e43fb4e0
79dfc846
cc1b3b7f
fc7ebe00
36e69f9e
5edf1b7f
e056dedf
a6920e64
44cfdf20
7b13f8a6
fd2249f8
f27dff8d
4590665b
ffdece83
d36706b5
2108cf27
6a1fff7d
4628de68
9c7e5800
4ffda0c7
79030266
af7f269a
37c67fff
6c0ce8f2
47bac029
c9247abf
b6c00128
f230348b
278309c0
8ffce119
03f6801b
27ccd2db
b0e92341
8d005764
e7e4b53f
bd30cdb7
2041bb0d
df202c24
3606ddeb
43b24104
f09b6117
ffb682d1
1f927943
07ff89c9
90d36fbe
1309c90e
9097b045
ffffe0f4
bfb1a7db
993e97c6
bed893be
e00177fd
bb4c0c07
8096df8b
a7ffdfa0
033369c7
ac26e4a0
fd0f47ef
403cb2c7
27ee6c9e
e0734cfd
076c0900
cfe76fce
d1041b0c
23008227
2499f6ef
ffb6079b
99fcfde7
21dfb3ff
62597fb4
5d022ada
0e3811f2
dc14189f
3887fe27
680040f1
27fe9801
04c2f093
7ff4ff25
602e810e
bcdb0bc0
6607365b
eff13b1f
104193fb
8ec49ff0
7f60260b
4e4000b3
003257f5
e36ffe9e
95e7c080
e1201f21
e417c93e
8707cb3f
f2e61f95
0bfffffe
39017d78
4c120000
bfe3c7fe
fbe0043d
2f3f0237
e78e7b40
c64181fd
f1a080c1
dbc5e66d
104101b7
df5e0bfe
3fedff5a
f8136509
3003efbf
df817800
cb6d1f81
ccc03fff
fc04a764
c213a64f
9048d3e2
7bfb4fb5
e3eded3e
7f4925b6
8b65dbf3
742f7f5b
4fc000bf
d1924af0
1b8dbdce
b7ff113e
620f07db
9401ed20
1646dfdf
2598a230
077db2d0
c1f02010
8101dbed
4b6b90d0
6df0e580
7c3d5ffd
040180fb
702763b2
0d83fef7
4fff98d2
76f724d2
78a7b1e3
db61f51b
411d06fd
7e079fe7
13058e4b
e2fec807
e4120bff
40602811
7df49fe6
d9b60cac
bf00f6fd
b22e93bf
3f9fefd1
7aff8036
bed76fe5
6cbfdbe4
b02e7f43
695b7ebf
f5b43ed3
1b6014df
914c931e
bbad013c
b81fc03f
3936dffe
de8660c0
07f86dfe
fec09c90
a7fff9ef
5fe0e000
fc742d92
407ffedd
cb0f814f
80036d90
ec89821c
27ee89db
84fdec00
2fefa413
092cc52f
763813e9
13d9af7e
d000fb08
4b2de57e
d01288fb
a09832f9
ffa97dfd
7f492f7f
4000607b
800b2400
fb409010
5efff2ff
610c17e9
5b83c1eb
fb6eddf5
ba76e282
020017a7
46801108
0086eb82
fd9b0861
08f40bd3
f25ffff2
25024787
040a361e
85900ede
03cc06ff
6ac07ab3
00805812
fc904cbe
7b24b24b
e2490290
6c86c92c
01250fe5
8be6ecd0
26c8d412
02c1639c
e80052a6
fc8fb010
46f4902d
6dbed3fe
e87fbf7d
0073c1e0
79e0c574
0041cff3
b48446f0
69b8c21f
936da363
a5ff82c7
6c28bf6b
0a8364cb
407e6def
37e21bde
1c0ecb08
80e3f6e7
5fc21c16
fb2fe868
5c9b1b09
6d23efee
1f9bdb30
048162d8
b3e0fc42
9b63fbff
e6c30810
202626c1
6c9c0420
271bb481
24f4dcf2
ff683598
06df9627
0de78763
a319fb00
07e369b6
012a2fe8
3a11c857
9904c922
8ffcdb40
90720164
7aff0010
efffff89
ff812cf3
fb000005
017dff37
fef01fff
c6ff803f
ffffc341
3372db73
2307feb6
a91f030f
1e6e80ff
82527ffe
036dff70
1ef03002
80a3c7f4
ff3ffe80
df801b1f
ff7d8038
6fe1e777
8c801a28
7ee0061f
f9ee817f
006a1743
37e7913e
3127fe64
7fffe4ed
2d9ca41a
802404f0
eb880133
f0c00708
0418cf87
020b900c
0a03c9ca
fff9007c
a00d007f
bf904a59
2be6940f
03e12f6d
f212593d
9100200d
88ad3360
b4007ffe
900ef965
9f6b9a6d
06901027
7dcb0e70
1fcdf2c0
df9b6f00
cfd01b48
f80c87c2
21da1331
7806001e
bb3fc4fe
80034e88
71ffe584
58605e00
3ffe4804
65fb7a79
d251f6e3
3efbe906
4e27fe6b
966c2d82
3f340bae
edb087ef
ea9827e9
f93f2ef0
20c09fda
57f9e39e
52eff2fb
89bb61b0
12123fcc
d048c9fb
243fa162
1ffee01a
b61d9220
bec698b2
9e52402f
310137e5
02fb7c6f
6436cda9
1100012b
4bcc0360
dcee1090
26cd8000
9200c936
fa474e0c
4da1b646
7204916c
9db27ef6
a72d886a
223ff32d
fc519003
fa038fef
09390188
3b924320
d4fecd89
9fff806f
6db81305
c001b2df
fe1a00f3
da47dfdf
4607f25c
d2db64ed
fdf1f97e
ffee7ff6
fdfc59b3
ffc987ff
87ee2de4
7c380027
8401f0fc
09b77d0e
09d3d86c
04078502
a8d3393f
7ebda40d
b7cd46c2
9b7f81c9
3401fedf
d171e8db
053c0d87
c1f4de7c
a00ff85b
f460341f
8e864b49
d871be9f
3802f1ff
dee804d9
357f4fdc
c03f8201
6ffcd3ff
bc989efe
376ba034
5057fc78
e4cffbfe
c0499a34
8009be9f
bfa048fd
24e6dfc0
4049fa64
2b052751
340c1e02
4241fcde
f392fbe1
a50acb24
26b6436d
3fcc1229
bfe010d8
b24d9b0e
7a09a2fc
b6017183
0047dc57
e9d835c9
7a0124d9
80248990
4280cff7
77ef26d0
609af691
7fff2eda
e7edcc13
affebc7d
7fff8b7f
fafc902f
16db1ebf
12bbff01
1fd929b8
28184186
3d2db51e
49e07e3c
a9000350
0cc04201
f360dbff
fa67a702
b43724f6
134360d6
2724a825
e40f3aec
ff6c2fcf
f4876e35
bdaf1b32
b8dc2f8f
b7f43fd0
d804c476
84b08ff7
2001f4ee
639acfe7
969068ff
9f3c9c21
9bc033ac
070021f4
7f02046f
a03ecc00
f7570c0c
ffcf080b
00092301
b701f91e
70278381
49412632
ffe024bf
0dfc1350
803563fe
02ca3018
04c85861
dccf7a80
1707a236
10bf25e8
ff8ffffc
f8beec00
0082fff7
0fbcfd0c
db0db258
05b5fe40
ce6595c6
1d2fb7fe
7f85476f
0137fffe
b7206c97
4ddffef5
83b12e1c
cde381c4
b0f4fc0b
e6d09900
7fdffebf
7ec7bc2f
e7f52c0a
000c4c3f
2fe729e0
610fecfc
c0cffd18
7c10ffa5
e30887f4
dfbbfdc7
1167f27f
f7b646ff
07338630
dbc0204e
9be847fd
f9e277c0
f8071f85
69245f83
040f82fa
b6f8bfc4
1f892a81
881c27ff
7249ee05
37eabff0
13a3f090
4eb49b88
fc1f4fc2
f00d8e2d
8fff3e48
bf8dc62c
d8efced2
fe1807ff
dc4fffe8
44e1bb8c
bddbe7fb
006fc388
9000783f
a2c80409
fff259c9
d9d40390
6027e09f
43d147e0
079ffa04
b7ff8016
e02f47fc
3a0d7e04
fa0707d0
9c367803
f82e6c00
6037800f
117e0070
97d407f8
bfb41980
dc004417
b612765e
df800020
005bc012
f7e3eba0
09c23b8f
42f39cd8
3fe3eb02
0606f15d
fc01a090
57fffe06
80389804
f84d47ec
97420166
43349446
8006a46c
24279614
98b2499a
4093febd
b745fbfa
e004fd26
0cf1f592
0778179f
f9802816
a9752401
a72202d3
04084926
e407d81f
6b0cb2f3
9bf38688
3b123de9
688753e6
77924daf
bd3f3feb
04f25375
48264520
69fd10bf
4d007903
4bb222c2
3fde7307
e0cb4fff
02603fcd
0581ff61
25c0c7c4
6130ef5a
9bf1b36c
140fed4f
7deef06c
6d583c83
02104437
9276f81c
05f2a693
bde1b1b8
8018db05
ff97e765
4525b5bb
f7d15813
6b97cb05
bc5c12d9
dfffe3e9
806927ff
8ade7938
8123f301
937e47ff
8204f000
79ff87df
b2403b00
012e7a0b
bbe4e99d
bbf44f25
c860d2fd
cbf4e477
a5927807
561fcdd0
f3fb3680
64c08127
a12dfcda
a240c7e9
7d9e4084
64c36ab9
b64004b6
fb764964
db0fd983
02d79c12
6e81c378
b6da41a0
4920f9fd
2f81b7d2
08bb0db7
fd342844
c10db5e3
4e6dd859
0ff7fcb6
ffed2610
279c1217
17d905b8
c36da4fb
9b1dfd87
7db628ed
73425fff
bfa02cad
01a12c79
81cfc130
272f9234
88ade449
10480b7f
ff7be900
01ff9a7f
c12f4923
a0fbcd22
93372fbd
e321521f
8004b659
c836cded
27fc60d8
34df6da1
e934dc82
fd42f143
02d27c3f
b2d70412
ff36f66d
d9ff9eff
303a0686
e3bfa3d9
38e3f9d9
4e07ec6e
05bffdfe
ffda4fba
4fddf78f
7f0fff31
b9600fc4
802ffc29
e240365f
ff210807
8e4a634b
de7e585c
37ea003f
fb3848f6
e8053d3f
ff200a3f
7f7efe5f
f7fedfde
ff305dfb
de3fa7f9
e6f67cb7
f4e03fc5
902f017b
b7f93cde
3c83fff5
6916dff0
b6a4ffe1
2ffffbe7
fe4b13f0
e210afeb
cd93d03c
8dc06bfe
f7f9b7a0
201b945b
067c0c0f
b7fbe4a6
bc09fd3f
edf3f7b0
9fdfc803
caff8001
bf23e9a5
fb3b5929
a0b53ed5
487b7590
93c816f0
e11e6627
00371972
bc0802f4
b6ff8041
5db78151
2501c3fe
0783fa9a
2fa49400
d13198fe
3f234cdd
81201fdf
00164f6b
f7fe5019
dccff349
fafe389c
04d77fc9
7ffc02b6
0bcbd902
c001a37e
9ac20fd3
5e40d3e7
1b48f2fb
0e06f02e
f0268010
45672033
8e093d8c
43fe2017
3f0161b5
fe12ffe1
e3f80f63
ef9ff197
f53e006d
60c1f34a
9ec46e6f
be6ff6c9
b258cc01
b2c89168
6807f38f
a7f83b03
d103fc2f
3128050f
e36d87a1
c7a38047
820082f0
6f8ffeff
7deb8400
ee864b7a
057c0fe0
fffe8078
d6dcffa5
1b827b21
c0b707fd
883e7c16
1c4adfa2
3cf981b8
7129034b
008e3a5c
da04231f
0bc5346f
1390321d
5cc82fe6
04073fdd
d8126114
537a0080
96072de6
2c09eff8
39f9fbfb
02070e42
e6fffd24
1363817e
9817f0b0
c41003f7
3f2000d0
a218dfc4
e1b9bb85
2501fa47
b1e0bdf1
7c6fe39f
e37c0fb7
6c4b100f
625bf760
818031b9
58d988ac
ffc7b39c
25681231
b00b626e
800fb804
03002fff
0046f020
a0903e92
192916c0
1d359800
ee367f80
ac6c1664
465beb69
2f81b906
36143f28
85ff6130
ff800fdf
7b320883
0000e10c
7743bc9c
dbe5f117
2ff66345
e5f41aa2
202531da
02c01c11
dbfe046f
fa01f198
0637c079
1ffde160
37a58076
ff706127
5dc084ff
bb4f82b4
c67f3d91
02e0d860
3bcb01f8
28310b70
1e4ed700
806183fc
703f0191
879bf9e9
ff6dbfd8
fec81c71
b7bf77e7
c013709a
d18019e2
04460787
e8018dd9
f6df0001
fc3f4776
783e4e25
37d81c70
63fe04e0
fce02527
c002ffac
fc100c03
c9e1883a
fe02cbf3
7b402b65
07d7f054
f9f81fd6
cf6e99a5
c2f07e1f
7ed3f400
1ffe4026
18ffc6cf
fee702de
b04d821f
07e06238
01a49ec0
e3f1fff3
ff1efd8f
b2f906ff
632e5f01
dbffd9f4
41ff9cf1
7d703be4
c89c57d8
fb311b75
efb8c0ef
0142b4c0
0fbb0878
e25fc8dc
2707b2fe
2e3f97ff
e7cfc57a
7ff429e6
77c6c3d3
5c245b08
c3bec0d8
13695e05
1fc1b060
bc7fcdc3
20d57cf1
03f900f4
c69ad000
85a48b84
fe6e499b
8de001d2
9f406c01
aba00680
d8010d87
e4c4ffa0
7f101b1f
c04c2068
b2503b1f
400aff0f
02d7fac4
3692680c
5c01b7fc
0f090d02
29a4c912
000fc023
1a48cc05
8081bff9
d01693a4
ff610837
7c0023a4
6191021b
649f8640
b17fbff1
287fc0b2
bd9fb400
effc237b
5bff5603
2f390030
90609891
e09a1814
3b03fc20
71f89876
f79d87fc
321c0c3f
8b6463f1
93afe8fc
c7ef7278
fc15fc3d
1a5ccf66
56f3ff48
7121b037
e4b67653
e003c232
8ffb4b7f
eff01901
dfb56ffb
cadb538d
0ba01003
7ff7906b
59f89f90
1ed027e0
f89d77f8
f6ee617a
5c4b88ff
c1e77858
25e7e007
7c8c88df
99ffe743
01ffa668
05a56202
f8f38fd7
7038013f
401f99b0
09fe4e00
35f8afb9
1d8ef100
8f1f0904
0e509d6a
8789a91e
87fc01c0
808ec24f
5bffdf0f
3de13117
7ff900fb
debed85d
1bf68039
fa1a64d2
1889f81f
f8020bff
f8fb3dab
216c7f0b
04dc4db7
11d1bcb4
ef97e7de
e3e4f605
afdf617f
f47e3c9e
a707ba27
098895eb
bfefc800
3fdc0a07
b2d89e04
f8f038db
0793f002
0098ff6c
ae39d381
0101f968
00fb3200
62dacb6f
79036243
e9bc2265
c271f803
483f8100
705faec2
6493ff21
033ff79f
fff5e7f0
747f42d1
7d79b2f8
4c00f62c
fdb3ffd2
a9268503
0ec8025e
f3edd5a0
0723ff24
d0697f9f
2debec7f
ff3d2c06
d180d236
bb6fddb3
ff27f7dd
ffd85e61
ec658f67
c00d39ed
813fcfbf
fc69b01f
403f99bf
5ac4d97a
1f1d287f
26db7e3d
0f81bc36
ffec3ff2
813fb178
d02cfdd3
fc01ff62
e400be3b
01d7cb71
006fd6fe
8003c140
0024e1b1
99625a55
ffc3f7c8
e8881f73
17bda613
46640d1b
b1c50cf6
420deb63
3dfc7600
8fa03f00
9fe100e3
06fff0d8
f8781598
df800023
4b9dbf6f
1fc02406
1fd6c35c
c0dffc1a
aff741a1
e02ffb1e
c5620e00
86fa138f
46503f1f
491c8fd7
b0d07d13
1f20233f
0180703f
f104ebf0
4001fb1f
c87f8dc7
4e390376
63fff8f8
3c987f87
cbe70eb7
e1f66606
c0000741
ff0036cf
3ff85f83
37c07ffc
f80fee8a
4390c003
7f1e0fc7
81c8025b
be0fe827
ffff8ffd
8f000860
8df73bff
07c3f007
79f0140a
607e1003
3f1fff7f
dfc8a3f0
e81fc7ff
f0e07400
fe07e135
fb78153f
16e07f2f
fbdced8a
ebc1cb06
c3fffd67
ff482fdf
fe81efe2
8f987e74
1800dc7e
f4698610
389f8048
c03c013d
27ff64d2
7800bd06
77ffe876
e40e40f3
ec000e2c
0a03e227
f4723e60
affd4993
973ffeb1
930220ff
f91ff807
641317ff
1c0a107e
bdf780c0
0b413403
11edf0fe
fb2ff9fd
283f142b
7df00070
ff003f7b
fe3f1f83
1befc703
ccfb0ffd
f0ee0369
e7fc3fde
d8087fff
fc372cf4
43d8c81f
47aa777f
84c70113
1e8b697e
1b6f725b
ce4a0000
f7898404
87fa4fa5
417cc4ff
1f6d0f00
4afdeda4
e9b4001a
0fcf03c3
5e944800
0bffbfd6
f79e2c3a
e017ffe6
c1ff1139
81be106d
b904f00f
06f00df8
6004a5fd
1fff917f
8db17cb7
2dbef664
003fbff8
d6fcfa0c
d3f1eeb5
e9efbf83
91f90fbf
fec34a81
20f7f30f
38f4061b
bb687e5e
c93cf6db
3fdf13af
39afb012
1e160c87
daf4da38
f50187c3
f7c05c2d
727b36fd
ffefd940
b9dc7479
69e01cc1
63e94892
0405852f
63b67926
df6f0b43
c543f605
ff41646e
d3926edd
f5eff051
047d691d
676e0493
83737522
b294c6ab
3372479d
4fdbfd19
697e9bee
ddfb4a1a
37e2065f
913b21b4
9c005b6f
ff737fb4
6c043283
6ca15f6e
3f9381ff
4d7dbf22
3b4c8b8b
66deced9
7d312d73
1e6c496f
19e3f07c
7e9b6c7f
be3e6b14
c2dbc9ae
4e0380fe
d399993f
fbc3ff25
48258535
026e0078
18e1718f
bfc9c3d0
fff83327
970372e6
0d009648
20f1c4c6
813c8030
ce76fa8a
5a407eeb
81ea2000
4e5b49af
ba0c57ff
d0df687f
f49b0116
bf7fc160
3b27f827
046160b8
0f4e8313
3eec8b78
fc9b4300
c16d27ff
090026ff
300c034e
1eb237e0
f801f9af
7fdbe082
17f3bf58
84c185f8
48922304
bedcb8d8
0734e0e5
8b5f3c00
90de005c
fd366d83
b6e657fc
01b04a81
afedb808
3634a174
ebf4d6fc
abffe037
b6c49bd3
24c4ba0d
9811f211
09613481
99eda1d3
9bf26c86
fd92e459
7e02a09f
36e74903
6120de7b
f6c93b78
37ec933b
8bffd85f
fb836ffd
01b2f4f7
dff6cf42
4b6d8081
876f843a
01377c4c
220dc0dd
7c9c9640
803b787d
b07e3b6f
66f214c5
ebfeff7e
e276ed27
036d2fc4
f27f3fdb
67a7fa1b
013ff1d1
bf393a00
7c0296df
85eebbff
4fc00c37
f3ffffae
7c005f40
75ec08fe
d0001273
21dd2ff5
7609ff8f
e809b800
c71ef2c3
9847a013
a3fd7fa7
ec00363f
0f1f0373
fdfa3fa0
2efb7402
f3dfe05f
bc01991f
ffe16887
c3e6f7ff
1f72dc81
171ffffb
de18bfe0
e1f3d202
defd6df9
05bec00f
6001fadc
edf7fbda
717f6033
100cc001
3380701b
07f8b000
0047f4fb
00eb06c7
603b8b80
f083e7e0
785ff9df
eeb8e062
02bff4a2
47f28fee
0ffcfe07
7072dcec
410fffe7
0049f076
dc2600ec
c7e00806
14001d6a
fc2ed820
bfefc000
0fd1f9ff
07c07ffe
0760bf68
2f613e60
3cff00ff
ffe26411
5e2607df
17fedf80
ff0383f8
50d86de9
204d3c5e
b3f971ef
8037ffa2
7fe7661d
8006b3b7
fe00fefa
3e536eb7
32007c1e
cf90defa
f20f81ff
00bf8038
303c81b8
bff1d500
ff1fb67b
13fbd001
1cfe024b
d8007fc0
882ae0c4
8c37dadf
dffbb2cf
6b980d6d
9f809012
1fc26287
41fe2dd9
3c0b3eff
31e44c00
0e449c0e
0787c01e
fb6780c8
fa3ffc00
3d060003
3f3f0f47
a4b60184
379207ee
f8fc6d01
4fc7e06f
affe6c83
b7020003
fe38130f
237bcebf
00de0f07
90c02ffa
1d805161
28807609
713763b2
78081ff3
249c0fbf
ffc71f70
fc0d87fc
05f023c4
81f80076
fff5ffff
7effcdef
f00063f5
09b0a401
e907dff8
003c180f
000f2ae0
c91ff40a
49ff101f
0005b7e2
0c1f8bf8
7dfd23dc
f5d03f00
fed807da
773ffb5f
a021ffff
01ffd01f
ffefffb0
1ffc0041
0003fbc0
7104b280
ff81c9fd
3fbfae80
87c413f0
640a1f1f
cbc20c8f
64d8f797
e001c7cd
27a48903
f27ffaff
0dffffef
40d92c9d
f66227e2
a3b348dd
20c26db3
ecb0f7fb
fc96ebc3
feff843e
dedb7ca2
c30deb23
a12e4f43
7259fd99
37b73483
709fbfd9
920c4176
e5b67d01
c6f6936e
926b40fe
363279fd
47b32686
e9c03d92
820090ff
f92baf04
004076f6
87964840
e6edd9e4
deff6c81
e4b7e9f6
27ffc8c9
7c3ec159
1b6261db
4f94fbd8
72d99adf
4095ef67
fdcf803c
46084e7e
d03cbfe2
22475f04
ff209fff
581f62f0
8cf81fcb
930307b4
fdf9137f
116f841f
bfdec3ff
e8842fcc
fc83d7f8
ed183e47
fb483d82
821e0ff6
e86b4048
c36d2727
b0df7e7f
6d88efb7
d3803c03
a7224c01
fef6c009
c3be4bef
196a4df6
7ffee76d
9188b01f
00904e52
7904d098
e4001b78
ffd29ff4
8bd00a8f
43d29edd
9f690dc0
6c10d153
3842e7ba
27f47649
92feff91
6f51c82d
05f9b393
bd8be079
7ff23e2c
8a998358
3768138d
ffe2707c
df6dcfc0
02f805b4
92914b5f
c810be8d
69bb2ff0
23c9fa00
02c2f633
20ace7b8
9fe32c80
b765a188
fe0cbc1b
978039fd
00beef90
e606cebf
2497db0f
0feb00ce
ec240d00
6833312e
d8ff7bda
ff23f24f
e5fbc340
fc9ffa03
ffed6f29
7c0fbf25
d7810835
b790d7a3
71a08801
fe926286
61b949b3
6c6847f2
38fe90b8
beeb25f1
fbfe90a3
0b3a4fbf
d7cce011
e7ff7b07
42020fd0
70201db4
138001a0
30a40924
7cd4f646
53fede2c
c3ec97c9
945fec7f
1cb93fe7
3f917b18
3b7fc191
663fa217
7b27a004
09eb1a79
3e4fd915
3be41178
c0596c10
1a06c7fb
5fec1219
9ef86dcc
97fee0e1
302401ef
7efae870
6e2da5d2
5fedf7f8
6197d326
9d030a4e
d01bd3ca
2204060c
6809817f
ffc363b6
09d3635d
dc2e0448
37f5a484
b60bd808
c2190ef4
b32b7dda
14d4c677
5a6634c0
4b9010d8
19a61eb6
4c5ff9fb
47ebfc9b
7e99f0d0
1fffa5f8
2609ed92
7b60c2c5
d86d896d
f8ec2d79
17f602af
20b16f03
c4ccb938
d99a5fe9
5f89b6a2
1e03ff70
23200c50
1986536c
037c3726
84f73c9a
bc24c1f3
520f8095
afbbe00d
c060887c
ff738746
db2b2c01
7f996703
bfdfd04b
4901601d
df6d2f7b
c252cfa2
16b89840
9821f82c
37fe1bc0
0b4c0e6f
9a49bfa7
20137ffe
4124d680
a7fffed2
4243f73e
0fc84b78
def00c96
8ddb87c4
6d280341
ff0dbd3b
c00fcda2
49a779be
e64190fc
f7d27b78
613b9b09
d36037f2
26d3b336
7934936f
978a7021
4edd85a6
77f7e276
c24d63f7
c2132bbe
6d8713d3
f209368f
c0234c7f
74b84e69
d336fec0
ffa48242
c892417d
c3e1fa5c
4b765b4e
92250b00
ea6030c8
99034802
09254e92
948db156
0ec80924
d024c201
d592c9bf
737bf735
4a32efed
7dbc6dfe
65ff0d80
bfeadc3d
65c9349f
d802d925
5fdb1cbe
e2da2712
072d3e5f
fefb9264
f341a493
4be47624
0c9c0277
923c26d3
180063ff
f6c97132
a465e6c6
92700f01
dd04b725
774c9edb
93ed49d1
405ffc49
96b6e760
ce6fcda4
b6de7a96
fc9fe464
4fbb47c4
f8c95df8
01ff6c96
e6d24036
00bc91af
05f934af
c0df7d04
84021458
c8b7d8f4
6781b25f
decf2f86
84bda7de
3b7fe0fe
f248437c
f764e60d
fefda3a3
6417d6ee
2fb13ed2
fdec8248
b63f2709
595a1fc9
d86f9fcf
b6d8dff0
8f93f7e8
9ade37e8
b2ffc3fe
b41906d0
6fc416cf
88475a30
1d80c04f
ea0496c3
1d30937f
77847de0
d79a5c37
ffb6edb6
67f2960f
cfe03133
4c0004b1
efed3baf
2debf84f
42ccbc58
84932c3f
4490b634
6df907e4
7fee3b01
7c9e40f8
e8b26da2
e1f06e07
82833ea7
609a40b7
f73900e0
97fd9780
c7c85356
d892fdf3
3b71efce
b6c2e80f
6807f804
a0fb4901
f9a7ba2d
1a13cb01
ded081a4
7f7866d2
c00813ec
e81201c6
4ffa0634
e17fb32e
efe416ff
b3e71ff1
087b7a3f
79613121
12e69e0f
c2b7e811
0b980e5f
b7e0bb3d
102682d1
cf05810b
1d800196
906dff40
5a9082eb
dd0be6f3
ffcf3bda
0df2645f
b1103fe0
fff007d5
03ef903f
ff1e1c1e
3fe802df
fb524bff
b22d058f
fe964f24
fb2c1d75
df6b7f93
fa4fee17
dbf7fbfd
0b7927df
e8663a13
8123ee1b
79980068
34a1af18
036c9087
fffc0008
92f3fa9f
b4fb417f
420085b7
07a43f1b
8003e1c0
467fa002
003e1980
06965e00
17e693fc
22ff47de
368c9b20
8edbf84f
247cbf00
0013002f
41581e98
bde940da
1da56e07
be62487f
2047f6dc
e0197600
4d249e49
0d723f22
706f4be6
b6eff13d
fc099adc
c3a260d0
efa42d4f
166f07c3
001bc93b
11bbe0ca
fb390b10
a093e1d9
801a524f
b9363fdb
c0036813
63ffed07
1ff0dfbc
38060dc2
f6c5d001
9f845087
611bf080
7ebca37f
7fffff32
4f095763
e168037e
e27fcb8f
40e466c0
81364901
1f7eff3b
f00f8eef
5dff1232
3e580306
7e48c6bb
95c9922f
f37e2ce4
db1e8fc8
7a0dfff2
f7897800
04ff7fd0
7597fd2e
d7fbc0e2
bf1c0819
f9216700
2002cf5b
f81ff2cf
d8234fdf
20fe1300
01b6fe40
bffe002d
817fbf63
571dbfbf
4f030fe9
1fe0205c
03d27909
5fd00382
f3f00312
36fd6764
091a8910
ddba2746
ccfe7888
ffb76f6e
0009b1bb
598cf65b
4eb3259a
ec9624d2
cb60113c
991b6246
1a4c251f
e41b0330
4c366ccd
9a4bebb8
c1e67cc9
4beb7c00
143384c4
2044a7d9
9fc4db69
1a1b3709
3f64f969
26e61179
22712766
f9820413
8ba3f18d
da111783
300247d9
ee637f89
c591628c
85792360
0cb6e32c
0deece9a
beb21936
25a59b7f
fa7a4095
c1fe6c6f
e03fec00
bb904bff
b2c2713f
d680f6ed
d09f396f
67ec32fb
96fa3eca
0fed831f
777ec80f
3249fe6f
2e6d1e40
b1796b75
a733da2c
9c0fb804
0ab2082d
8b7b0cae
9f8d8016
0312e820
80ab64f0
be48b6d3
7df72247
024b033e
8bf03ffc
dbf00dad
9adf0825
06fd9cc4
688001e7
6924ecf0
d1fe69f3
a9ecbf58
419013f0
4c9fea60
326c3268
8007c660
32600999
c100bef7
68069eff
b01a0bd9
a4e43797
b2fe93f1
faf6d7fd
349077f5
09c90d22
2330d9df
b0014811
2b5b700d
20b04813
7e0370d0
9326fffe
e00ed834
db0051f5
41049a6f
67f6fe00
dd3daff6
39846c08
934fb708
0b6e60b0
9e0fe182
eef3d97d
d000051c
42402004
11fc3e6b
f0826e4b
07febb07
5056b42f
3fe7c3c1
83c870b3
e7617608
4f78ed0d
403e6d81
19a7cbc1
37b08169
6fc9a5b4
23ff80ea
05b40803
f87afccd
fdb67f23
8400303f
7e02966e
ffec2c9f
049889df
113f9b49
05fffeff
ed9ff8be
af481fc6
00601bee
18ff82fe
707388c0
23dfe25e
0b2007ba
d9f965d0
83f149f0
f9237679
326713ff
e817e900
96ff913f
76f7dd01
bf86bffc
dcdfe417
fbf99a62
ba88c907
fdd66631
a9ffd580
253fff0f
edfbbee4
940c146d
ff5bf80c
449fafaa
5f1e017b
d3afd0dc
587c7d0f
0a4744a6
e3f80247
10c807ff
8feb4b5c
3fb66737
1fe2bf3e
f611f980
03e1d6c2
af5f0d07
80e56c83
fd051818
36ffe93f
82c254a1
01d2439f
0366fe13
3a79000e
011e001a
37c7702b
eff843fe
f006c77f
78f07402
8e47e229
1f7c17e2
57e00e07
cfcfe18a
eb425edf
00258249
fe5e8d2e
c90df922
cfe43236
d09583fe
bc42a626
d8410313
ffcb6020
03feb4ff
49fa45a0
efef2f96
fdb67943
57fe8009
ffe05c2e
379700ff
013f6580
c83bef82
67fe6677
c7e3f7ff
7fc922fe
fff1c09c
389f824f
fffda557
1285fa1f
f8004d27
21a5f92f
ee1b126a
c5a1ffff
f22f4fed
13009842
efff9bd8
edafbe01
db7f921c
e2db6e13
7f017fd2
3e4f8102
03e3f330
2e017988
f8000fb4
83dbcfc4
0ec2de61
f7ffc412
102d7fe0
a62880d0
fc00872d
d095364f
7dff1fdb
0104ffbf
ecfc8039
6fdb0011
24c00080
f80016d2
c9bffc9f
fc007fff
80000058
5227f7b2
017e84fc
c7005e7f
0ebffcef
1fffffe0
bdf193ff
8ee6d940
93f5fcfc
a0016530
1200757f
3fd4c600
000009ff
49a00392
e9214043
7803ff80
841f96e0
9411f4df
04f26898
25fe004d
3c490530
fc934db7
fcc2c007
ffd245bf
36e7f002
cd9bedf0
6e08c96c
c216364b
4d370d00
5065b0bc
24fc8fe1
010eee29
106cffdc
df63e736
06201796
7449fb12
604c06df
f4c70b7c
04415b6d
039221d0
42287dcc
640da1d2
00beed26
441fd952
be2200f8
08406fbf
92ce926c
5764827d
f47f7642
9a17ebf3
bb33ff9d
f49c0910
93f6e1bf
dff07fa5
d2182a06
49b66dbf
1fa534da
8d601289
fd82dacc
d946ff63
f93fa930
cae66fef
c806f184
52060a5f
32d8927e
33b6da61
139184f4
1fcb6d20
7bd8d9f2
302f445b
06c13b3d
a3ffdbff
036cbf83
f6cc131a
ed69276f
fe600900
34d05a4c
0ddc2494
812c4848
40c029be
6db01bd3
037c925b
a9fd6c84
6d9d9b69
a70193cf
b0064f32
cd9f94f0
5f00bb6f
68db64b2
19f63dff
db6db09b
c059fcbc
3313dd07
212da69b
0258d020
64a4cfe4
36256dff
ad7f2100
43feb0ec
3fe3fce6
7e0f7fbc
0ef103c2
fffcf03d
ffee1c88
f4adc622
863c0e17
81d7e008
c2c23f1f
fd1f7023
00976001
1e8fc01d
c0bf81bb
745741b1
5f81d41e
03e0f637
bb7ea070
9c0fe9dc
3fe17184
f07f4b7f
eb7f7d01
82e065f6
001fd1ff
1ffc15ed
fdbcfa00
4fd37ef7
607efc25
07e00019
76273ffe
eb9ddd96
fb2ca42d
0edf600f
fffe1000
6cbc30da
b6641fde
fc07b4db
17136fb7
251cd829
14001e92
0b00483c
9db00c96
ffb7c20d
f4f9be74
c918041f
a412a70c
5a4db038
f324049f
601da7e7
2627c05b
ba6e91f1
0ec38b20
5e91e8ca
7df48490
01fcc024
7d81b008
4da06582
de46ff5b
68004e2f
6f02009d
d26dfcd7
0b26f6d9
c1803269
48ddc07f
2807bdbb
91799268
9f40def0
92b7ec1f
560c00ff
2c36ec92
03207e3d
09c05474
047e4f34
2feb974d
e0100040
a0c13d7f
7fff20c0
64c7627a
24ac3713
fc83ea7b
5c3f809f
7d31b9e9
e93fe9fb
803fb620
03f6dfe5
0b0eff39
74fffbfe
a07f9120
5fd21e02
97c08940
c3f149ff
2720ce9f
0180fff0
ec41000c
c002dae2
49801090
64005be0
bfff80d8
0ff80804
1dfecbde
bed46dc0
7e58ec2d
e18be710
c5902cb9
0e173df3
5d597460
27ec3108
f0199da0
dc1e120d
170fd97e
be89fc61
31b07720
9bffbffb
cd16767c
0986e5f2
d99e9651
d903f26f
5809be6d
a6e36106
5d220184
a363937a
050c66bf
85dbafb0
4009a801
ba6c01ff
ff04f7fd
3dbfd1ff
06f98a01
6e264ae9
39b9a6f4
3f030dc2
2300106e
300b3e07
36808203
81037c0c
d102cccd
a7f2d048
21be05dc
edb6db52
ec323db7
87bf1b93
207b66fd
40ed2218
9e81e7e2
ff813fbc
ac0a6910
68b72608
04a6f49f
78f40279
8e2a43b5
934dff75
7f62fffd
c01b3771
18001203
3f000007
f0870274
00003b23
06bc01e4
00f01c2a
0c0372a0
059c25ff
7e1fdfa0
c0d180e4
3f610cd0
0d50f47a
7376489c
f8f80e01
9ec7e441
b40fef9f
fcc08880
803f97e1
4a501c1b
801faf07
f1fe1799
0b26d7b3
d8900dbf
77c0dbff
fb863fa2
f7020327
7a029c9f
ec0735e4
09e7fd4f
142f3feb
004127fc
ecfdc83c
9e4492c9
11edf7bf
480fda00
1f89f8fe
ba68ff44
cca1bdfe
49df01ed
00a9817e
3499ea3c
01891799
f24ec083
412324ff
bb668430
0bffffed
06fa4da0
6e46057d
932df09c
200082e4
11a8109c
1302ff02
ffa2c820
85817fcf
35b2662c
1dcbe1f0
1cf69226
a06207ff
e62db90e
e7e71f6b
00780805
46de61f4
c687df83
4c1eb12d
ca7d9f84
fedf04f6
01adecdb
38927fc5
40c7b160
3c586ffa
df802537
c02dadf8
41910225
768d80b9
5187ebf2
c0028f61
f6052ee7
865027c1
9876c4c0
b7ffe1df
681b114d
020184ff
3c8f7826
0b989012
046ac97c
ac9842b9
ef7862b1
d0379be5
a4c01148
823af60d
01d606e1
b69c8a48
9296e107
06c4f9b0
30fc0ffe
7c01b085
2dc93e9a
73bd2e10
9024048f
ffdfe7f6
365a1fff
ffff6636
17ec5373
a1ef857c
0fa4d1fd
d07476ec
dd00de3c
841b2fe7
b26c93f4
ff9e8fe7
7fcb4cff
1b69b04a
bffd0043
29fb6491
056fc69b
b3662c5b
cd24db69
03f20966
37c00da0
7e36f5cd
36f8001f
dd90267f
01a49393
b76ffcfc
36038634
ed193641
0ffa2664
0901e000
753a6705
e242577a
911209b3
126493be
ff81c000
b465dffd
ff28818f
2c0131e5
f6f69e5c
00051d0b
150277a8
fc07fbff
0e07f83f
9c4d1ac5
c89021c8
f8000c3f
008333ff
e1f32e80
173c6178
1c7e0020
c728fe3c
8fd7c17f
6c103ffe
380bebff
ebe3c180
23e0bf03
c0c38e00
3e3b37f3
1d822835
0702e1fe
6d280c30
ac73e7c7
7fe0ff20
8009b6aa
37a1c8cc
0046fa80
805cbc27
379fd582
fe9653f6
f587d801
e79fc185
3db7fdf2
7c3e5c01
03b900ee
ad19fe0a
b3cfe7f1
110f8201
7f20767f
80009d31
0019c216
3cd9e012
abf68146
5449fff7
90000383
f3d0f7dd
be8407fc
00f97ff2
fe4717b0
ffb2da57
f303b5ff
7bfb028f
057e48c8
3b169179
90805c04
fbbfa703
4f205dba
a80241de
08703f7b
6800016f
7f7de06c
42349353
301b0f49
f4b01fa6
1ffc6802
bf0e727f
3003e371
a3d3361c
