c9
1c
99
a8
86
af
44
af
67
34
8e
cd
2a
7d
dc
a5
bd
60
ff
e0
c3
6e
4e
d4
b0
c5
21
35
4f
1e
44
09
5c
2c
e2
43
a7
4d
6e
5b
ce
82
af
6c
05
29
f3
3a
0f
cb
ba
eb
22
a4
a8
3e
c1
ad
a9
c0
c6
3b
a6
89
ed
8d
01
cd
be
9e
27
55
17
d3
bb
f0
76
7f
32
33
98
96
7a
3b
78
b3
9b
a1
c0
2c
97
44
12
e7
90
ec
63
4b
4c
d4
2c
31
de
dc
f7
79
ca
3b
b4
83
cc
52
f6
97
bd
de
30
dc
a5
ef
58
12
c3
9e
05
8d
6f
0d
b0
a8
05
cb
43
2d
3a
82
25
cb
5c
1d
c8
0e
b3
60
1c
78
59
b9
89
3f
19
44
83
48
de
ca
b4
d0
3a
a6
6f
42
2c
48
45
78
2f
f9
64
23
60
91
88
6f
03
8c
15
23
e1
0f
55
69
97
df
14
88
03
5f
52
d2
cf
94
98
ea
5a
c6
0c
a1
98
5e
eb
ce
40
2a
c0
83
e3
ed
73
19
a8
15
13
48
0d
dd
0d
3a
fc
8a
80
00
3c
29
98
06
51
bc
d4
a2
a5
a6
01
ed
75
80
e9
7e
1e
fc
83
55
36
08
92
29
5d
85
a7
eb
20
f8
d4
e2
dc
91
ba
09
92
6a
0c
61
7c
9a
ad
01
18
b8
e2
6e
65
c5
5e
78
af
95
63
14
20
68
5d
e8
de
2a
55
d1
6c
f6
51
56
b5
de
df
22
35
ff
63
2b
20
a1
c8
0e
12
c5
01
2a
01
64
db
49
05
9f
a5
3a
e3
33
53
76
42
b4
b3
72
bb
62
2c
9a
dd
9b
79
6e
40
32
58
45
e3
d5
72
69
a2
b9
d2
4e
57
66
0d
dc
b1
7f
de
b3
28
2d
90
40
f1
cc
d0
b3
85
e6
04
2b
38
c0
cd
1a
13
af
f7
45
f9
e9
55
4d
0d
91
e4
0f
81
b8
50
6a
46
58
45
fe
dc
b8
d3
79
ff
4f
cc
b6
ac
cc
45
99
84
13
b3
65
76
0f
a2
eb
57
f6
f5
9b
53
46
4e
64
4f
12
51
f6
82
25
23
45
d0
84
ef
f1
ae
16
37
05
89
56
fe
87
7a
da
25
8e
fb
1a
e1
d3
75
8c
ac
7d
28
91
47
df
db
a4
f2
f6
87
78
84
a2
73
c2
a7
3a
de
33
eb
5f
be
e2
76
e1
ce
36
50
95
03
f7
5b
2a
47
49
80
e6
d3
90
ae
db
e8
49
8b
40
3e
46
57
b0
f7
52
7a
d4
59
55
a4
b6
ed
69
ea
b7
c7
44
00
7e
62
02
25
47
dd
f9
17
99
7c
11
10
cb
11
a4
af
5c
7e
46
80
73
9e
7b
62
39
ff
12
b8
38
27
7b
76
81
3c
d3
c8
d6
4b
ac
be
9e
f1
3d
9c
59
1a
25
d2
49
87
c1
2b
2d
29
de
3d
0f
20
c0
3c
13
67
16
40
b6
c0
12
76
6f
2c
47
e3
a9
2e
10
99
68
4a
13
ad
fe
47
a2
ae
55
96
fb
c1
95
60
0b
bb
c1
7e
d8
f2
08
3e
eb
4d
53
d4
8d
15
96
b9
3d
39
3f
35
a1
c8
df
68
cd
d9
72
08
88
9c
07
0e
d2
29
ff
26
3f
eb
86
08
f4
bf
85
82
58
ff
0a
26
10
bb
49
d3
d3
a6
be
7b
52
ce
f6
1b
5b
65
38
33
06
9e
2c
9c
ca
36
42
d8
c2
6f
13
b4
f2
15
74
2d
19
3c
eb
b2
4b
94
eb
01
c9
d1
2a
e9
af
17
d7
03
db
3c
1e
99
2f
03
90
4e
a5
c9
72
79
d7
a8
5f
48
64
40
95
63
17
57
a4
04
a4
69
86
c1
6a
d4
57
b0
8b
6f
f6
2d
e1
74
36
21
89
aa
ea
29
96
fe
c0
e1
29
92
36
40
33
17
b1
6a
35
2b
ec
ad
31
a8
6e
a6
04
3a
7f
8a
28
08
e1
91
6e
75
ac
8f
6a
13
a1
1c
22
fe
8c
1e
c8
a0
75
97
6e
ba
68
3f
81
93
ec
5d
29
4c
ab
58
4a
ee
c1
8c
56
5e
11
e0
4b
11
3d
6a
45
f5
5e
77
94
a8
2f
e8
a8
47
27
aa
eb
8d
d9
8d
8b
40
49
26
d5
fe
28
1c
95
44
fa
7c
34
31
c5
99
6b
52
34
8c
46
55
93
80
1b
e9
29
66
86
9e
cf
ac
fd
50
f7
d5
14
8b
92
67
7f
d1
b5
82
9a
0a
55
a6
86
5b
d1
e3
86
21
05
ed
38
81
36
17
88
20
bc
3e
14
61
c9
37
f8
bc
25
ed
19
3f
f2
3f
53
99
5c
ce
71
02
50
3b
12
47
34
1a
56
f1
88
1f
4e
9e
95
f0
ab
0f
b6
3d
e1
36
09
96
ed
e6
86
4c
7e
2c
88
e5
fc
34
b8
72
01
cb
e4
2e
4d
a1
3d
81
bd
36
2c
ea
a4
0a
c6
c0
51
bb
66
9d
73
f7
f5
e4
e8
11
50
7f
4d
d0
ca
3a
d6
6f
3d
1e
1e
11
72
4e
7b
e2
e3
49
47
1c
87
5f
c4
6f
2e
c4
4b
92
c6
82
55
a2
83
f0
1d
6e
d1
27
46
5f
01
b8
7a
f8
c3
a1
dc
34
87
ef
78
db
92
c6
9c
18
ed
65
59
bf
84
9b
4a
82
9d
3f
af
24
0a
9f
c8
b6
7d
fb
ef
fe
72
3b
90
a1
0e
8f
e0
21
98
37
02
37
1e
88
48
78
48
e5
d0
95
61
7d
71
ae
4a
1c
5e
b5
6a
7d
88
6c
08
a8
f6
13
4c
81
5a
4c
b3
89
85
43
7b
de
07
22
c7
96
bc
b7
f3
72
d2
8d
a9
24
bc
78
ce
a6
7b
81
77
c4
27
e8
8b
42
1a
f1
01
da
0f
cb
ee
dd
57
e6
fa
3e
a0
c8
ff
16
42
51
b3
43
f4
2a
03
01
57
7c
33
0e
5f
d5
d7
74
53
8f
12
7e
86
37
04
eb
8d
89
84
8f
aa
5e
16
51
fe
f5
66
93
e8
50
cb
e9
cd
53
69
c8
a4
d3
a9
1f
d4
b9
56
a4
37
0d
fd
04
1c
95
0c
f3
63
f1
5b
0e
84
c9
58
aa
cc
25
08
15
33
f8
82
ff
65
4a
69
15
ed
e7
04
99
a2
d2
1b
7e
08
c4
ca
3e
da
a8
a7
89
6f
43
bc
c4
61
c0
03
d1
9d
70
89
3a
d6
09
64
8d
c5
0d
be
74
23
83
88
20
2c
b0
82
1e
1b
80
31
af
5e
88
ce
71
94
ae
6e
6d
a0
c1
15
76
00
b2
20
dd
af
d5
eb
0b
60
9c
6b
de
42
c4
6e
79
b4
88
7f
c9
43
40
76
44
07
59
02
ca
52
71
8d
e2
fe
94
45
a0
ff
24
d6
6c
35
c9
b2
66
25
86
a6
cd
26
72
e0
e6
ea
97
01
6c
24
4d
50
7e
74
b6
35
4d
1d
b0
28
fc
25
d1
c7
92
7a
d8
25
d3
48
b1
d4
89
5a
aa
90
67
ad
35
08
1b
42
3a
fd
92
66
dc
30
1a
b3
f0
27
9e
41
65
96
a6
6b
37
50
68
c4
fa
c6
75
5c
16
f1
65
6d
b6
5a
1c
98
7d
20
a8
68
7f
2d
a9
de
15
af
40
52
1e
93
c1
bc
4d
cb
db
87
c5
04
56
b4
77
52
2a
dd
94
21
bd
fd
db
7e
41
9b
e8
cf
b7
4e
ec
3b
b1
b6
e1
28
52
14
cb
4f
d5
3c
43
ff
af
83
af
dd
dc
43
df
c0
86
1f
36
e1
e1
47
70
8e
5e
37
e7
48
31
5e
98
95
5c
0d
6c
9c
a8
2e
56
8b
64
fd
1d
29
8d
21
02
d9
a1
c4
2b
f4
ac
23
a1
75
55
0b
b7
a9
cd
22
99
91
4d
d8
6a
ab
57
59
4c
ad
6b
ec
0f
9e
7a
01
7f
97
e3
a6
90
05
26
1f
1b
e6
9e
99
af
f6
68
20
59
d5
77
55
a8
94
51
7f
b1
bc
80
ec
3a
d6
21
2f
56
84
ae
cc
9b
7d
82
ab
9d
72
ee
a9
e0
63
c6
a4
f5
56
42
03
cf
ee
59
76
f1
ef
ea
51
a3
1b
68
f5
e3
da
8a
74
34
11
80
4b
68
c1
ae
f0
2e
c7
c1
78
ee
34
d3
a4
44
f8
72
9d
c1
4b
9e
e6
55
21
99
82
2d
7b
40
65
bf
80
a1
e0
e6
63
84
fb
c1
49
04
7e
b9
19
79
fb
2a
20
16
4b
2c
f3
b3
fb
d7
57
9b
69
99
87
bf
c8
48
65
12
e3
19
0a
58
28
80
82
12
d7
ad
7d
17
26
48
24
82
e4
df
23
f0
4f
0d
39
4c
a3
77
95
4b
da
af
f4
c8
af
66
67
0e
b3
21
a1
45
0e
84
59
7d
cc
72
ab
33
5f
e8
cd
99
7d
7b
1a
49
29
66
0f
15
f0
58
55
16
39
4e
d4
3a
d8
8a
27
a0
d6
8f
75
77
1c
68
b1
91
36
4d
d6
70
b4
30
df
24
7d
02
b4
ff
e5
3f
b1
98
11
f1
a6
33
46
36
f2
8e
da
71
d7
61
65
5f
0e
c3
00
14
bd
9e
87
fa
0b
92
08
0a
9c
da
52
75
b0
fc
52
e9
b4
9e
f1
ac
a6
f0
3c
3a
f7
9c
e5
ac
7b
b0
0b
19
14
b1
52
ce
54
03
cd
80
13
ff
26
6e
ee
02
04
6e
86
cf
fe
f6
33
b6
42
23
74
26
95
77
b6
73
96
2c
ca
e7
d7
ff
e8
65
7b
b6
b0
8c
6b
5d
30
71
03
3b
e9
f1
37
54
d2
20
76
9a
a6
89
32
01
76
23
66
4b
0e
72
85
ae
5e
25
f1
ce
b1
f5
97
df
fc
48
bd
6d
8c
63
2c
96
b4
b9
98
62
66
69
94
f1
97
53
94
6c
f9
8d
e7
f9
3a
5b
3b
d6
aa
88
6b
5f
92
7e
3b
2a
e8
fc
f1
ec
70
a0
a6
7a
f0
9b
68
cc
11
f5
6e
ca
c3
5e
e6
88
ff
b9
4f
40
72
c4
64
d1
8b
c0
d9
71
0b
22
d6
19
4d
a0
d5
49
57
67
80
68
3b
2b
39
b0
8c
cb
16
fa
81
b4
ae
0b
d5
cd
20
4b
74
7e
54
a6
d5
55
00
b1
3c
f4
24
89
65
a2
62
90
66
d6
4a
74
e8
c4
fc
75
fb
cd
87
04
85
2f
4d
bb
f5
c4
ab
e9
27
d4
2b
c0
cf
4c
5f
fd
d5
5b
f6
ea
66
57
57
ea
97
a4
7c
51
ca
7a
6b
77
97
27
36
33
67
62
5e
3e
e7
4f
d8
a8
87
6a
f2
db
d2
75
dc
28
c0
20
d3
37
b0
d4
f0
f5
a9
7e
02
3c
c8
ba
0a
20
3e
b2
5e
98
73
5d
53
e3
2f
df
61
1c
86
dd
da
86
60
74
76
db
57
30
0c
04
a4
a0
54
3c
4d
46
84
d8
43
98
4c
d0
27
a3
9e
32
17
ab
99
25
19
dd
d5
11
86
09
93
65
ee
a4
b4
b1
80
b6
42
8c
28
fc
05
50
b3
c2
13
db
35
e4
87
f8
a3
2a
7f
f7
27
92
65
09
78
86
76
d7
b6
36
94
4c
b4
92
86
dd
44
67
24
17
46
4d
54
c4
77
07
96
d5
92
c8
05
81
92
7c
77
bd
45
e9
cb
31
52
65
78
fe
5e
46
d1
90
72
fb
05
2e
36
58
17
98
84
5f
6a
ce
51
ae
82
ea
05
17
d4
1f
ff
67
d3
c7
a2
a7
43
7e
fc
9a
33
3c
b0
ae
43
37
d3
61
33
fb
2a
d9
b7
64
9e
22
78
18
8d
44
42
b8
b5
f8
aa
ba
72
21
07
48
ef
ed
d3
89
4d
40
35
7e
c3
27
41
45
09
80
2d
1d
90
a3
bf
4a
72
ec
fc
e4
90
3b
e5
04
6b
15
ac
70
ba
97
8e
41
ac
75
a3
ca
1f
08
77
87
34
0d
00
dd
23
72
87
1d
e8
3a
33
91
a1
7f
fa
40
ed
8c
ae
d3
a1
f0
9e
af
f2
a0
ed
c8
9a
ed
e3
85
77
f4
20
d8
6b
8f
78
b0
09
d3
1e
0e
ed
f8
52
31
37
f3
09
83
17
1e
80
cb
ff
ef
ec
62
49
85
50
56
92
1a
4b
55
87
53
5b
fd
36
77
8f
b0
b9
2e
99
b8
09
26
43
4b
01
78
82
e7
4e
12
39
40
4f
e7
69
0e
e0
44
59
19
0d
31
48
cb
ea
dc
2a
a4
c0
2c
f6
6b
70
45
68
45
65
0f
cd
b4
2d
21
91
88
4e
82
ad
83
53
a3
29
d3
69
0f
97
2d
68
15
bb
53
e2
4d
f6
66
bf
dc
fd
11
c0
de
24
08
d9
45
11
27
55
1c
eb
a6
31
16
5a
b3
bd
54
0b
94
99
5c
c9
2a
09
f3
4b
e8
b1
9a
8f
0f
04
78
51
bc
b7
f6
66
d1
65
be
8a
89
4b
32
88
bf
2e
ed
d0
1d
db
65
44
ee
34
88
73
3e
dc
8f
52
2b
a3
6c
27
26
88
1a
0b
21
3d
9b
68
3e
3b
3a
d3
a3
24
0c
cd
74
b6
37
b1
a7
02
88
00
fe
88
84
8d
15
61
69
5f
be
de
16
1c
bd
3f
fa
88
eb
ed
a6
f9
bb
33
0c
82
55
f3
87
f5
ef
4b
90
87
da
00
c2
ee
d6
bf
23
2a
24
89
fd
ed
7b
fe
a7
2f
0c
72
de
21
e0
62
ca
fe
f5
c3
0b
1a
cb
4c
5c
d4
8c
db
bd
d0
d7
49
71
f9
57
92
ae
78
84
73
03
41
7c
e9
f0
66
af
df
04
73
cd
36
f9
8c
45
1e
22
8a
35
8e
26
71
f7
01
7a
50
cf
44
b9
9d
50
bb
7b
52
ba
da
15
df
bc
bd
71
08
fa
81
5e
d8
9a
49
f4
fa
67
13
2e
bc
2c
ad
95
d6
38
71
b3
91
e0
e6
89
c8
c7
15
46
1f
43
93
56
db
7c
92
5e
55
3f
80
4c
f1
b8
88
05
5b
4f
49
6a
02
f6
08
12
3f
42
44
a3
6c
0e
76
59
11
89
0d
11
61
1b
6a
fc
2c
84
e8
b8
a7
67
01
08
e9
51
20
37
91
15
39
04
ad
ce
0f
0a
cd
e3
43
a3
2b
57
69
06
13
0d
ee
2d
33
5e
e8
15
b5
7d
84
4b
5e
ea
b6
2e
2d
77
81
ff
5f
2a
3d
91
ac
2c
f2
5a
97
b1
16
89
a8
70
b7
0e
45
25
c8
88
20
ee
8a
74
73
05
28
7b
59
96
56
3c
48
b7
0a
6a
e9
60
6d
a4
f2
02
6d
84
ce
28
73
c9
8d
8f
5b
fa
97
af
fe
e1
0b
09
5e
06
69
f4
5e
7e
16
56
43
0e
98
d7
8e
bb
84
1e
c2
f3
b7
1a
ff
a5
75
d5
c4
21
b4
42
8c
40
36
78
30
c7
86
42
ea
59
3f
9d
8b
3c
34
a6
f4
d5
f5
f0
68
f1
a9
59
b2
b9
b1
9d
c9
3d
1c
b8
d4
69
5f
3d
d8
26
55
01
c8
39
ba
4f
bf
12
32
89
ba
78
6e
bc
03
9f
83
76
1c
bf
c6
56
e2
91
e4
33
cb
08
b4
f8
b1
d2
e4
b6
f9
4a
37
de
c2
dc
54
70
35
a9
b6
3d
5c
e0
f1
5a
32
d7
1f
11
ed
7d
ee
7f
0e
6a
07
2a
d6
47
a1
f6
35
f3
12
bd
75
5b
ad
47
8c
33
65
0f
b8
37
80
27
e6
ad
14
f5
f6
ab
95
65
09
ad
c1
79
78
89
3f
56
39
10
e9
9c
be
60
1b
33
e8
df
a1
4a
30
a2
ec
1a
79
9a
71
8e
54
b5
af
51
6a
64
77
7d
56
da
51
98
b1
e0
35
4f
c3
26
19
81
15
84
6f
5c
d0
18
8f
ce
cd
4d
cc
f0
ad
f7
f7
87
99
0d
be
7a
9e
d7
a6
51
a1
6b
03
5a
f4
27
77
97
d4
01
01
78
38
76
e5
93
c8
36
7b
39
c0
4d
7a
58
00
16
b1
e4
67
28
86
0e
95
e7
55
21
08
35
68
7c
ce
86
c2
ad
94
60
38
e3
e1
49
98
29
09
77
12
a5
39
b7
5b
07
c8
05
fb
99
26
b5
f8
40
f4
13
6e
0c
0b
5e
40
8a
d3
72
8e
8d
65
bf
64
e7
92
02
a3
7e
01
92
df
ef
f3
4c
b5
06
51
6b
93
a3
a8
1d
a9
0c
da
12
d3
2d
94
49
b8
62
f0
20
88
73
09
23
91
2c
3b
bf
f9
bf
48
59
7b
ba
27
f8
63
55
71
1a
d1
0e
68
b4
76
8b
02
a6
a6
3e
36
b3
6f
47
52
80
a4
c5
57
da
fc
e2
d6
85
fd
c9
b7
61
c5
ff
a1
1a
33
e9
65
b7
a8
c6
42
fe
97
29
95
41
94
1b
1e
c1
18
50
cc
cb
f4
6a
4f
f2
50
de
8a
9f
76
37
b0
f5
32
aa
bd
fa
d7
20
86
e5
68
72
a7
c7
c4
a4
35
f2
0b
fa
38
a5
42
85
a9
55
b3
33
8e
1a
62
20
45
a7
ee
3f
64
a8
21
0b
ca
9f
73
1c
d3
d9
6e
e4
39
2a
29
ca
4c
a1
6c
c1
3a
63
26
46
af
30
a4
e8
09
36
2e
13
c8
ba
ec
3e
6f
a8
9f
d5
68
f5
81
50
02
e1
99
c4
eb
fd
f0
73
83
da
4d
14
62
97
8d
67
46
dc
5a
fa
91
5f
5a
b0
7f
f4
2e
9f
b3
07
f1
28
8d
45
4b
90
32
c2
9e
1e
cd
f0
db
16
21
ef
64
7b
e1
8f
e0
cc
0b
50
1e
29
de
6f
50
59
97
ed
0e
2a
36
88
c0
6c
73
55
c1
8d
5c
cb
4d
45
73
db
de
0b
10
1c
96
f1
c5
53
4e
9f
d8
b6
a3
26
57
75
c1
f7
97
c7
59
48
b0
03
47
b8
d4
6b
0a
ea
b1
6a
47
55
c3
7f
3e
0b
1c
81
2d
2a
2c
3f
b4
5a
a9
05
08
68
67
b7
78
c1
57
b0
ac
22
f6
06
d9
80
b3
e5
ca
b5
3b
1e
16
e3
8e
e7
aa
f6
d9
e6
be
f0
37
e3
13
5b
4f
45
12
18
8f
8a
16
ba
5f
38
5b
aa
d6
ba
66
56
51
f5
40
4d
6d
1d
f6
bc
86
e7
68
62
8f
c8
6c
08
7e
f2
4a
90
7a
e9
93
44
4d
01
a9
a8
fb
46
06
ba
04
04
e7
1f
6c
af
e9
c3
f6
4e
3f
8f
51
39
b7
cb
1d
6e
c3
cc
c2
ab
4f
73
5e
b1
03
41
ab
2e
e1
4b
18
3a
ff
2b
f8
98
6d
ea
ef
12
57
c5
2e
38
10
80
a6
e3
38
55
67
9e
fc
67
a0
ec
06
0a
ad
87
c1
a5
29
e1
7c
22
11
86
91
21
9d
40
58
e5
b1
5d
d9
ea
50
57
5b
ae
23
53
bb
a7
8e
78
69
29
05
76
e0
4a
55
0a
cb
ca
50
8e
40
03
72
de
c6
8e
6f
46
48
af
12
80
c7
b4
52
24
a7
f3
08
a6
a1
ec
c3
29
74
2e
7e
27
36
8b
64
15
2b
e4
b3
16
0b
b6
c9
0e
d4
5a
ec
77
d7
6f
d7
2e
e6
7b
de
d3
59
75
b3
16
fd
50
59
02
53
9e
e2
21
8f
c9
9e
2b
52
8b
85
46
17
08
84
20
f8
48
23
99
de
04
ab
0d
af
61
57
44
fa
a9
25
95
ff
24
69
0a
b0
03
e4
4d
4d
8c
4b
fd
ab
28
1b
28
09
a8
58
c9
72
45
02
61
29
27
9f
65
a4
4d
18
5a
b1
19
c5
39
42
3e
bd
c3
b6
e1
eb
a2
30
48
32
82
51
a5
c3
69
f8
b7
dc
b1
8d
d1
83
31
ec
5c
1e
82
b3
b9
3b
53
2c
64
83
bf
e3
85
9c
0f
c4
6c
6f
d1
58
6b
ef
69
b5
fa
f2
d6
c4
2e
59
48
16
5e
4b
45
56
f8
c4
ad
be
31
8c
e7
70
6a
b6
cf
94
01
75
6e
1a
10
7a
b6
83
61
e3
dc
da
f8
75
0e
13
51
a2
25
76
07
c7
84
4b
1b
dc
48
1f
5e
e9
58
bd
88
08
27
ff
95
31
96
0e
42
0c
82
8e
79
87
a7
81
49
d5
aa
e7
91
f7
12
81
ce
37
1e
92
35
6c
36
42
fe
86
01
f4
bb
85
53
4b
ca
b2
26
bc
7f
80
bb
d9
22
6c
5b
3c
5e
3a
7a
bd
72
20
1a
90
61
ae
b2
40
74
da
8c
c0
be
48
75
f1
9d
63
7d
7d
37
fa
18
4f
bc
2a
c0
e9
60
01
ad
ff
11
cc
a4
cb
72
13
c8
97
47
f9
7e
87
6e
13
5e
55
e5
48
78
10
82
eb
70
14
a6
18
6d
e3
b0
d7
13
1c
27
b9
a9
a2
8c
59
df
d9
7a
09
bb
1b
aa
13
8b
c9
bd
54
19
bb
2a
a7
78
23
d0
ed
1e
c8
4c
72
a6
ba
2b
44
22
fe
19
77
62
27
2b
b1
8c
23
6f
85
64
3c
f2
d9
26
e7
d4
85
bf
ec
37
7d
92
33
a7
3e
5b
06
ac
c5
3e
06
70
27
cf
44
cb
e6
d3
56
a7
7f
a4
83
09
fd
7e
18
d7
50
83
5e
36
c3
d1
0e
22
f2
3e
d3
2d
dc
cf
d8
7a
d0
c7
dc
be
9d
e3
1d
41
f2
f4
b0
d5
7e
da
41
8c
31
14
85
f5
a2
06
16
db
8d
c5
6f
de
ba
72
bf
f7
01
61
35
d5
7c
77
56
d7
f6
2f
86
7a
d8
02
82
d0
84
27
a5
4a
d5
b1
37
1f
86
51
05
e4
3e
78
34
53
8d
1c
9a
29
06
63
e8
93
f8
c7
fe
46
df
15
8b
ad
ea
42
ef
3c
4c
ae
ef
97
69
ac
a1
c3
cb
cf
5f
1d
dc
b9
97
e3
35
48
dd
98
56
f9
6e
f2
59
53
2f
47
0a
2f
e4
5d
18
52
a7
3f
cd
b9
6e
fe
4d
04
51
c3
2c
b3
a0
40
7e
27
1a
f5
f6
b5
01
b7
54
47
41
80
e2
7e
46
3f
bc
16
17
99
84
75
6a
c6
d3
5e
af
e6
16
21
c6
35
be
57
d4
58
4d
2e
42
7a
5b
c0
0f
c6
f9
8e
73
5c
11
f0
3c
be
e3
81
ad
68
1e
aa
30
5a
80
5e
10
4c
65
e1
64
cd
c1
c9
6a
8d
cf
38
2c
51
95
d5
e4
af
34
5c
a4
7e
b2
0f
5a
62
d4
ce
02
c3
5c
37
e7
3e
83
89
44
78
40
c3
51
bb
56
64
49
ae
57
08
5a
57
b1
7f
18
8d
49
bc
fe
28
8e
a2
5c
da
f3
e0
a4
49
2b
da
2a
bb
12
79
d7
28
5e
64
c1
c9
19
f1
37
84
80
43
3d
4d
9f
27
fd
54
b2
39
2b
0e
7c
2d
69
b4
b3
bb
c9
a6
4e
05
b6
7c
b6
83
26
02
3d
4c
23
ff
fa
7e
3d
be
fc
65
b5
f9
6e
6c
a4
3a
26
ca
3b
19
85
b3
6e
4a
28
b0
4f
06
6f
0d
a3
77
bc
07
71
2e
45
ed
8f
2e
6c
82
20
41
e0
c0
76
89
a9
a9
b5
e8
19
37
d9
4c
15
bf
6b
f7
1e
59
0b
47
aa
bc
e0
88
5d
30
ab
4f
c9
7a
41
ca
e7
2b
9e
d5
ec
21
88
42
13
91
b7
83
fb
ae
ea
05
88
d5
1d
d9
86
10
e9
2a
0e
26
d7
9a
b1
1e
78
c2
c7
df
4b
9c
3c
9f
6b
2e
3f
0c
eb
98
94
5b
65
92
13
b4
84
6d
b9
6c
c6
58
19
07
c4
bd
36
b9
6c
74
0e
0f
51
e3
17
64
2a
40
66
43
59
48
26
43
a4
0a
57
99
27
55
26
64
4d
d2
43
c9
89
31
4d
e2
04
90
ed
cd
d0
b0
f7
a3
05
d9
b9
cb
1d
94
3c
c6
03
1b
dd
2e
e2
cb
c2
a9
6a
27
9d
f6
9e
2a
d3
5e
41
26
f8
79
2c
c1
d5
29
68
f6
d1
aa
1d
61
19
ef
fc
b1
d8
6e
2c
32
49
9a
80
2f
2d
6b
56
b8
34
9f
5a
06
25
9d
51
8a
80
16
63
74
da
e5
02
ea
52
0a
6e
3d
9c
ea
17
1a
cf
5a
2d
98
23
bf
a8
df
2f
e1
df
35
bd
ab
d8
58
5b
04
84
69
ab
88
01
93
ad
a0
67
d2
48
97
d0
ff
ee
84
fa
c0
ca
eb
59
11
c5
64
04
d8
a8
3b
7b
73
4c
92
8e
f5
ee
fc
f7
05
51
05
0c
40
37
9f
86
d1
29
33
ad
82
0a
81
74
f6
f6
03
8d
71
51
14
40
a5
08
5a
bb
d5
84
27
fd
ab
43
f0
df
ee
5e
71
95
c1
c1
e1
b5
06
ac
16
30
49
96
c6
fc
7c
91
b3
ab
4f
5c
6f
f1
b4
27
a1
d0
aa
ea
25
b4
fb
96
71
20
22
bc
58
33
5e
d8
54
55
fc
ed
e9
55
fd
ce
f2
64
2a
97
c2
37
01
f5
a2
66
53
33
d6
1e
69
20
cc
22
58
f5
c5
9f
e3
89
a7
fb
60
4f
04
b0
01
c8
70
56
b2
71
7d
d9
6a
21
32
5b
af
f9
90
ab
47
8e
59
0d
5b
96
5e
b4
48
74
20
fd
8c
0a
5e
00
07
73
bf
92
8f
fd
36
64
79
b6
91
72
4d
ab
79
53
08
e6
9d
4e
52
36
84
82
4d
03
83
9d
71
b9
22
90
1b
0c
a9
e5
1c
9f
b5
e3
a0
13
b8
29
92
81
58
3c
c0
b3
c4
86
82
44
ed
34
ca
9e
fe
ad
a7
55
86
10
37
7c
d0
14
d3
e3
12
70
95
bb
9f
4a
b1
d3
8f
f2
61
78
ee
c3
b9
ca
10
94
d0
aa
23
52
90
13
dc
5b
f4
24
63
7b
d5
08
7f
5b
8c
e0
34
e7
33
c7
54
bc
40
a3
a5
fd
3f
39
47
9d
da
a2
9d
04
d0
67
09
3e
d5
1f
da
d0
2e
12
56
3f
17
6e
49
52
3e
32
a7
5f
29
a9
6c
32
73
ed
1b
db
23
d5
b5
ee
3a
6a
1d
b1
03
65
81
69
8c
f9
78
4a
f8
59
78
5b
6f
09
78
4d
c5
1c
29
11
75
bc
45
90
e8
4c
36
aa
4d
22
a2
eb
1b
73
0b
da
ad
ec
29
15
ef
c1
09
37
9b
10
f0
4f
4e
4e
91
55
a1
63
61
71
fe
8a
6f
2d
4b
36
84
28
64
f2
f3
9b
87
08
ea
9c
74
bf
3b
fd
2c
db
b7
d1
eb
5a
1f
2b
d2
3a
98
7b
5c
9b
1a
57
3a
e8
d9
44
fa
41
b4
57
ff
0c
f2
31
50
d0
67
7e
19
15
27
1f
7b
40
6e
32
2f
89
fb
9e
36
fd
3b
2a
02
f6
15
0f
2d
f0
19
12
52
60
ce
dc
e4
c3
d3
d3
6f
5b
2c
c9
5d
3e
1b
88
70
3e
b3
5f
90
cf
31
5b
42
71
30
ff
4d
f3
8a
da
3e
71
d5
9f
2f
15
35
b5
bc
30
2f
4b
59
01
6a
83
fd
4a
98
bb
52
ce
ef
6c
1c
73
90
91
0b
2d
39
66
3c
ca
fe
49
a0
f1
38
ae
4b
0d
00
48
c5
77
9f
e5
a0
3b
e1
b1
c9
4f
82
ad
03
1b
6a
0e
7d
69
96
c3
25
f6
05
b9
57
8a
dd
97
a3
c5
c0
3c
7e
98
21
96
8d
8b
a1
ac
bc
a6
a6
31
81
16
f0
29
e0
53
86
71
d5
08
df
64
cc
f7
d0
d6
ab
dd
3f
90
f9
5e
12
69
f6
79
05
64
37
13
c0
57
76
e6
1b
fd
54
56
01
4b
e8
14
96
bf
02
b4
7d
ea
36
f2
bc
e8
cd
98
66
a0
b9
d1
1b
94
2f
be
35
f6
8a
76
17
7a
ee
b3
de
2b
9f
00
7d
c8
3e
0a
76
e3
6b
f2
b6
d6
0e
c0
c1
5b
28
3b
0c
15
54
31
02
cc
19
2f
01
be
bd
9e
a6
c3
2c
87
a4
36
17
26
12
b2
58
6a
a0
a6
01
63
dd
82
40
76
00
26
51
03
84
49
63
45
64
ac
19
c7
f1
df
1c
1b
fb
e5
8c
28
06
67
14
91
4e
3e
42
8a
d4
cc
60
9d
6f
80
e9
8c
ae
f7
87
75
0d
00
2c
2e
de
31
c2
e9
f6
70
f4
6a
87
d3
1b
bb
36
0b
b3
cc
41
72
52
be
fc
7a
1c
55
59
8f
92
ed
39
04
8b
dc
b5
24
9a
ef
92
24
f2
fb
af
9f
1d
1d
80
d1
21
2c
4a
05
46
28
fe
47
a4
cb
fe
bb
ab
32
b6
f1
6a
f0
af
ac
55
5c
05
c9
a2
11
7f
35
3e
72
24
55
0d
58
ce
50
99
e9
17
02
40
e1
72
56
02
88
09
ff
1e
98
13
0b
0e
28
3c
6d
b7
e8
92
a7
ca
42
1e
8e
78
b4
a7
1e
30
19
73
01
e9
ee
2e
47
81
34
85
8d
7d
70
aa
85
3c
00
ca
59
13
e4
55
7c
60
ef
bc
e4
41
b1
fc
d6
29
cf
41
a8
40
8a
af
e0
25
11
46
93
38
a4
45
58
bc
3d
d2
8a
aa
2a
56
2f
a3
52
19
2e
06
85
74
8c
29
dd
77
94
ea
44
a6
c1
47
37
21
19
9d
09
df
59
ef
4f
67
56
bb
0e
0e
d3
41
d6
da
ac
20
fe
a5
e9
01
b6
e7
c8
ad
39
12
33
e1
8d
aa
ea
74
ca
e6
0f
f9
f5
63
57
1b
2e
45
58
ae
b8
ab
97
fa
5e
da
4a
bb
d0
9f
7e
16
b1
f5
52
6e
a6
1f
31
28
96
f8
f4
5a
93
cc
c2
2c
7b
b8
0b
72
30
f4
c7
61
d0
4d
a1
f3
df
5f
5a
bc
15
0c
27
ad
0e
0d
68
c3
64
dd
00
86
d1
cd
8d
fe
af
17
db
48
11
a0
ef
e2
1e
6a
1b
53
03
53
b7
e0
09
36
38
5b
c6
b2
2d
6c
af
ae
f0
d5
e9
36
c8
78
21
e4
58
c1
f9
b8
a0
9a
ce
19
8f
21
76
1e
67
29
34
cf
99
30
28
7a
f8
f2
66
0e
e5
49
24
31
61
2f
5b
4c
0b
d8
44
ef
46
97
43
e8
79
be
c1
a4
4e
4d
09
f2
a0
39
cb
fd
68
24
a6
cc
32
c0
eb
81
a8
68
7e
82
09
5c
32
3a
06
25
6f
c9
03
da
f5
44
13
89
80
e5
ed
23
4d
84
e1
9b
d8
78
5e
ee
73
69
b9
eb
7c
6e
1f
84
f8
87
cf
c2
94
21
2b
08
a6
33
b0
49
15
3f
1d
cb
f1
46
01
ef
23
3a
86
d5
ef
32
5a
ea
72
83
70
b3
5e
e4
e6
77
01
75
b6
76
4f
a9
e8
be
7f
a7
ab
8f
74
fe
a1
60
e3
4f
76
f4
68
db
1e
ce
f5
dd
53
09
0f
b3
c1
eb
5f
12
81
4f
cb
9a
e6
37
11
01
62
7a
f2
38
ff
1d
dd
2a
5a
fc
1c
37
95
48
11
66
1d
45
4e
5e
a9
f6
5e
92
e9
1c
30
fe
21
df
b2
48
1b
f3
cd
e7
6f
cc
d8
1f
be
e7
6d
01
36
11
d7
d7
8c
47
b1
8f
4b
2a
d5
04
63
9d
82
3a
6b
57
b3
59
27
78
9a
5c
a7
63
d8
30
2f
f4
84
18
c3
b0
94
6f
6d
23
01
cc
5b
d7
08
26
b1
e9
cb
d1
b8
ac
1c
67
a3
24
f6
1b
b8
6f
18
9b
62
0b
09
a7
4d
b4
2b
98
ec
6a
53
f1
c0
d9
ff
3d
41
28
3b
5a
b1
d2
ea
05
45
d4
0a
e8
7f
57
d7
c7
dd
2e
12
16
17
11
91
4e
6c
bb
28
26
0f
5b
29
7b
a2
bd
4a
50
37
b8
c5
77
ec
0e
d0
c0
51
4b
01
11
40
86
6a
fc
ab
a4
c0
2c
af
41
42
19
fc
55
77
8f
e5
77
2f
25
a5
8a
2f
02
ac
09
4a
e7
8d
79
79
01
83
35
1e
37
bf
53
a2
5d
94
ec
23
70
5d
ab
de
b8
05
11
c3
f5
b4
65
5c
0a
b9
e1
9f
73
1c
3c
b3
b9
80
8a
2d
87
c4
9a
8b
93
59
23
bf
53
e2
ee
5c
7c
28
06
90
cb
53
56
c0
55
db
6e
b0
6c
ff
2f
ce
67
fc
58
b1
d0
cd
e6
75
fc
1f
d9
72
b9
f6
01
fd
ce
03
e1
da
4a
66
2c
69
a6
67
37
61
c4
e5
c1
c0
c9
7f
1c
12
79
07
c0
ab
4c
45
aa
d1
4c
ae
53
92
72
47
41
1b
7c
c0
cc
0c
36
3f
7d
b5
b9
4a
bc
2c
fa
b5
83
ed
b3
78
54
64
d7
d7
85
e3
9d
fa
9d
de
a1
0d
11
26
75
a8
4e
3e
58
98
9e
ba
7f
93
62
c1
3e
cc
9d
1d
93
63
17
0f
81
6b
90
2a
eb
d5
be
25
f4
f5
6e
4b
aa
43
37
8b
7d
e3
ea
34
e8
66
24
8c
c4
78
d8
33
c1
a2
72
3b
fe
10
b0
82
9b
cb
c6
08
34
bc
bf
c2
4f
b8
ab
0e
5d
c6
2e
5a
bf
95
e3
38
c6
88
ad
d1
3e
88
7a
11
1c
9a
58
54
f3
f9
ff
49
3d
79
a9
2f
95
e3
fc
b9
13
e1
1d
cb
28
6c
9b
c3
13
df
8e
36
e0
a7
43
36
86
03
94
08
9a
f5
8e
a5
22
bc
be
15
5f
4d
a3
6e
6d
c0
6e
42
4f
d3
e3
55
6a
3c
e7
94
f9
bb
3f
0d
54
83
ac
68
f7
5b
07
4d
79
7b
bd
a6
87
59
41
74
0b
c8
0c
29
50
62
eb
8b
04
1f
8d
e7
e9
26
c3
d2
02
b2
c0
ef
3c
24
30
37
8b
47
c6
34
0c
6f
59
b3
40
11
b9
8d
64
8f
9c
cf
0c
5d
e4
26
41
55
09
fa
67
31
97
b5
02
b6
6a
89
c2
96
5e
91
c2
16
23
95
e4
76
c0
76
17
8c
e4
3a
dc
24
e1
89
2b
d0
bc
4f
e1
18
25
95
ea
61
be
52
63
48
9e
62
9e
15
43
aa
7a
50
98
98
1b
73
3c
3b
32
01
f3
25
06
79
1e
f2
b2
a0
37
22
7f
90
2c
e4
9d
fa
be
65
ad
4b
52
b1
89
41
e4
2b
c7
b5
43
92
5c
28
1c
9a
48
2f
bf
90
3b
e3
4c
72
34
e5
15
5f
d9
41
d2
f7
85
76
37
91
1a
af
b5
cd
75
2e
9f
d9
8d
8f
86
df
4d
d5
72
37
27
5a
8a
3d
0b
26
fa
16
ce
0e
c3
80
5b
07
9a
11
f6
3e
db
d6
1d
d5
68
fc
7b
a4
59
58
14
d0
ac
e5
e5
3e
9a
11
0b
4f
0e
ba
14
b0
fb
cd
71
13
a2
40
7d
ed
46
c8
d9
11
eb
7e
73
a0
0b
58
a5
ab
f2
99
aa
ad
10
18
d1
49
95
34
6d
fa
6e
ae
bc
c1
c7
ca
3a
a9
07
51
f4
85
1a
41
07
be
bc
0e
88
11
83
b2
d6
3a
a3
43
01
cf
fe
00
32
94
91
6b
c1
a0
8c
0a
73
ef
e4
dc
ba
bc
47
bb
af
22
8a
cb
b7
b9
f6
b3
ad
f9
49
51
db
94
b4
fe
55
85
6c
21
18
23
d2
db
16
cf
13
9a
d9
1e
01
c5
53
55
be
2c
42
1b
51
a3
6f
3c
ae
83
16
17
09
22
fe
50
cc
59
e1
90
57
da
6b
10
4c
9f
11
1f
2c
98
31
3a
22
6d
5e
dc
b0
eb
b2
96
27
b1
16
98
1d
ac
3b
e9
11
a4
db
19
d2
e6
4d
c5
c5
39
43
10
d7
73
76
ce
1e
d0
f1
7f
1f
97
1d
66
ba
15
2a
34
aa
f4
ae
82
0f
59
6a
13
50
e3
23
e2
4c
9c
82
97
31
06
21
d8
71
f6
ee
4c
21
e8
92
bc
27
cd
79
9b
1c
e0
bf
bf
95
7d
15
b8
8d
fa
88
c0
c0
29
45
12
93
71
f9
ef
2f
f3
da
17
07
ca
53
c3
e0
53
fd
53
54
79
66
11
b9
01
db
b6
2f
74
4e
72
4e
1e
97
7b
f5
9c
62
2a
8f
50
7d
d9
77
09
73
d9
e8
d4
a3
ff
ff
c0
31
79
3c
bf
0c
89
5c
f1
12
c1
1a
49
79
5b
d9
86
22
d6
8e
17
ea
16
41
86
92
66
e2
71
64
d6
44
bd
e9
83
55
4d
6b
6f
30
ed
c6
99
3d
3e
0c
a9
f0
b6
08
db
64
5a
7b
c6
e0
b7
52
7d
2f
5b
28
3c
c2
2a
50
58
47
1b
1d
94
fc
1c
00
d6
f6
25
aa
d0
b9
4e
e3
f7
0a
70
e7
bd
49
e6
59
f6
a7
17
23
0b
3b
4a
94
58
fb
7e
92
b2
48
43
bb
db
de
dd
31
cc
1e
30
f3
82
ca
2f
b6
45
1e
9e
b9
e9
11
06
5a
a1
bc
b4
8f
84
20
69
e0
c3
16
f2
dc
72
ac
9a
9e
3f
55
f4
f9
87
38
00
82
5a
d0
93
ff
6c
1b
3c
82
0b
02
06
15
32
fc
ed
4c
fa
98
cf
61
ed
1e
28
a9
a1
e0
52
5a
94
65
c8
a2
1e
d7
b6
08
b4
7d
cd
fd
40
f1
7b
17
bd
e3
6a
10
e8
a4
1a
92
07
3b
c1
bf
ed
d0
41
02
c3
e6
ac
c2
b3
51
fe
77
9c
44
0c
7a
15
fa
77
0a
39
26
11
ef
44
e3
e0
95
28
68
8a
5b
56
2c
55
ec
d4
e3
a6
5c
91
33
43
13
08
a4
3b
34
d3
2f
cc
78
7b
9f
56
e7
78
65
f5
fb
3b
2c
29
5e
d3
8f
b6
e0
26
49
d7
ba
6e
ee
52
9a
a7
22
8f
1a
37
73
a2
9b
1f
ce
72
00
a5
95
82
64
c9
d4
49
85
84
53
69
63
1a
8b
b9
90
3d
9a
74
34
a6
55
61
5b
98
f5
b4
9f
a1
49
e5
fd
c9
e3
ee
9d
c1
c1
18
53
03
52
91
5d
41
8f
ce
32
7b
f1
e0
0e
e0
5a
16
36
1c
72
21
6c
b2
ff
bd
c1
89
b5
6d
ed
e9
a7
5c
80
84
01
ec
21
74
a0
6b
e1
9a
e0
d1
1e
9e
69
3b
b5
88
45
3f
3f
0a
c1
66
f1
ea
a1
09
12
cd
57
16
56
51
cb
79
19
8e
ad
6d
38
99
ed
9a
b7
8f
6d
32
75
43
4c
9e
09
01
f3
3e
50
16
10
c5
58
94
72
89
a3
3c
13
d8
b1
86
06
fe
a5
b5
b7
b3
ab
ad
92
0a
c9
e4
fc
ba
a7
2e
26
2f
78
03
dd
9e
77
ad
87
5c
e5
b9
78
28
81
ac
12
ef
80
b9
9f
61
91
69
bf
09
07
4b
4b
41
7e
9e
e5
4c
09
1e
40
cc
b3
65
1e
60
0c
11
89
2d
11
68
92
a8
fc
d8
20
99
a4
a7
fb
10
f4
ca
50
b1
17
8f
54
3f
21
8d
89
0e
0a
ac
15
01
e3
e8
d1
69
0f
9f
34
4c
11
b3
53
cd
45
f4
36
03
64
bd
77
6b
fc
12
cb
d3
a9
8a
27
fd
ac
23
e1
67
54
4a
26
a9
c9
4b
8a
c9
cf
ce
fa
a3
b7
5e
4b
2d
08
ee
2b
1e
b2
09
66
39
cb
30
32
4d
06
1c
98
be
36
99
f9
16
69
e0
39
50
37
55
68
b5
51
7d
fa
55
8c
fe
ee
97
e8
86
cd
8f
b9
e1
eb
e9
94
60
2d
37
9c
43
39
a7
58
79
e7
27
ce
ce
20
61
f2
74
25
f7
05
9c
02
ca
75
68
fe
55
85
90
ab
5d
89
5c
36
a5
0f
10
19
57
da
64
28
d1
f2
17
17
c6
00
ce
ea
21
02
ca
78
0f
ac
c6
d9
0d
61
7d
db
cb
a5
a1
25
5f
c0
05
2b
02
21
ed
f1
0f
eb
94
c8
a7
13
dd
25
bb
35
b9
c5
db
5f
ea
c2
12
c5
70
86
54
44
53
fa
f0
06
50
1b
53
d6
67
eb
70
fa
97
51
98
76
de
c3
d6
5a
ed
70
d4
c5
fd
d1
b6
64
e0
37
bb
12
9a
e1
0f
a7
ca
74
eb
ee
96
69
a7
17
97
7b
6e
43
58
10
cf
f3
46
be
5f
e9
f1
ea
42
9f
6e
55
31
71
62
78
ac
b1
d7
84
92
f9
fe
ea
37
c8
e0
80
5c
f2
02
7a
20
02
5e
0a
36
65
b2
76
8d
fd
ff
ba
ed
b7
ad
0f
fe
00
85
21
20
49
58
50
ee
e8
0e
e0
ce
d8
dc
6f
7b
f4
4d
45
2b
4f
79
47
5e
31
7e
ac
2e
50
0b
7a
d9
a6
d8
9f
f1
80
c2
0d
70
99
dd
87
19
7c
93
24
d9
3d
b0
95
d8
b2
49
09
12
1a
06
50
12
d2
50
de
a9
6d
df
5e
2e
16
45
fd
94
34
f9
07
6a
44
2a
d0
c0
43
26
80
a1
a6
d6
ac
d4
47
1e
4f
e2
e9
a4
85
0f
61
2e
74
ab
58
01
93
a2
80
72
73
6a
3b
c9
98
70
99
c6
58
36
8d
a7
51
dc
4b
47
a8
61
04
f0
08
33
82
b8
c1
37
4a
cd
c4
46
7d
c9
60
02
23
eb
aa
cc
01
1e
f0
e7
e8
7e
95
bf
75
b0
c5
3a
ea
d5
b3
c5
a9
44
8c
7e
e1
35
87
af
82
b0
50
a2
93
f2
6f
95
59
5b
2f
1c
6e
31
0e
89
db
9d
2f
7c
19
8c
ec
96
1f
d7
27
54
90
83
33
f6
ae
f0
77
ca
a1
88
6a
0a
3d
91
ab
60
6b
79
be
76
d0
7b
b4
f7
49
0d
68
29
76
73
5a
50
e1
ae
98
72
c9
05
0f
d3
99
a7
77
94
a4
01
71
00
63
f0
8c
a9
bb
5a
27
7c
1b
26
ce
fc
cf
69
66
b3
92
22
f2
e0
06
14
de
de
c7
94
4f
7f
24
40
2d
ff
4a
13
f6
72
92
4b
b4
03
f1
39
7e
2a
e8
b6
63
f6
aa
fa
78
d7
dc
15
ed
9d
69
ad
52
7a
79
c9
f5
20
9c
a2
e9
d9
4b
5f
29
a5
0f
b6
af
45
84
ab
c4
94
48
2b
df
45
7c
bd
fa
b2
26
cb
4d
41
4c
6e
61
92
00
4f
41
37
77
a1
89
87
e2
ab
cb
76
1b
89
d4
b7
0e
92
e5
ec
16
12
ea
86
91
b4
0a
03
23
4f
3a
2b
78
7c
f3
ee
c0
93
51
01
bf
c8
7e
cb
80
14
1d
18
a1
98
8e
7a
80
ab
30
1b
a9
e9
90
0c
51
7b
8d
3c
17
3d
1b
b6
f9
eb
eb
ee
3f
ed
85
11
56
12
fb
21
17
8e
f7
6a
ba
41
d3
f0
96
30
e1
e9
9d
fa
c9
1c
ba
0f
15
06
12
e8
40
05
fb
d0
70
3f
3a
d4
f0
43
0b
e7
d5
0e
16
2b
07
4a
c0
04
92
c6
fa
1c
86
b1
d7
d5
a8
5c
46
94
27
68
8d
c4
c5
0d
a9
56
53
28
d1
49
c2
73
c0
68
8f
6a
1e
c3
1e
bb
bc
49
29
c0
66
32
3b
cf
37
98
62
7f
3f
fe
8e
74
5e
13
ab
94
59
0b
1e
b8
5e
de
f2
89
f3
db
4a
13
18
5e
0d
8c
a9
14
1c
9a
71
95
c0
6e
3e
88
cd
1b
22
98
4a
67
eb
5b
3c
d2
45
44
ff
23
81
3b
5c
0d
1d
f8
bb
e7
8c
2a
3e
04
5e
4e
e3
54
9d
d0
2c
7b
7e
16
11
46
6c
e4
e1
b6
5c
33
0b
1b
44
08
b0
26
e5
69
87
44
68
7a
a9
56
8b
cc
21
25
69
c8
79
09
76
fb
8e
b2
99
3a
c1
77
a9
e8
ee
5a
92
03
af
00
4f
5b
2a
44
3c
9d
72
07
f1
d9
a5
5d
fd
a8
e4
de
9b
16
27
54
90
20
2a
ba
af
c2
32
87
09
88
ec
1a
80
d1
af
a4
4f
31
ae
70
98
5b
b6
ee
7e
a9
4a
18
f6
f2
2b
20
6b
ec
1c
73
c9
05
0b
9b
b9
22
63
e4
d5
64
d0
de
d3
cd
81
f2
a0
e4
54
82
42
10
95
4f
e4
2d
d8
e3
be
d7
e5
87
e7
14
4d
f6
e7
76
13
ff
0f
a6
72
9a
12
8a
c8
11
48
ac
5e
d1
85
76
f2
94
81
15
f1
1e
70
21
13
88
3e
1a
50
a5
6b
ce
37
9d
9f
60
57
a8
b5
0b
36
cc
1b
0a
28
34
f9
ce
9e
7a
1f
91
a3
0d
77
44
98
88
92
fa
0a
48
80
4b
db
16
f0
0d
1d
25
fc
53
bf
6d
7f
dc
a0
2b
9d
c8
51
13
a6
ef
07
d3
07
db
e4
13
c5
85
66
3a
28
91
9b
b1
02
8a
0a
45
45
b2
6b
6e
12
f2
8e
4d
fb
ed
24
ec
28
a0
23
ce
9d
d4
0c
7a
c8
0e
f4
35
a8
f9
39
a9
f9
e8
c5
3a
83
34
6f
1a
78
a3
f8
0a
12
3b
32
50
be
e1
55
6d
21
87
75
68
91
8b
57
bd
77
9f
b2
21
e7
03
59
01
5c
a6
25
cc
0a
3d
46
67
e1
6f
5e
6a
cc
51
0b
af
11
69
c2
a8
fc
48
a0
f1
3e
a7
cf
42
44
2c
01
34
07
fd
55
bd
20
89
eb
af
0c
ae
85
1a
e1
cc
51
79
0e
9b
b5
6c
0d
b7
57
82
8d
95
90
7c
c7
a0
c6
a7
85
cb
fd
20
4a
e5
f8
82
e7
d4
c3
40
c4
c9
c8
a3
4e
5f
e5
50
e0
3f
cd
bc
ee
f5
94
c8
6f
1e
52
cb
94
ee
d1
98
25
e4
49
14
00
57
37
e1
9b
04
d4
4b
90
03
83
ac
7a
aa
50
66
50
d2
2a
a5
4a
5e
0a
31
bc
b6
4f
cd
41
f0
ea
03
f1
e8
24
59
0e
10
39
0e
89
d4
01
7b
fe
c8
e8
69
a8
e8
b6
9a
51
a9
91
25
3d
ec
a9
6d
5d
a8
a3
4a
0f
cd
44
11
ce
32
17
41
d7
cf
af
7a
e2
a7
97
ba
df
9f
ea
07
5a
dc
e2
fd
b9
4b
34
11
e3
a5
d3
1b
8a
b9
69
9b
42
d6
34
05
88
de
65
36
6e
c0
21
60
d3
04
b7
fb
0d
91
ea
e3
44
f9
8b
d5
80
38
7f
f4
d5
50
60
b9
4c
12
b7
12
f0
6c
1a
f7
eb
e6
d3
5a
9a
47
c0
32
b9
da
0d
af
8f
03
40
d7
cb
6a
21
81
a6
6d
2a
3d
0e
bf
19
c7
c1
4f
4e
9a
79
eb
a2
79
62
45
b8
c4
4b
3e
07
82
e7
5f
60
1d
7c
c4
ed
44
3e
a9
89
55
b0
08
ac
bc
fe
b4
c3
cb
e2
30
1c
7a
86
d3
ba
29
2d
53
af
09
7a
02
e5
c9
1a
3f
4a
04
a7
6c
1e
70
50
91
8b
2f
19
42
1e
48
fa
0b
a4
d1
ac
af
13
44
44
e8
05
21
5f
cf
25
3f
e0
99
aa
2e
a8
ed
17
12
e3
2b
f7
79
0c
da
15
60
39
8d
57
c9
5f
94
95
7c
e9
84
c6
56
81
81
54
22
3e
66
b8
6d
82
35
c9
22
e9
6a
c6
47
de
5f
65
d6
4b
07
c5
fe
49
f4
48
e4
e6
76
f2
fa
f0
26
c7
89
08
6c
56
10
f1
3f
1e
c5
a9
a5
64
ce
ac
70
c2
ae
cc
b0
4d
4f
23
ce
57
fb
3c
55
bd
7b
e6
05
10
c1
eb
a6
2f
3d
12
b1
a9
9d
33
6f
ee
91
94
2f
4e
b7
2f
c0
39
08
22
61
eb
b3
16
b6
4e
92
f0
48
3c
93
50
36
5e
e5
fc
55
e4
7f
20
9f
2d
be
ea
e5
5a
f7
c7
5c
0b
65
20
74
7e
34
3b
91
a8
c1
6e
21
34
99
5f
57
63
75
93
5e
2e
ba
5b
52
a7
36
18
29
55
f3
5c
eb
34
00
63
01
6e
a8
54
76
4e
61
69
3a
9c
96
f1
5c
fd
65
bb
88
81
2f
e2
fb
2e
3b
aa
b6
5e
d7
48
f5
ae
4b
90
94
68
8c
4d
71
1a
57
d6
f9
95
42
94
28
50
8a
1a
50
55
8d
f1
5f
fc
1a
ab
a5
77
46
86
35
95
dd
ec
e7
17
06
76
14
8c
e1
07
bc
18
e0
e9
3f
b7
aa
8f
65
30
8f
85
17
49
cc
f3
59
b2
80
78
e3
94
6f
7f
49
60
14
ea
04
f8
77
5b
a7
e4
d1
e3
06
d5
d0
86
33
e5
37
e5
ee
1d
40
ad
77
e6
e7
6f
95
7d
f6
77
34
c5
f9
88
ae
6a
da
b2
46
93
54
c1
3b
5f
95
c5
7e
3c
c2
43
11
a9
f2
ac
64
3a
d7
3e
50
bc
4c
05
ef
32
72
32
5e
2d
61
4d
06
62
9d
41
df
a6
f7
ad
ae
e6
76
0c
d4
05
b4
01
68
84
e8
7d
c4
62
2b
11
5c
ac
1b
e8
ef
4b
1c
42
69
4f
b4
13
40
7a
75
72
bf
2b
10
7a
c8
e7
ec
22
e6
0b
f0
a6
dc
60
70
94
36
fa
85
42
9d
e8
6f
21
c7
40
25
ed
e5
d3
eb
81
b9
25
9f
a0
87
34
63
27
d9
65
de
69
40
4b
e7
d3
1c
27
eb
85
70
a7
ab
4a
b8
cb
c2
89
72
1f
51
54
16
66
dc
2e
50
a8
d8
d0
6c
6b
75
fa
e4
bf
59
34
8e
ba
a9
af
43
6d
21
78
82
e5
ca
92
1f
ca
4e
ef
6d
1e
7b
54
51
0b
8c
09
00
43
0a
d2
48
84
f9
2e
bf
59
46
68
68
15
a8
5d
c7
54
22
65
bd
88
4e
0a
ef
03
11
61
6c
7b
69
88
cb
14
e8
29
1b
52
80
df
94
38
09
47
12
1d
29
5c
82
fe
48
9e
3f
80
44
bf
65
1e
70
51
35
09
1f
51
61
e7
a8
fc
48
84
b1
3e
a6
f5
50
15
6a
41
35
27
fd
b4
fb
e0
95
ca
4e
0a
8d
95
13
27
28
db
69
06
83
75
48
38
bb
d7
e8
17
f4
99
5c
53
0b
fe
06
02
e9
be
30
fe
b1
d8
c2
f9
14
5f
8e
f0
af
6c
1a
62
9c
a3
64
00
35
a7
df
0d
b4
d5
65
f4
02
f8
59
0f
d1
d1
e2
95
5b
25
90
f1
33
3f
a9
56
66
c2
f1
11
ac
01
24
98
b2
57
9a
7b
ad
4f
fa
66
80
11
f7
df
62
52
3e
8c
5a
51
81
d3
4f
b3
09
6c
e4
88
c9
a5
e5
18
27
c4
47
88
73
c4
3f
53
01
00
2c
40
a3
c6
86
d0
cc
fb
a6
ab
46
ac
3e
02
96
07
89
20
30
f9
a5
55
c9
07
d8
bc
09
ad
09
30
a8
27
9b
5f
0b
59
12
7a
cd
98
37
d8
c0
e7
c4
3c
c0
44
15
0b
1c
39
61
9b
4a
3c
2b
a4
e1
ba
b7
4f
38
54
a9
45
e4
2f
a4
75
7d
ed
99
a9
ce
8a
ad
e4
56
17
aa
d7
49
12
86
95
48
39
7f
fb
c1
8d
b1
5d
ec
3f
80
38
35
0d
6a
7f
bc
1f
43
31
65
8a
6f
3f
28
38
c5
93
66
54
65
f4
76
e4
06
45
c4
6c
05
de
ac
6c
66
01
03
62
1f
dc
4a
26
a6
ed
4e
a1
2a
af
65
b7
e1
aa
3f
88
84
51
ca
89
c8
ee
49
d1
9d
e5
0d
db
95
6f
fe
22
cd
24
11
c7
65
f7
ac
4d
c8
ee
9a
db
52
e5
1b
f2
ea
e3
35
2b
b1
5f
0c
51
00
b4
ea
c7
7b
b7
44
78
fb
9f
46
85
7b
57
f1
19
c3
e8
a1
58
37
9b
9a
f4
4c
5b
f7
f8
26
eb
d2
8a
a3
28
eb
0f
76
15
29
fe
56
c9
c8
20
aa
40
db
b2
58
31
39
04
95
30
29
09
71
1c
b8
fe
6a
80
60
b4
6a
b3
5b
11
bc
0c
e0
a6
e8
29
b9
77
14
bb
6e
84
cc
e4
37
07
1a
11
01
5f
cd
21
42
66
57
b7
c3
4e
db
d1
fc
b7
2a
32
61
df
2a
ff
7c
0a
c1
30
a7
ef
55
1a
68
bc
ab
d3
4c
46
7d
75
20
30
2f
45
f0
4c
a8
5c
04
74
4e
56
19
e1
1f
9d
2a
36
cc
e1
3c
a3
a6
87
ef
53
44
e4
23
ba
93
c5
08
3c
a8
c6
48
42
92
14
fc
b4
b4
f1
a9
e2
7a
1c
d0
2e
69
5b
ba
a7
73
9b
76
78
eb
f8
c9
ce
5f
e4
01
5a
1e
89
48
54
77
fe
77
2e
1e
06
cb
90
1e
d9
43
27
9c
0a
25
8b
46
d8
67
13
68
cd
9f
da
53
c5
8d
76
86
3c
04
40
d0
4a
22
60
07
06
6c
89
bb
53
b7
45
d7
ae
4c
5d
ad
67
4d
a0
2c
05
d8
a1
9e
0b
d1
eb
9c
f1
bf
5b
99
88
39
9f
cb
fd
1a
1b
0b
45
ba
89
f3
f8
9a
30
fb
5b
d8
38
e1
ea
e1
21
ae
dd
6c
ba
08
a2
f0
f5
3c
89
ce
5d
a6
de
de
d2
dd
9c
32
9c
2c
dc
88
40
11
f1
91
e7
7b
58
8a
f6
f7
f1
16
03
30
3f
c4
05
2c
81
e0
c7
92
ff
f1
bc
d1
9d
c1
de
4d
35
93
81
59
70
9c
c1
37
44
1e
38
68
a2
0f
c5
2a
d8
1f
69
e8
bb
21
27
43
39
01
7b
82
77
cb
1a
1f
8e
a5
e1
6a
1e
61
50
55
89
0b
11
6c
1f
4a
de
6a
a4
c9
ac
ae
57
57
61
58
15
a0
07
a5
75
ab
64
a5
a8
0e
04
ac
e5
3a
a3
2b
95
7d
82
cb
37
2a
17
1f
5f
91
55
15
16
f4
e7
a0
51
a1
9f
4a
ec
72
8e
4a
d8
97
ed
52
bb
61
d8
43
d3
8d
48
5c
f4
83
19
3f
8b
78
4c
27
d4
26
6e
0e
0a
0d
a0
d3
59
cb
63
c4
63
21
ad
a0
15
2f
13
0c
c4
af
98
13
c5
ce
35
c8
fc
2e
40
d9
54
03
70
7d
bd
5e
90
05
50
33
c5
b4
57
4a
10
99
e2
8d
43
14
1c
91
ab
82
8b
2f
97
d5
3b
37
03
99
10
bf
cb
a3
ad
a4
5e
85
2a
81
fb
43
16
c0
7f
57
e4
1c
5e
17
f4
e4
7d
2c
1a
d9
df
62
b7
b1
ff
6b
74
7c
39
11
29
f7
2e
21
42
09
5f
53
a3
f5
9a
24
2e
b8
1b
59
ab
16
10
69
76
36
2e
e9
b7
42
22
80
ea
82
2c
9e
07
68
61
79
36
36
b5
10
dd
25
b0
c9
cf
2d
e4
fb
bf
7b
82
d6
bc
d3
c9
5c
8e
4f
90
36
e6
e7
4c
75
81
b5
e2
45
64
e0
2d
ac
55
bb
82
72
81
33
42
4e
3c
07
84
05
55
97
4f
c2
89
60
c1
64
f3
ef
5a
b4
ea
b7
e3
84
83
c5
4b
16
7f
d7
ec
54
f2
97
0f
9a
ad
1c
e8
70
cb
11
56
6f
99
49
49
5b
35
5f
9d
b8
b3
91
26
49
0c
10
ba
0d
40
37
b2
d2
d9
30
7e
d3
fa
23
56
65
74
77
16
69
0f
72
44
66
d2
86
56
34
4e
a1
f0
d4
bc
4d
27
3c
6d
e3
e8
c4
c1
6f
83
0e
15
8f
d8
c2
83
93
4d
36
bf
4a
19
c3
af
03
49
4b
4e
08
32
d0
99
7b
c1
b0
ce
4e
7b
8f
d6
d5
9b
b4
66
10
cb
20
87
5d
97
3c
f6
93
a9
ab
4b
48
db
c4
bd
3e
0f
88
28
23
5a
a1
d0
da
16
a3
f2
98
89
3f
55
4d
25
5f
bc
2c
50
1b
11
a7
4f
bc
ad
13
79
ce
48
4e
99
cd
c1
13
cd
a4
6c
44
08
bd
29
ab
62
fc
94
57
8b
e7
0d
ff
85
41
76
2b
a9
4d
b2
ef
49
56
f8
a7
56
b4
03
91
48
12
7f
da
76
3e
2e
d4
bd
f0
38
7c
e3
24
7b
f3
c2
fc
81
b3
16
5c
a5
cc
1f
f0
b2
84
36
4e
0c
22
be
04
d0
30
fb
5b
d3
99
ff
db
ba
af
be
cd
f1
a6
30
3b
8f
44
44
a4
d4
b6
de
12
04
a5
92
96
dc
c8
a6
6e
27
22
c9
c0
8d
2b
c3
a6
5e
b8
18
08
f4
0f
39
e3
8e
4b
28
c1
24
79
cd
f8
d5
09
be
1e
11
42
01
ec
6b
b2
a7
52
30
73
5c
3a
f0
2b
cd
67
9d
01
4c
6b
0a
40
54
4b
b3
f6
52
3e
96
87
74
d4
29
dc
6b
94
43
4d
8d
d0
c6
37
0a
4a
24
8f
5b
51
eb
17
67
96
3c
2f
4e
d2
64
03
5b
54
c9
a1
98
12
0b
43
43
35
bb
00
e5
e4
28
1b
9e
56
13
25
48
7a
8b
b1
7c
e9
28
0d
3a
09
aa
22
53
9b
8f
0c
f3
79
a8
b7
c4
d0
43
f4
07
ec
0d
19
7a
0b
9f
2a
fa
04
8f
f6
3e
6e
ef
e2
ca
e3
5e
62
72
ce
05
39
4d
23
e3
9d
49
f2
2d
ed
ad
b7
6f
76
0c
38
15
a6
c9
12
8e
d9
db
c8
7a
3b
7b
59
2a
cd
20
ef
bb
12
49
49
67
1d
59
f0
50
1d
3e
ab
ce
40
78
d9
ae
75
2a
dc
ab
7d
62
04
63
f7
91
7e
5e
ef
36
a0
13
21
c4
76
ff
6e
c6
9a
d0
83
e9
cd
b3
6d
34
45
8b
cc
41
54
98
ab
d0
3e
c0
f9
6c
3d
57
32
d0
0b
04
3d
8e
86
41
41
f3
84
a9
46
af
ae
d3
12
16
29
62
31
1b
8b
25
68
35
e1
fe
9a
6c
99
a8
9f
db
5d
3f
b9
2e
bb
2c
66
96
99
ab
04
7c
49
76
58
9b
d1
a1
3c
e1
98
ad
d8
3a
ba
b0
79
48
80
9e
0a
c5
bd
1b
c5
05
f9
a9
6e
95
c8
93
ec
01
c9
49
8a
d2
e2
93
93
11
cd
a4
cf
a8
a7
43
1a
9e
e3
4c
30
70
0c
89
7f
69
35
e1
85
7f
42
af
fd
8c
af
ef
2e
1a
30
b3
a2
c4
e1
88
b5
cf
c2
6a
d7
73
5b
aa
af
29
43
ab
44
68
1b
66
96
98
72
5f
7d
76
12
82
c5
fa
f1
a8
ee
e5
b5
79
f1
64
44
a9
f4
b1
1f
8a
73
2d
47
0d
2a
d9
5e
f2
4f
41
32
05
00
7d
d5
62
49
00
1c
1b
b8
e9
9a
0e
5a
b8
e8
30
11
3a
b9
70
04
13
be
c0
a0
97
ac
20
2f
7d
89
c9
fa
3e
b5
81
55
c4
31
ff
69
37
85
16
6c
b0
72
43
e7
d7
62
07
8b
95
1b
d3
08
5e
38
a9
5a
9a
9a
34
16
3f
46
5a
f0
3b
d9
ef
88
33
20
9e
89
95
7d
ee
dd
cc
cb
9a
11
79
4e
19
3f
9d
b3
2c
b3
76
c7
b0
8b
37
a5
99
6a
f3
ef
66
bd
2f
99
34
8c
c5
82
c6
bd
5f
88
b9
11
51
03
8e
7e
21
e1
b1
4a
79
32
0e
6e
da
80
4c
91
27
ec
76
16
ab
a1
6b
7c
a7
75
b3
bf
a1
88
f0
ca
15
72
7d
fa
4f
3a
b6
ea
98
6b
b7
da
52
73
3e
c9
b5
b6
7d
48
a4
e4
1a
30
98
32
41
c5
f7
6e
3e
b1
a5
d2
6b
29
7e
37
27
c9
93
15
48
64
a2
ec
34
e1
59
11
9b
05
19
e1
52
c8
88
6b
e4
c9
ae
b7
37
14
9c
2d
45
a0
6e
8c
05
7d
e9
0d
a9
ee
8c
8f
f5
52
a2
a9
f7
5c
2f
8d
a4
da
1b
77
7b
c9
05
d7
0d
8a
7f
11
97
60
53
7c
ba
76
d6
8a
55
36
39
ee
f2
c9
2f
d6
8f
58
73
24
db
d9
80
b9
9f
d9
4c
ba
d0
90
c3
c3
0c
f5
ec
86
b8
e4
63
6d
05
a3
3f
a1
85
5a
d2
27
e6
a9
15
8b
d5
0f
05
ea
fa
03
b6
29
ea
13
73
5f
ee
4d
70
84
cc
85
f1
b9
2f
e9
10
21
79
d6
21
2e
b4
b2
bb
11
a3
e6
4f
c4
fc
8f
91
d0
21
79
21
f3
f5
da
d9
29
d6
30
80
7b
1e
b4
56
5f
2e
cc
6c
d3
af
d8
63
6c
da
31
cb
9c
09
95
b3
26
45
5f
1a
e4
f4
f4
86
fc
58
b7
65
e2
2f
1d
4c
19
f1
9f
ae
66
f4
f0
ae
b7
7d
35
a3
94
5f
6e
51
44
ac
f9
da
06
aa
5b
a0
48
eb
06
9e
62
73
b0
f3
72
2a
8d
58
57
a8
8e
fe
fe
72
97
ca
c4
8c
7a
f2
28
57
7b
27
ab
11
21
c5
32
3b
be
08
ca
14
55
bb
ff
9f
6d
04
25
8b
e9
03
69
1c
d2
c9
4f
c0
b3
2e
6f
48
11
88
05
cc
3c
02
04
45
1a
7b
84
a8
2f
f6
a8
87
56
26
8d
78
65
0b
bb
95
08
17
d9
f4
a9
61
10
23
5a
f1
51
df
48
42
70
a8
58
9b
02
58
76
7b
46
52
f4
1d
7b
7e
18
23
00
9a
09
b6
39
86
dd
be
37
4f
d2
3f
6a
7d
34
df
33
3c
03
b5
c9
d1
b2
8d
e1
f5
3a
41
af
54
b5
01
99
35
08
41
13
71
96
4f
20
12
fc
27
72
79
50
e7
da
ed
4d
ba
1a
54
eb
8a
36
59
84
81
6f
f8
12
13
4d
76
6e
96
06
d4
fe
7c
f4
53
c4
58
06
40
ba
86
86
d0
58
6a
94
08
86
c4
36
97
36
43
9f
60
38
bc
21
70
20
1c
d3
d5
6d
7f
dd
44
eb
f6
b0
fb
a9
da
12
9a
9d
ac
85
25
11
8d
6a
e3
6d
5c
17
09
69
48
6d
5a
03
5d
e9
2a
39
73
55
cc
25
ca
0b
03
94
ba
59
78
94
e2
94
02
c5
2d
aa
88
36
d2
0b
8a
9f
da
10
bd
ee
36
4c
aa
8a
00
d9
ce
c7
34
fd
b1
a5
ee
24
8f
c1
b1
8c
27
b5
9c
0a
a1
d5
54
0e
2b
b7
0d
5d
8a
83
47
c0
49
6f
d7
59
43
b3
1a
b3
2f
0c
f2
09
7a
d0
cf
16
32
c5
dc
5e
0a
b4
42
18
a9
94
ef
32
a9
50
e7
45
87
05
60
77
53
a0
d2
4e
25
b1
29
b7
64
8d
4f
8b
aa
7d
85
2f
66
66
0e
89
a3
ee
dc
5d
40
d1
f9
c3
68
02
5e
55
6a
1d
e1
69
87
0f
68
59
6f
5e
5f
b4
a8
2d
b2
c8
09
e4
fa
78
23
d3
8b
dd
ea
7f
67
84
e6
eb
8c
97
99
6e
81
ec
c6
06
15
ae
6f
bd
5c
ed
a8
46
a5
ed
2f
61
ec
80
c3
e6
c7
f6
f1
51
91
07
4f
15
58
b8
4c
f5
fb
4b
f3
4d
cc
51
67
cb
ac
e9
20
09
92
aa
3f
cb
be
e4
06
cf
01
7f
45
2c
c9
a0
40
3a
e3
99
45
f7
d0
e4
a4
de
c5
5c
8a
36
25
64
b7
3e
1a
19
e1
96
ef
ae
f6
f8
f6
b7
50
b5
a3
95
5b
16
47
51
a8
ae
53
97
fb
db
d0
62
eb
c0
1a
72
77
70
f7
5a
fe
a4
9d
30
a8
96
60
60
7a
95
af
44
a8
5b
6a
7a
94
7b
1f
53
c5
fa
8a
52
88
59
12
96
50
a2
73
50
70
81
05
de
1e
3f
61
a9
1e
1c
3c
e8
d4
40
36
ad
d6
82
75
9a
3e
a8
85
d8
30
bd
77
89
c9
e6
ae
c0
85
25
45
02
d5
3b
5e
85
a4
ca
72
46
b7
4e
c7
e2
8e
f3
26
11
71
a1
fe
52
9f
dc
bd
97
35
91
f5
6a
82
fd
14
1b
1b
8e
45
44
5a
3b
dd
dc
ca
69
72
7b
47
b7
10
ba
03
9c
a3
85
79
bd
f3
94
a0
45
2c
ac
a7
36
82
89
bb
31
5f
83
3d
49
bc
d7
fe
82
4c
db
24
eb
2e
ba
15
b1
da
52
6b
7e
00
9f
40
83
f3
54
32
a9
36
d4
1b
8c
22
5d
1c
37
f0
2b
90
18
3c
ed
d6
80
72
2f
10
a6
b4
84
10
c6
75
a4
eb
ce
ad
a8
c5
17
17
0c
14
29
1b
01
a5
4b
76
5a
be
2b
8c
59
a3
41
8c
f2
d1
38
be
5e
ad
4a
18
38
b0
9b
e6
d2
10
73
9c
9b
f0
0a
89
23
95
0b
cb
6a
08
60
fc
fa
1b
c6
40
9c
85
a5
86
c4
29
75
75
95
b9
4e
9d
dc
d1
17
89
0a
31
4d
7f
41
ad
5a
66
17
55
8a
4e
43
47
f8
e5
a8
53
e5
9d
62
72
be
be
4f
a0
75
98
bf
b9
6c
7e
00
93
e8
1d
45
14
63
94
33
cf
5b
e8
2f
db
b4
20
d7
45
25
ee
16
7c
4a
7b
46
a9
2f
a5
b8
87
b6
b3
e9
22
b7
8b
88
71
48
05
d8
fc
29
e5
11
f3
71
a8
e2
06
98
f5
0b
41
ce
0b
6e
28
0d
a7
ee
25
52
cc
ad
c0
43
ff
7b
14
1a
fb
c7
7e
2c
59
4b
28
c4
eb
5c
d3
df
db
fd
67
5d
26
c6
58
99
86
44
bf
f7
a9
58
b1
8f
a6
d0
e3
96
a2
9d
51
64
66
d0
80
6c
93
af
d2
87
91
aa
6f
26
40
69
78
46
ed
c9
76
63
ee
a1
c0
6a
46
d4
b1
50
b9
3e
c9
1f
c9
89
90
6c
fb
cb
d3
7f
96
8f
c3
c2
a5
ed
65
10
13
a3
1f
cb
5a
68
82
a7
35
1b
25
29
32
e2
c6
38
42
90
d4
73
8f
f9
cf
81
62
99
a8
cb
5b
d8
a9
34
3d
d4
be
e2
9e
7b
e2
95
cc
22
9c
01
5f
fb
3d
1c
5c
cb
6a
26
72
5b
17
44
f1
59
6c
3f
37
c5
51
60
0f
a0
09
0b
6b
ee
ce
8f
07
98
4c
37
e5
24
48
66
c2
11
d3
89
1c
ec
57
21
9a
8e
7d
f9
44
66
ff
9c
e1
e2
62
43
84
b9
41
e9
0c
5e
50
c0
7b
9a
2a
69
56
53
3d
51
9f
ca
97
d7
99
6b
49
a3
37
c4
48
55
12
eb
59
6a
5a
48
88
c7
13
d2
cd
6f
17
2e
4a
b6
82
f0
3a
75
4a
ce
28
b1
cd
af
40
8d
69
4f
a3
e5
c4
db
5d
77
0c
95
e1
ce
04
7d
54
fa
7a
ce
c8
20
76
59
26
1d
04
5c
03
1b
52
78
57
1e
14
b6
ed
55
d2
ce
96
b4
22
dc
9d
43
c3
d2
4f
b2
2f
d5
14
68
11
16
60
da
d5
31
e7
5c
b2
d8
88
6a
9a
24
45
b2
4a
70
ba
84
2f
7b
5e
1b
72
8b
df
05
2f
5b
97
f4
f4
a6
d3
c2
5e
06
30
b1
07
84
38
e1
26
85
0b
f6
a9
65
51
a5
85
33
54
b7
d8
91
96
a3
4c
32
39
cf
19
e8
71
ea
1b
e2
d4
8f
97
4d
c0
76
02
6f
f9
12
c5
d4
7f
21
ea
d2
d2
4f
46
e3
f5
9c
31
b3
2b
15
4a
28
90
a0
c3
36
86
80
e4
e2
8f
45
6e
44
4f
70
cb
a5
ad
0b
df
0c
f4
06
f4
04
c1
cf
21
6a
40
6a
da
43
cb
0e
5a
14
ee
5f
02
d9
b6
35
d7
21
cb
c2
58
1d
6c
9e
e3
fe
e4
1e
7e
dc
eb
65
23
13
7b
53
64
10
d4
f8
e7
c2
37
48
41
73
9e
62
a1
6b
15
b0
53
e3
2d
a9
5c
67
c3
d8
74
fe
9c
af
e8
2a
db
1e
9a
27
75
23
1a
74
61
03
ed
27
42
a5
45
41
27
f9
f5
e8
21
05
86
90
05
8d
4c
7c
e4
b1
7a
8a
e8
19
96
13
0e
bb
83
bb
67
0e
78
4b
39
85
fc
e0
42
75
18
cf
4f
58
ce
08
03
83
da
de
8e
ed
76
48
af
52
88
f7
46
ad
06
38
3b
f1
fe
0e
56
be
a8
58
d1
59
99
4b
b7
fd
70
95
3b
ec
05
e4
60
ab
d2
06
cb
e2
40
06
57
37
08
03
07
0d
7a
85
e2
42
e3
36
a2
45
e5
be
c2
97
32
d2
23
b9
4d
9a
71
f2
17
c5
ba
19
3d
9b
78
9d
1f
51
39
77
6e
1c
0a
10
13
11
03
21
50
50
68
8b
03
d7
37
18
20
89
4a
bf
24
a9
32
2a
a2
28
b6
00
14
be
0c
90
d9
7f
b8
44
71
19
6d
f5
e8
4d
c4
05
66
12
8d
2b
d8
8a
1d
d2
b8
6e
bf
eb
99
e3
ba
28
07
03
7f
20
5a
3a
b7
59
d8
3b
42
6e
e7
cc
0e
75
08
11
09
30
09
c0
07
28
dc
ab
a4
99
a8
b7
71
42
44
4d
51
a4
0f
c5
c5
3b
25
a9
8f
4f
02
8d
c7
0b
a3
ad
57
69
92
df
e5
68
72
3b
53
86
cf
af
bf
41
62
53
99
58
7e
d0
d0
c9
13
83
01
f9
30
68
10
9e
11
3e
3d
13
b1
21
0e
3b
1e
e8
b4
e3
b7
ff
2f
d3
19
b8
b0
b8
b5
08
74
39
58
93
da
ce
5e
dd
d0
74
21
b2
59
5e
eb
c5
3a
70
02
1d
3b
a5
79
7a
cb
5e
24
a8
f6
87
33
f9
e7
20
f6
68
0c
fe
0b
1d
d7
e8
f1
25
cc
ec
1e
9c
f4
e7
86
96
f9
df
cd
bd
6d
37
ec
01
61
63
84
86
d7
c2
1a
bf
a4
8b
d3
04
72
86
5a
f7
62
d5
0e
aa
e0
0d
cd
8b
dc
19
3b
0d
57
8f
77
11
3b
43
9b
d2
ca
7a
f4
34
55
43
5c
8d
f3
89
79
86
17
f9
b1
b6
aa
a3
c3
35
4f
d3
ad
06
d5
70
42
8b
21
9c
1e
05
40
a0
f3
c3
a3
e4
6d
2d
cb
96
55
b3
66
f8
7d
a5
b4
ca
38
63
ac
99
7d
69
58
8e
21
84
fa
57
89
cb
d6
34
89
e5
d5
e2
c1
b5
e9
8d
ea
24
90
6f
64
de
e9
76
e4
36
0b
f6
4b
34
97
ad
ed
03
e3
fb
3e
a3
eb
46
a4
4a
25
30
f0
f7
14
c0
5e
41
c6
fa
14
ac
c3
e5
ba
eb
fa
58
b3
a9
54
ab
9e
ec
51
a1
8f
26
75
f6
df
49
c1
a5
85
df
3a
6d
d8
03
99
cc
54
1c
c5
a3
58
cf
8a
09
56
73
c7
35
ea
09
02
0d
22
d4
5a
5e
67
d4
20
85
8d
e8
07
07
0a
e9
a6
a7
4e
18
e7
c7
37
4c
ae
3a
08
99
36
61
b7
96
21
a0
dc
36
7e
fd
c0
17
85
c1
f5
68
62
4b
04
90
18
ac
61
58
6a
bb
79
db
e0
10
7e
af
2f
91
5c
2d
25
04
39
4c
71
0c
55
a4
c9
fe
ae
ec
89
10
c2
00
1b
33
1a
92
8f
6c
36
7d
6d
82
05
e5
75
85
9e
35
fe
cb
34
68
34
35
f7
cb
c7
ba
5c
10
fa
96
7f
5f
ec
5b
7c
28
e3
a5
05
b4
3f
c0
57
02
e7
a2
af
91
0f
c5
78
53
bc
f0
82
5b
36
65
89
d2
48
2f
46
3b
40
92
bc
5a
5c
d7
ad
05
eb
1a
00
23
ac
81
9b
5f
cd
a7
38
de
a8
5b
43
b9
e7
08
6d
c8
66
db
02
d5
29
00
69
9e
97
e9
ba
98
30
2d
15
99
05
7b
99
59
9b
01
27
f8
e9
f7
15
71
75
d5
0b
5d
13
19
44
02
9b
61
16
db
0f
76
f0
e6
d7
3e
46
e7
75
94
92
a1
13
a0
4e
a0
2e
b1
5f
4d
a1
7c
7d
6e
9a
44
6f
c3
e3
fa
76
2c
f1
83
f9
98
5f
0c
56
d3
44
36
b6
61
33
0c
a9
7b
fc
0a
be
f5
21
30
93
8a
5f
2b
7a
ef
ee
8b
84
db
6c
25
7d
ae
6a
42
60
81
ab
14
42
47
44
b6
d1
d6
dd
6a
40
62
d8
8a
63
c1
45
df
20
a1
49
6a
6b
df
6e
4a
a2
1c
c7
e6
3d
f0
15
5f
15
ac
f0
bb
17
ee
e1
6c
b0
99
cd
da
80
56
70
c8
9c
24
d5
45
54
a7
a1
0c
fa
b3
41
8c
77
de
54
ea
fd
ab
15
c3
9f
6d
b0
37
74
65
d5
12
ce
1f
f7
eb
75
2c
d8
f8
f6
0e
cf
1d
11
37
92
3f
47
4b
dc
e6
be
06
aa
55
46
80
4a
c0
d3
40
43
81
7f
32
89
86
5e
cb
61
86
3e
18
d3
2c
36
c8
70
64
ea
19
54
fa
b5
a1
71
69
db
7a
b8
72
04
07
3d
9b
6e
57
fb
25
e4
eb
ce
fb
40
6f
9b
01
11
bb
0a
3f
5e
3b
d8
20
8a
4e
22
9d
90
06
69
82
b3
c8
60
a5
87
f5
99
02
43
09
dc
b3
ba
11
f5
4d
3c
00
fc
26
c0
e9
f5
e5
5c
f8
d3
b8
66
0d
50
80
bb
c4
63
6e
9a
12
99
b2
4e
5b
ea
21
06
03
55
14
2e
40
15
5a
c5
7e
e2
06
aa
36
6a
d0
f0
79
96
53
0e
07
57
03
ed
44
58
e3
a1
de
31
1e
eb
18
69
93
c5
9c
0b
6f
4b
9b
e5
d3
cc
f8
d7
dc
b0
dc
25
22
95
ea
de
8a
08
91
f1
93
de
3e
6c
2f
ff
50
b5
11
d3
40
1f
55
91
3a
33
b6
4b
90
be
55
a4
d0
a1
49
df
1c
74
e1
05
cf
70
98
89
3e
25
d8
7d
79
aa
37
d5
e7
11
3b
6e
49
58
72
28
4d
0c
7e
c9
d3
d9
b5
49
77
5d
21
06
b1
29
86
84
2e
1e
b6
48
0f
ae
d0
4c
bd
b1
39
37
a9
a4
d1
8a
be
72
da
95
8a
50
a6
37
a7
4b
b4
32
35
dd
60
48
00
69
66
3e
f7
9b
ed
ba
3a
49
c0
83
f4
1e
3e
12
59
3a
c6
5c
2c
76
f6
df
db
a1
75
99
ed
7e
c9
3f
d5
07
fc
3c
a0
aa
f7
08
b1
33
0b
8e
99
d8
2c
c8
43
17
04
69
73
3e
f2
b8
49
25
fe
6a
aa
ab
d8
f4
c1
4e
e0
23
ae
46
6f
89
e8
e2
5b
9b
25
d5
e5
d8
ef
ca
a5
a0
8c
1d
c6
02
ed
78
aa
27
f8
08
72
e6
fb
fc
47
ca
5d
75
56
7b
9a
21
e8
5c
e2
be
c6
f7
0c
de
fb
50
f8
99
75
8d
bc
c9
39
81
45
7f
25
8d
4a
95
06
94
53
e7
b6
76
17
55
6e
80
c2
46
df
da
bc
e0
dc
35
c9
8a
36
fd
c4
37
b9
98
37
e1
87
37
82
e6
d3
de
af
48
97
23
54
6f
fe
47
5c
3d
af
db
f5
fa
5b
80
38
88
dd
1b
76
37
f0
7e
32
ba
ff
de
91
0c
96
ef
71
4a
c5
ff
c0
a8
59
e1
0b
26
fb
24
27
12
a9
e5
76
fb
ee
a8
6e
14
c1
eb
ef
8e
6d
a4
85
08
ec
0f
7c
da
63
f1
0e
c8
f1
5e
b7
49
5d
80
2c
68
3f
1e
86
43
40
7b
a6
aa
8f
34
36
b6
72
36
1d
40
77
1f
e1
37
4c
7f
d1
be
a9
65
5d
16
f8
a7
d2
01
a1
1c
72
2d
f9
0e
cb
a8
75
bd
ef
be
68
b8
21
83
ec
5d
60
14
5a
b9
3e
ec
95
4e
0f
d6
00
e0
6f
82
2b
62
5a
ed
8a
37
a6
a9
4d
bb
a8
0f
67
b6
eb
da
eb
89
97
85
6a
2d
90
cd
ea
84
1d
ba
e5
0b
56
09
b5
ee
96
9d
48
23
37
50
b3
b6
e0
6c
97
1a
91
31
0e
6d
59
57
3a
6c
eb
20
20
a0
e4
f7
ca
5d
2c
04
b2
01
fc
b9
75
75
b4
dd
6e
0d
e4
c0
6c
c7
00
9f
03
de
83
a7
63
7e
7c
17
6a
17
d6
a4
8d
9b
78
dc
a7
ba
ad
06
02
b0
e8
eb
1a
dc
88
f8
33
fe
12
f1
0d
c0
d4
b5
99
b3
a3
0d
04
d8
08
73
8e
e7
d5
97
c5
fc
f1
ab
c4
8d
5c
36
71
99
d4
6c
8d
fe
72
05
88
55
5a
cc
f7
a8
a6
07
9a
8a
02
a7
8d
d4
f8
57
80
76
2e
ad
ca
b1
08
e2
46
63
6a
9a
73
5f
11
e0
09
bf
c0
90
89
9f
4e
16
c9
f8
73
1b
17
51
48
15
35
bb
c7
29
f9
4f
14
b2
4b
1d
48
d0
0f
bb
af
43
c5
c5
c9
ac
1a
95
8f
36
bb
6c
19
69
52
d9
41
a4
d6
19
ad
20
56
76
e5
2b
24
5e
15
7e
20
fb
fa
d6
76
de
24
af
04
21
b5
37
1a
45
09
d9
c4
e3
c7
77
c4
ed
79
2c
a5
a0
4a
5f
b0
ff
29
ad
c9
fd
2f
2c
ae
a1
3c
d2
ef
20
21
40
e2
12
20
0a
6b
b6
77
71
a1
cc
12
aa
f3
c8
95
75
ac
ad
62
e2
45
84
bb
03
c9
6c
5a
18
08
5c
d9
ca
29
76
5e
43
33
02
8f
03
9c
b0
40
69
05
f2
b4
52
c4
3f
45
8b
32
d2
08
8d
17
1f
8b
ab
45
3e
4e
db
86
06
51
ba
a9
25
53
3d
29
3a
a3
77
c8
0e
9f
48
c6
e3
ec
0e
62
51
55
8b
37
51
e9
c2
48
fa
ac
a4
e9
2a
a6
51
54
00
69
55
30
0f
bd
75
3a
60
bd
a8
4f
0e
8d
31
03
22
aa
73
49
02
87
b5
28
19
99
53
c9
15
f5
29
f4
6d
f2
58
4f
92
58
81
42
32
ac
40
aa
3a
54
45
a8
51
4f
de
33
ab
8d
1e
04
96
67
d6
b6
fc
e5
02
86
68
14
68
b3
97
94
88
59
41
95
ee
9a
e5
75
f6
e5
8d
9f
70
0d
fb
11
93
2a
fe
fb
14
ed
77
da
45
a5
e4
e8
f7
d8
31
a7
15
87
b5
e4
ce
dd
98
bb
95
76
74
24
60
e1
8f
64
b0
cd
87
67
4f
6f
d9
5e
61
7f
e2
c0
d1
53
4e
c1
eb
5b
8a
66
36
01
d5
76
7e
b2
b8
ff
34
d4
47
78
c8
b4
d5
84
48
7d
6c
1d
44
e3
7d
f1
9f
cf
9a
4d
50
77
85
15
57
33
d0
13
f1
8d
64
de
9c
dd
ad
9d
1e
9e
6d
a5
0a
0f
27
0f
00
34
8a
a3
68
90
ca
86
a8
55
eb
07
53
d5
fe
55
80
96
54
00
28
24
7f
2c
91
cb
17
42
b0
45
d4
7a
a9
85
49
4e
9e
92
b3
b5
07
c3
b5
b8
2e
4c
32
a8
44
12
bb
34
70
26
b7
a2
21
dc
b7
66
45
6f
99
4c
7b
ee
69
d0
dd
73
51
61
a7
78
48
31
b7
5a
55
dd
64
98
ed
3e
75
4d
81
ed
28
12
d1
1d
03
fd
7e
0b
5f
0c
31
03
aa
c6
43
e1
27
99
ff
d3
99
65
59
2d
4e
ac
7b
81
13
f4
10
3a
e2
e3
20
04
f5
97
ab
9c
6c
09
a4
63
61
ec
4d
3b
d6
22
9c
6b
a5
74
62
2b
0b
28
f0
e1
6e
f1
ac
ae
14
48
89
c0
8f
11
b1
ad
74
c4
46
a4
f6
77
e3
cf
dc
b5
7c
4f
f7
e3
86
39
b9
3f
e0
07
bc
c3
4c
dd
70
e6
4a
c6
c9
ee
47
3c
c7
f9
24
2c
6a
da
22
aa
d7
54
83
ba
27
15
d8
5e
a8
f4
09
51
e8
d2
3c
64
73
d5
3b
55
ac
d9
21
87
4d
1b
7d
11
bb
77
8a
65
42
d6
9f
07
51
01
d0
0c
78
89
53
7e
16
3e
b8
b5
2a
f6
27
84
35
6a
a1
0c
05
ed
5c
97
ec
84
e9
0e
80
44
ec
9a
6f
fc
fd
9c
87
9d
cd
81
3f
7e
f8
2c
12
c1
c8
50
ed
5f
99
66
fe
bd
58
be
23
f7
ed
a9
46
99
3d
9c
ae
7d
96
ab
ad
73
6a
20
a3
e7
04
d7
00
b7
c9
c2
69
a2
c9
05
2b
cd
a1
41
df
4b
38
31
e7
5e
41
77
3e
0d
f6
5e
38
e5
a8
d8
28
ee
e7
7c
eb
73
a7
cd
f8
7b
f1
0f
45
b8
3f
9a
7f
d1
df
69
7e
96
1e
1a
21
15
99
7e
ae
ad
9f
56
93
ac
b5
22
36
3b
59
98
b4
9b
e6
1f
fe
24
ca
47
0e
44
f0
56
18
82
52
cc
a8
a5
2f
a8
09
1f
e3
ab
56
b9
af
9a
54
8b
09
c2
fd
53
88
13
a0
84
86
b4
f0
e7
90
fe
fc
26
90
a0
d5
cb
f1
e9
76
53
fc
b4
09
08
45
5c
c5
e9
da
b6
0d
75
ae
07
33
7a
73
bd
82
42
16
d0
09
10
26
e8
06
24
11
f1
f0
1a
06
22
80
d3
55
0d
e7
1a
ba
e7
15
b6
4e
96
a8
eb
c8
ee
c4
bf
91
9d
c9
26
40
ac
4c
82
ee
d1
61
53
c0
b0
d0
29
6f
f6
0c
d0
b9
bb
21
25
39
e9
b8
c5
5b
dc
de
b3
95
ec
a9
89
ad
a0
4f
9a
0e
d6
13
55
9d
04
d4
0c
75
65
e7
2c
22
3a
51
ea
97
da
92
39
51
61
0c
a9
2d
a3
65
e3
ab
d8
af
3c
27
af
76
76
9e
ef
e3
d0
0d
4a
ea
c8
7b
90
6a
72
5f
52
68
d3
aa
6b
53
56
49
71
77
2f
1a
ea
50
1d
72
ab
bf
fb
38
ea
88
8f
a9
cd
69
fc
67
04
50
96
90
2c
50
ac
e9
fa
04
5f
45
ab
2f
32
6e
ee
e9
3c
8e
bd
bf
60
ed
21
d2
af
d6
c6
bd
54
b1
33
6d
1e
4c
61
dc
ac
e2
67
c2
59
64
51
6f
c2
22
64
2d
09
f8
1a
27
e3
ba
e9
2a
86
a8
38
e1
2f
2d
80
d4
7e
a2
93
5c
73
79
41
09
df
cd
05
d2
56
47
76
47
01
0c
87
79
85
20
de
1c
f7
a8
97
0e
16
3d
e5
38
2f
67
41
91
a4
0b
97
aa
80
dd
be
28
11
67
47
5f
d5
fe
33
9d
f5
15
00
a8
ac
b9
24
5b
c9
22
6a
37
e6
56
70
b1
1c
2b
1f
a2
06
25
65
77
14
5f
7b
c8
41
12
9d
4d
aa
eb
a5
be
86
32
f4
e5
76
bc
03
95
de
ad
a6
be
4e
fd
51
6d
69
6c
7e
b2
7e
04
7f
af
ba
7c
2d
64
49
a6
f4
03
69
ec
3d
56
e3
89
e2
9f
db
87
93
17
3a
a5
a2
13
40
1f
32
fb
fa
0a
fe
a0
35
7d
46
9f
64
ad
c9
c3
78
54
0c
92
42
98
bb
97
1d
2c
e3
58
94
0a
5a
55
17
99
07
44
ab
bf
85
c8
2c
b3
f8
9b
ea
b3
c9
4f
f7
4b
99
d5
8e
0c
b2
28
a4
25
42
20
b0
bf
13
6b
00
5e
6c
f2
58
40
17
cb
e1
e1
c8
15
83
55
df
09
1d
79
89
6e
4a
4c
28
b4
f9
b4
e7
c7
10
10
0b
40
bc
04
14
81
f6
60
b5
e9
ae
aa
2d
b5
42
82
a3
d5
e5
8a
96
01
42
1c
17
fb
a9
cd
55
a1
05
c3
f6
cc
27
98
9e
1d
03
c5
a8
fe
9a
a5
e9
00
5b
f2
10
40
03
cb
d6
ed
88
fb
e8
09
4d
18
c8
33
6a
d1
b8
96
c3
bd
f9
a9
79
0d
b8
77
69
09
c5
54
88
dd
36
95
80
55
47
ab
36
e2
2f
11
9a
8e
a5
2a
0b
76
5d
7f
a1
fe
50
23
6b
c1
9a
c5
92
79
c8
66
d9
15
90
15
3c
a1
a8
0a
2b
de
d9
b2
41
92
4e
e7
13
59
a8
9d
24
2f
e5
28
27
fb
95
b2
ae
0e
c9
c5
1a
04
1a
8b
31
5b
cf
3c
7a
32
de
bf
93
ce
31
bb
76
e1
c6
02
7e
f5
00
d9
dc
6a
76
d9
ae
a6
f5
4d
26
80
a9
c8
c2
3b
9f
6d
50
eb
5e
c5
2e
f8
f4
69
c1
3c
54
f0
3b
05
bc
c1
99
3c
b0
df
5a
96
56
3a
e5
ad
0c
cd
4d
04
d3
e0
88
4a
a2
01
ed
63
de
44
fe
6c
b8
d1
e5
1b
2a
26
b0
be
cd
30
d5
9c
32
bb
2b
7e
07
93
ef
5c
64
71
a7
51
46
0b
4c
d6
46
cb
30
ea
0b
02
15
60
51
5d
5f
67
44
23
25
a9
38
81
b7
22
ca
ae
ba
4c
28
40
db
35
c8
ae
3a
08
99
11
18
24
51
f4
cc
63
70
ab
ba
be
57
3c
fc
0b
17
d2
a0
fd
6b
de
94
3f
13
a2
64
84
16
df
fe
7f
e6
4d
0b
74
03
79
7c
aa
33
d4
ce
a2
cb
04
93
f1
28
bf
ef
fa
ee
66
f7
2b
2a
10
8f
49
92
ee
25
7c
ac
05
4f
9d
79
de
de
90
4c
04
36
46
e8
46
02
58
d8
da
99
f6
52
18
a9
ff
ac
8d
9d
b1
71
5b
0f
85
68
90
90
cb
f3
be
3c
fc
f5
2b
d1
6c
50
3f
fb
5f
53
60
bb
75
46
a1
8c
7e
3d
c2
b7
e6
2e
b2
7b
ee
18
6e
bb
7e
18
7d
3f
cb
72
0e
b5
f5
75
df
c0
98
80
35
80
30
94
1d
9d
39
cd
16
bd
54
d5
a5
32
bb
68
c6
3e
15
bf
88
20
36
82
89
6c
cb
04
aa
e7
6d
7e
c4
b4
06
33
66
70
9f
24
9f
4b
38
fc
be
49
91
7f
7f
02
67
51
fc
7e
62
70
92
d1
9f
83
46
74
1a
12
52
8c
53
4e
be
bc
a3
23
1a
a6
85
51
f7
d3
23
b1
c6
ab
5d
c3
68
74
4f
6e
16
20
da
49
d7
f3
6e
28
e6
bc
c6
bf
73
f0
63
ac
38
e0
cc
5b
bf
97
fd
2f
ea
83
1b
59
3d
ed
28
bd
4a
04
75
39
c7
18
dc
8b
f4
cf
4f
d6
0f
af
ec
a0
99
3b
3f
e9
3b
01
03
0a
b6
38
93
d9
8b
01
68
ea
a8
c6
cf
57
36
e5
28
3d
4c
18
56
52
ab
ab
d3
ac
0d
f6
ed
66
2b
92
8a
23
75
8d
cc
f8
f5
c0
36
3c
14
2e
39
8e
66
5e
58
13
ba
57
7e
52
e6
65
ff
24
90
a5
91
e6
4b
ce
c0
5a
b3
b7
4b
75
09
55
e8
51
a6
5f
0b
56
36
e3
cd
82
e0
9e
ba
fe
22
98
2d
b8
b8
95
85
c7
7c
3b
04
0b
5e
e5
c8
8e
0a
b7
ad
a7
77
07
61
ac
ae
2d
8c
a9
e9
56
28
a0
21
e7
cd
d5
65
7e
ef
c4
79
24
5f
58
28
cd
20
75
db
1b
62
79
c7
da
48
72
3e
1e
56
5e
2a
c7
aa
d0
89
4c
eb
64
ab
71
eb
d4
88
59
72
1f
d0
be
a2
03
e2
24
5e
ea
ff
38
cc
37
f0
d3
75
45
cc
4e
a5
e9
cb
7c
70
1e
f7
e2
70
3f
8b
f8
69
b6
dd
89
fd
4d
71
fb
0d
73
dd
66
34
e9
81
bc
b1
a7
1b
ac
50
27
de
f3
10
98
a5
cc
38
33
c3
9a
1b
a0
ed
e5
5a
1e
24
34
2a
7f
47
81
35
a3
52
eb
99
b8
65
d8
0a
95
3c
a6
20
d1
73
be
ce
44
41
82
99
3d
b6
af
d9
31
cc
a1
77
fc
96
54
58
74
af
db
c8
00
e0
1d
e4
12
93
62
df
f7
1a
33
ca
ef
97
59
ee
97
89
44
59
76
4e
dc
73
cd
85
22
44
20
da
8a
4a
97
45
9a
e3
3e
5c
26
ef
d6
6c
54
a1
33
0d
da
4d
24
b0
ee
ef
92
f2
e1
f6
ea
8f
42
0c
78
5f
b0
c1
55
f4
8b
dd
77
f0
4e
70
ff
43
b7
ca
8a
51
5e
9a
a6
c2
32
f6
7c
04
3d
0a
a3
22
bd
6c
ce
a9
41
8c
ff
2b
60
ec
a4
c3
c6
4c
7e
9d
d4
c9
8b
e9
57
4a
19
cc
be
a0
4f
93
49
62
49
67
92
3f
b4
69
6d
76
be
7b
a4
3c
4a
ae
ef
0e
34
83
ee
e6
90
e0
7a
80
19
c9
f2
f9
c1
c0
dc
cb
2d
50
56
6b
e6
2d
b0
1e
07
78
81
a2
7a
d7
53
e5
37
4b
96
b3
d3
2e
52
65
85
99
e0
a3
de
b7
02
c9
3b
28
35
b6
c3
57
30
ff
21
99
65
b1
c8
3a
24
af
34
d2
ac
a2
22
01
66
52
20
bb
5a
f1
47
4c
78
e7
95
89
5d
02
b2
89
e6
6e
5c
5c
96
a1
69
73
12
b3
29
07
d8
37
fb
f4
b7
a2
e4
ac
ca
1d
76
f0
ba
85
2a
34
39
50
a9
de
fa
87
a7
b3
e4
e9
04
21
e4
f0
95
3c
4e
d2
3f
01
e4
47
ea
4d
01
1b
58
df
a3
d8
be
3e
95
c7
a1
e9
34
fd
ed
2e
49
9e
d2
21
fc
fc
76
ab
f1
7d
b9
29
51
2a
08
a4
38
9b
f9
07
44
7d
7b
ad
87
b1
50
73
f4
3b
c1
c9
5b
d6
68
9f
23
5f
de
4d
57
e1
6e
ef
92
8a
61
a9
71
f9
c2
08
4c
0b
39
09
66
1e
52
2e
e4
5e
c6
dc
10
3b
f8
46
78
9b
93
0f
5a
b1
2b
36
1b
a9
88
39
cc
c1
76
7d
c2
b1
37
b4
6b
0c
83
5d
32
7c
a9
ab
4c
ed
e6
7c
2d
a1
95
72
ab
89
29
41
a7
74
60
b7
85
c8
fe
ff
96
23
af
94
c3
b9
ed
1a
7e
8a
1a
8d
92
7b
fe
e4
13
be
83
11
2c
8f
40
1d
46
d1
58
23
e7
af
f2
3d
e3
7a
f8
b6
d0
8e
56
34
53
c9
30
74
ac
a9
ce
21
8e
c5
79
fa
16
c5
1f
01
bd
6a
8f
ba
23
52
4f
0f
57
6c
d4
15
49
41
b1
4f
e2
6f
e8
44
9d
80
1c
2d
1a
e9
b9
7f
78
ee
da
f0
21
b3
fc
03
d3
15
98
fd
a6
1b
b8
85
36
5d
b1
de
ff
06
c5
f1
38
44
16
9b
03
77
de
8e
f0
fa
37
03
d5
33
e6
c4
43
d9
47
c4
af
98
99
99
3a
40
20
ff
82
6e
d5
71
45
82
7c
46
53
6b
bb
8f
18
a9
ab
33
15
3b
e9
91
c0
db
fe
f6
93
85
ae
28
29
8c
81
55
f0
16
d9
91
1c
49
04
f9
09
37
04
87
6f
a2
2a
51
e6
42
60
db
74
9a
43
ea
f2
d4
da
fd
6e
4e
1b
59
e2
63
d6
4c
80
80
f1
d1
66
6a
fa
2f
dc
f2
3e
15
fa
58
86
b7
c8
f5
16
55
cb
97
bf
99
68
14
bb
89
fb
89
e1
45
3d
dd
0c
51
41
15
ee
86
ee
58
13
df
de
1c
c6
27
f1
8c
59
55
89
7e
94
b9
cb
93
90
26
25
37
46
9c
54
5d
18
6b
8e
95
43
9e
89
2d
ca
a4
61
ba
fb
4b
d7
13
ec
7d
f4
25
45
10
3c
76
85
92
cb
8d
5d
f8
a7
21
9f
11
bd
6f
d9
3c
92
cc
97
61
a4
4e
12
95
b8
8e
20
f8
a6
26
ee
33
0c
be
47
d9
ed
a1
40
58
e2
f8
07
ab
66
42
f5
5d
22
82
ae
05
d5
c8
05
75
2b
f0
35
06
65
54
d0
57
a2
6e
54
25
27
00
46
74
2b
ce
f3
d2
d3
9a
7a
e4
92
dd
eb
87
30
7b
83
4a
00
5a
0b
b8
67
18
0a
ec
37
b6
19
83
21
f9
09
66
c0
2c
54
0f
fc
29
dc
32
6b
c8
b6
21
c3
12
93
94
e9
95
5a
9f
45
0e
a7
de
d6
e1
da
a3
a4
69
bb
01
14
57
a1
1a
71
49
8e
74
48
38
e1
fc
df
bc
bf
42
6a
15
6e
40
a7
9d
4e
45
3e
44
ff
f5
83
e5
fd
23
69
e4
a4
99
c4
41
d4
8d
d3
f9
af
e1
35
4e
4f
98
fc
5a
3b
c2
9b
84
8e
41
07
67
b4
e9
5c
7e
f6
93
d3
52
48
9a
61
7f
17
a7
6d
37
f8
e4
fa
83
d1
09
0b
0b
a6
0e
9f
91
c7
f3
57
44
ed
de
e2
e9
e9
6c
cb
92
b5
19
e4
51
dc
c9
f9
e9
38
68
19
89
28
b4
08
d7
bb
d6
72
6c
e8
8b
47
ed
e8
69
74
16
e4
25
70
5c
20
8e
43
55
2f
c2
6f
a2
20
d3
72
b6
06
df
06
42
16
28
56
22
63
64
95
6f
86
1e
ed
80
b4
c9
26
f3
26
e4
c7
1e
95
23
46
cd
94
c5
f6
d3
5c
61
eb
a1
67
6b
fa
aa
2f
c4
32
8c
4a
26
32
f4
3f
b6
4c
bd
85
58
f0
b1
2e
53
f0
8b
b9
a4
dd
73
4f
0c
07
19
0c
6e
ff
98
dd
46
b2
c5
20
d6
82
99
98
62
8d
e6
94
18
45
e1
dc
27
77
21
b1
09
31
0b
0f
85
2c
9f
b3
32
20
fd
e2
8b
44
cd
6a
37
b0
5d
e7
84
1c
54
00
c6
28
15
2d
8b
5f
b9
2a
b2
b2
9e
2a
5c
04
bb
1d
fa
65
6a
61
22
21
df
4d
e3
71
dd
48
6c
d8
4f
52
2d
75
74
f8
e3
26
68
b1
2f
19
4f
01
a4
28
f6
fb
0f
45
78
32
9c
46
ee
70
35
f5
fb
89
6c
2b
46
db
af
ba
bc
2e
5d
f7
a8
65
ee
12
98
a5
93
72
e8
07
64
70
d7
91
91
db
23
36
3c
8e
26
3f
83
0c
c5
eb
c6
91
ff
1b
06
12
66
47
f6
ae
f5
f7
49
dd
2b
a6
ea
da
d2
8f
50
21
32
21
58
59
02
33
2e
e6
39
0d
78
06
26
71
3a
a8
76
9a
59
65
24
f8
93
78
81
aa
44
84
c1
11
e5
cf
4c
6e
b8
b6
87
f6
0d
36
6e
49
c4
e6
d6
5f
a5
50
f9
1f
d5
9c
6a
f1
48
cf
eb
6c
f2
59
45
aa
c7
8b
2c
e5
c9
18
92
27
3b
e5
a3
6d
dc
4f
91
73
e7
ac
e2
88
41
6e
23
fe
6c
81
cb
fa
09
0f
0d
2d
52
a1
14
f4
af
35
54
ad
b6
7e
6a
10
20
47
8c
65
18
8f
77
e3
2a
03
c9
09
b2
84
c1
51
86
45
30
70
af
4d
49
24
37
19
5b
18
6c
c0
bc
fa
2e
2e
e5
60
6b
73
a3
8c
ae
bb
b0
03
54
ba
2d
41
b3
44
cf
67
ca
be
fa
5a
35
75
9a
1f
bb
c9
3d
6d
9f
fb
95
0f
12
6f
84
45
b6
9b
2f
06
cb
37
00
c6
61
35
6b
06
72
4e
d3
17
a1
c7
f6
38
8b
f6
73
89
08
95
29
a0
55
c8
15
f1
ea
81
b5
19
89
f4
4a
92
98
df
82
cd
c6
3c
77
21
58
ca
52
15
59
9b
5a
da
7a
67
b6
e7
67
b4
c5
67
c7
7e
a9
e4
b6
dc
6d
16
e4
e1
43
be
92
d4
4c
0f
4e
b2
ed
b6
f2
bd
ed
23
74
6a
f0
25
52
9b
88
3a
11
4a
bb
66
da
17
22
5f
cc
66
e8
b6
8d
91
e3
b3
d7
ca
24
a9
68
9f
82
a5
3d
91
70
ba
e3
f9
cb
d4
69
29
f3
d5
25
fb
9d
bd
af
cb
1d
ab
cb
3e
c3
1b
50
fc
02
f3
8a
78
5e
31
4f
52
72
cc
0f
f4
fa
3f
c3
90
83
e6
4e
83
16
bd
ff
21
7a
7e
aa
bf
a1
8c
47
19
bf
6b
a2
cd
4c
03
09
98
e0
b8
1a
a9
50
98
c8
0d
5e
1b
45
37
82
eb
03
1c
c8
c2
49
84
b3
f5
62
c5
18
5a
48
12
12
43
cf
95
1f
de
ad
c5
77
4e
aa
90
0c
09
90
90
9f
43
1e
2c
9b
9a
7f
7e
06
39
c8
06
7d
c5
5e
c9
a3
91
db
7c
60
a4
bb
f8
b0
39
ba
19
2c
8a
b8
0c
73
5b
1d
15
0d
73
88
ae
90
e9
81
ac
0b
a1
05
9a
56
61
d3
23
94
bb
a7
0e
a8
22
e3
ba
8e
a5
f6
9b
a6
72
39
21
9e
32
7a
dd
8b
9b
01
45
b5
68
ba
6d
1e
81
a3
c8
15
29
d1
2b
5c
db
aa
c1
f2
57
67
15
18
6b
05
0c
6a
47
54
bb
f2
c6
a0
0c
2c
a8
87
62
33
a8
aa
71
8e
ab
1d
4b
37
fd
ff
00
50
dd
d8
68
1b
f6
68
37
f8
0a
4e
8c
0b
2d
c1
22
8d
f1
29
1b
86
d7
1b
07
4c
fc
75
b2
78
eb
28
00
57
23
a3
86
75
af
86
81
f5
fe
b9
d5
4d
94
e9
64
8a
04
01
49
24
08
8d
0e
4e
47
cf
f7
66
ee
3f
6a
02
f3
46
de
f4
a1
77
eb
97
69
f2
36
a4
6e
55
12
4d
0f
f7
4d
f7
c6
ce
db
f6
0e
bb
81
11
37
7b
dd
47
1a
11
95
c2
43
2b
5d
ca
8b
da
27
ab
4c
61
81
79
32
1d
9a
5a
47
66
be
b5
38
c9
9d
3d
02
78
14
ae
a9
ab
e0
61
69
5e
46
b3
dd
9d
42
92
7c
54
8a
7a
94
59
98
d0
47
5c
37
ab
93
36
0c
86
27
d5
ff
cd
a4
41
8e
55
b4
f8
e3
97
96
10
d8
cb
07
9e
93
c5
77
fa
57
0d
16
41
0d
63
7c
b6
aa
d0
ff
11
ed
7f
68
d1
52
f9
42
8d
d6
93
a9
32
12
53
86
2f
14
5e
94
7c
03
3b
7a
c6
dd
fe
a7
0f
95
35
f3
3f
1e
41
0b
d9
c4
cb
47
7e
54
e1
7b
2e
a3
00
41
5c
b4
7f
b9
3d
c9
e8
e1
28
26
25
14
d2
fd
a0
2b
43
62
d2
60
99
fa
a8
ff
64
de
c5
9b
71
c6
00
e6
70
88
2e
f4
18
60
ae
fb
f0
47
cf
67
5f
50
b8
ea
66
09
4c
e3
b8
c4
eb
7f
d2
c3
b5
3d
69
99
2c
c4
4c
98
0e
a1
9b
65
bd
44
b4
2f
97
15
c2
2e
a3
28
00
66
42
d8
66
97
de
6d
d7
a9
b8
9c
a5
62
d1
b8
e3
0e
7d
c0
62
5b
87
5a
99
39
ef
04
fb
01
d3
bd
3a
29
15
da
b0
32
f2
99
9f
5d
bb
cb
24
fc
e7
c1
32
a1
0d
c1
5e
3e
5a
5a
c3
8b
d7
df
ad
7f
64
66
23
32
ca
2a
9b
23
d1
de
0c
bf
9d
9f
41
de
c5
ea
a8
05
e4
ed
24
3b
2a
b0
41
c6
8d
cc
0c
4c
b9
8b
ea
0b
48
09
a8
c4
d1
72
d1
02
27
29
20
9f
65
a2
19
1a
7e
ac
af
41
b4
40
bc
3d
86
bd
a6
6f
83
a2
00
7a
c6
4a
58
5b
79
95
4c
77
ca
51
10
73
45
37
41
82
64
54
60
b1
82
5e
5d
13
68
3f
ef
59
6c
b9
31
30
32
ad
f4
78
97
9f
da
c2
a5
ea
19
25
65
a1
cd
b4
2e
d5
85
2c
4d
00
bf
26
7e
04
ab
ed
bb
3a
93
c6
93
fa
b1
08
2f
17
0b
a1
58
a3
35
ca
92
9e
42
4d
ef
6c
1e
78
4d
f9
9b
2c
49
52
be
6a
9e
2b
c0
89
ac
af
3b
54
11
4c
15
b5
a5
f5
56
7a
b4
8d
aa
af
80
8d
2b
5b
63
ce
ff
49
03
8f
34
4a
07
1a
53
86
5d
c4
bb
78
2b
53
08
34
c8
b4
b9
0c
4a
12
60
25
33
f4
1e
b2
08
f9
9f
04
0a
c9
c0
53
fc
e8
bc
86
28
a7
be
e8
15
3c
e0
a2
65
be
30
7f
55
ab
c5
5e
26
ad
b1
75
8b
04
8c
eb
44
85
36
2a
c2
a8
51
e3
57
7c
bf
85
62
16
ba
74
66
e7
16
99
bb
9f
c0
ff
93
2a
8c
9a
5b
52
a1
d7
b3
2c
32
a7
8d
5a
16
ca
73
70
67
4b
24
32
2d
65
7b
f6
a6
59
9c
3f
be
23
ec
4c
64
3d
a2
d7
d4
dc
ed
3a
28
11
93
f7
be
99
2d
87
ba
32
bb
41
0f
bc
65
b1
79
4d
df
5b
22
74
36
f6
0e
bc
09
bf
8b
94
14
8b
0e
f3
2c
e8
b4
9a
0a
e1
6c
c8
34
ce
14
2a
a5
7e
74
be
78
91
d5
3c
66
a9
91
6d
e1
ad
cb
eb
82
95
36
ee
e8
99
d7
e7
d1
26
2f
fb
6d
da
49
de
dd
69
52
fe
18
4e
44
15
db
df
bd
a9
7e
d4
98
cd
9c
e1
18
3e
35
e5
e6
22
a1
6f
d2
04
c4
20
90
34
62
84
a0
5d
3b
07
bb
0a
78
3c
85
d7
a5
9c
15
2c
eb
a8
50
ab
05
d8
9c
d3
fd
59
44
e3
3c
55
55
f1
d8
50
c8
7b
4b
81
45
92
2c
d4
63
0d
8d
5e
1a
9b
61
0f
0e
9d
fd
f1
2a
39
37
2f
80
b0
0b
8f
9c
84
24
8e
28
b5
63
87
4a
94
0e
b5
85
bc
56
01
c8
29
7f
8d
3f
6f
36
7a
ba
66
85
76
45
ce
bd
b0
d7
d3
9e
69
40
72
86
22
67
32
4e
57
fe
85
27
5a
ce
7d
74
06
db
97
11
93
1b
10
66
07
d2
80
c2
27
1a
45
60
56
38
82
7b
4d
43
a0
7f
a4
85
0b
42
0f
c4
ba
4f
18
51
8f
2c
21
fc
6e
88
65
45
ff
70
34
a0
df
85
7d
82
30
67
65
d5
a1
1c
12
f9
87
22
86
7e
dc
cc
fb
2a
95
41
d1
4b
77
93
11
d6
bb
7b
b3
aa
cc
56
6a
8a
42
9a
76
76
b0
fd
32
ce
a5
56
30
a2
90
f3
34
4a
41
7a
48
a8
55
ba
e1
78
61
1a
54
c9
73
6a
04
1a
91
43
85
67
20
34
60
68
97
06
db
31
15
68
3b
43
b4
6d
fd
a2
08
37
48
a4
f3
3f
3f
0a
8a
99
ea
b0
f4
05
50
5a
f5
0a
cf
89
39
44
10
9f
8b
f6
d6
8e
d5
e2
6e
83
c2
92
62
55
f8
bf
12
23
e1
5c
66
fa
9c
3e
1f
a1
35
98
4f
be
ec
2f
e6
93
ec
1d
44
4e
23
30
07
df
9b
6e
17
d7
22
ca
6f
47
08
4a
03
64
82
73
86
a8
a6
2e
7b
cf
e7
72
e9
4c
bf
ae
88
54
4a
0d
e9
fc
a9
a5
19
91
ec
81
8a
08
a0
15
bb
57
2c
1e
0c
38
c7
f7
7c
3b
20
fc
a1
d1
6d
de
41
74
52
a9
2e
45
f0
4c
a4
5e
cc
f0
5e
02
4b
a7
76
d0
6a
e4
a4
eb
08
84
ec
7b
63
bb
4c
54
4d
81
41
a4
e8
d9
b9
44
ea
43
d9
aa
f3
49
de
dc
9e
9d
56
db
4f
40
b6
5c
83
e2
c1
61
19
80
1c
19
28
a9
f3
0c
6a
bc
4a
e0
21
a2
69
92
49
19
bc
c0
f2
95
a4
21
25
6d
a1
cf
5f
06
f4
c0
54
8d
00
51
71
57
25
a7
ea
b2
3b
94
e7
16
5e
40
eb
bf
e9
d5
a9
9a
9c
19
4a
43
a8
cd
16
7c
cb
22
71
8c
db
8b
99
6d
aa
f5
19
73
f9
2b
11
0e
e3
9a
1a
d7
99
06
c5
b1
d9
2c
c4
7f
45
43
64
07
e1
c9
2b
59
6a
8a
8d
12
da
87
f7
65
46
10
62
cc
f8
d2
72
f6
47
04
fd
4d
a1
f1
c9
4f
17
b6
e8
84
b6
2f
07
81
a8
c1
f4
f0
3f
2e
d2
6d
b5
e1
b6
23
8c
4a
d9
ac
4f
73
92
03
09
45
ba
32
a3
db
74
70
bd
db
ec
39
c1
fe
53
a6
b7
17
ec
7e
38
e9
44
8b
e6
d0
04
da
c9
f2
4f
11
ad
72
b6
fe
e1
a9
7c
5c
8f
de
44
ef
e8
46
4e
5e
ae
bb
60
23
b7
7f
0f
45
10
dc
6c
ee
53
8f
5d
4a
75
ca
92
aa
eb
24
a4
3b
2a
2d
ca
f8
e3
2e
f6
a0
1e
d5
6f
a8
a0
c2
18
86
05
44
ff
7c
b4
f1
e1
df
4e
44
b4
ac
cd
57
3b
9a
13
b1
69
60
86
bf
cf
85
0d
94
27
5a
c7
cb
c4
45
5f
57
37
0a
08
0a
8d
7a
84
f9
d0
e3
b6
31
65
b5
7e
a2
f6
13
18
09
ae
ff
38
53
d1
37
c8
cc
39
ec
9b
55
fd
85
e8
55
89
25
ae
f8
ef
1e
cc
ac
3c
a4
6e
df
62
fc
22
e1
cf
de
2d
d5
81
5b
c2
4a
64
5e
5b
4a
c4
a2
45
03
4f
78
11
fd
fb
03
f4
31
09
90
6a
1b
e3
3b
ce
29
93
21
43
d5
1f
67
85
66
3e
60
15
9b
3a
c3
0b
16
89
55
3a
db
7f
c6
f3
ae
54
7d
ce
16
64
b9
a9
43
fa
57
64
bb
58
b2
af
e4
1d
08
93
4c
58
d1
69
35
3f
0f
20
e4
ab
b4
c9
a0
1e
13
bb
3b
c2
f2
e1
4a
e1
43
9e
e5
0c
20
03
43
31
a6
3f
82
42
b0
65
f5
dc
d3
d2
4d
f3
a4
75
5f
0a
45
13
c3
c5
cd
6f
dc
98
fb
32
a7
00
c0
0c
19
fd
77
f7
25
f5
2a
cb
7a
96
d3
06
59
a1
8f
eb
42
b3
11
f7
9d
3a
50
05
c4
d3
33
1f
ad
88
3c
3a
6c
84
2f
ec
c1
8d
44
b2
73
c2
92
9e
cf
6a
20
f1
94
8a
eb
68
d2
7b
fc
85
50
09
a7
52
95
09
d6
5e
c8
74
fc
fe
57
37
45
b8
91
b2
1e
e5
cb
19
76
ce
82
ee
87
44
d4
92
46
12
51
95
5d
4b
87
50
57
f7
35
98
5e
9f
c9
06
92
91
ee
57
06
ed
a4
31
c6
29
df
42
5c
89
6f
9a
f7
72
d0
7a
fe
d6
eb
6d
21
99
33
d0
05
80
e4
eb
ef
f3
bf
4c
41
63
8a
22
a4
e9
17
b0
11
a3
2a
b9
1c
67
c2
f0
74
0e
8e
27
a8
2a
16
16
9a
24
b1
72
f5
f5
40
58
d3
d1
89
22
5b
36
6e
86
47
1c
1a
9c
85
6a
ec
93
de
21
8f
d4
06
f9
f6
3f
57
fa
6e
d2
ab
a4
5a
9a
d1
ce
08
29
62
c1
7c
fa
06
c7
b7
60
c9
2f
75
0a
a2
d1
9b
87
ec
32
51
26
67
71
44
0e
7c
31
77
5f
07
e1
36
31
9e
05
dd
aa
48
12
ff
ec
ff
6a
ce
fa
76
ce
f3
85
31
36
7d
fd
4f
16
c5
35
a7
83
7f
5c
6a
92
92
c6
b3
6d
18
a4
f1
32
96
aa
54
a7
a6
b3
38
1a
50
8d
2d
c2
78
14
6a
21
cc
2a
3d
53
09
8f
89
6d
42
74
57
13
61
20
7b
84
78
89
2b
de
1f
dc
28
c1
0e
bf
34
99
24
11
a9
2d
35
25
40
1f
8f
a0
c5
16
0a
84
fd
09
4d
ec
7e
a9
81
1d
c4
00
0e
2d
7d
24
13
47
a0
7a
fb
e6
de
60
b5
d2
bf
5b
ad
d9
f2
4d
18
70
9b
12
21
b4
7a
56
d8
90
3b
5f
d6
1f
62
0b
1e
14
14
69
32
1a
b4
a9
da
87
4d
56
24
68
eb
5f
3c
26
2f
0f
4d
f2
e9
ab
81
2d
e1
a7
f5
ed
a9
91
14
09
08
1a
81
c7
99
60
4b
13
26
59
fe
df
51
e5
8a
b1
e7
d7
5f
38
12
1f
c9
84
51
4e
ba
bb
b1
9f
cb
64
07
54
d9
bf
53
50
41
bd
09
b3
6b
5c
da
04
56
02
ca
7b
06
d3
74
32
3e
be
70
f4
2a
f8
4e
a6
78
d0
9c
f3
b8
85
f9
2d
2a
03
98
fd
d7
a8
ba
dc
bc
e7
c1
a8
cf
9a
6d
98
64
d3
df
1f
6c
b9
eb
2a
cb
0d
83
f9
3a
01
97
cb
a3
32
db
d8
3e
9d
bd
60
a1
75
8d
59
72
a1
03
c5
58
9a
44
3e
95
d2
76
5e
ae
17
66
77
33
9e
8e
62
46
1f
e6
29
b3
06
6c
05
46
bd
ff
e9
27
3d
9e
2e
aa
65
6f
06
87
d7
9c
a4
98
77
51
c4
6a
ab
c3
1b
49
b7
8a
c3
2b
1c
ea
03
e6
c7
af
56
32
85
78
2a
ce
9a
32
fb
0e
bc
8b
fa
59
d4
65
e5
ae
51
b8
09
79
30
79
01
00
5d
cd
23
ea
3f
4c
73
39
75
cc
ee
e7
6c
a5
a1
83
d0
10
e6
2a
f2
80
bb
65
f2
2b
1c
dc
04
c5
cf
71
26
5a
0f
c6
0e
7c
a3
4d
1f
7e
fc
c9
b6
d7
e9
fe
50
8d
ac
45
ec
09
90
ee
70
dd
6a
9b
fc
29
da
2a
b5
6d
ad
77
8d
2b
db
a1
6d
d2
3c
ad
3e
28
81
33
26
08
dd
25
72
ee
2b
65
fe
a8
08
fe
8b
79
3d
c6
c2
72
3d
d7
dc
14
be
bf
24
a0
3e
7a
e5
af
f8
9a
42
81
e6
43
f2
8b
b4
0d
49
f1
97
33
fe
64
03
39
d0
6f
f1
e9
60
ba
12
6e
ff
12
16
db
9c
29
ef
d3
70
3b
03
6e
2e
36
14
96
f6
b4
a6
4f
c3
2c
4e
61
ba
87
05
d2
68
32
2b
4d
b2
f4
4f
76
f6
89
b4
74
b4
ac
a9
70
88
1d
3b
dc
85
7d
2c
61
e9
55
ba
17
b8
2e
27
76
8c
3f
4e
a2
35
bb
fe
bd
7e
fa
12
b3
85
1c
61
10
3b
17
eb
b7
c8
c8
0a
fb
06
60
7d
05
24
62
54
b6
d7
7a
14
a3
4f
a8
18
44
17
a2
fb
33
3c
ce
98
58
f3
07
cc
bf
eb
8c
12
74
dd
1f
b8
a1
d3
6e
45
0c
48
9b
99
43
33
92
52
b9
b8
40
93
b4
01
00
6b
7c
a7
5c
e1
81
6a
84
22
f6
52
08
9e
0c
b0
f2
d6
bc
44
73
3e
ab
67
ec
24
c0
27
02
9a
b5
3a
de
20
33
d3
05
ef
bf
4b
99
43
52
00
96
1d
f4
67
8a
b6
ac
99
ef
24
d3
d8
b4
a1
7c
df
c0
0d
8f
16
60
9a
e7
e1
48
98
eb
15
77
12
25
bb
e9
df
2f
c8
09
fb
5d
06
87
fa
23
e5
13
53
2a
88
5e
d0
8b
db
3e
c6
8d
d5
7c
26
87
be
82
a3
28
eb
7b
0b
05
a1
88
14
7b
7f
44
73
a3
81
fd
cc
36
e9
3e
11
1b
7c
51
dc
0f
59
70
ab
a2
11
26
2b
dd
30
db
aa
85
25
a5
23
39
ae
71
80
e9
ed
1f
b9
8d
19
07
28
1f
23
1b
97
95
ef
20
63
f3
22
8c
70
08
62
62
13
ed
62
92
50
9f
71
d5
31
50
e2
73
70
22
bd
8e
9b
1e
18
57
0a
ff
78
8c
1b
94
81
b6
f7
c7
23
1d
bf
3c
b0
cf
8e
18
a0
f7
89
c0
e6
4b
e5
85
3c
07
21
17
71
70
87
b6
08
19
32
b7
81
0f
f0
66
23
c6
0d
6f
21
6c
32
ff
42
f0
91
bf
dc
3d
eb
a7
c0
54
11
01
f8
a1
3a
9a
c9
dd
fe
7a
a1
93
5b
2b
6f
39
af
1b
5d
1b
41
6b
0f
f3
73
b1
45
52
5b
1e
72
be
bb
cb
d5
23
df
8d
74
37
dd
aa
99
44
35
e1
c7
cc
b6
f9
5b
b3
cd
90
63
32
e4
d0
8a
00
32
79
93
56
4f
fc
13
fe
f7
75
94
67
64
1c
6e
f1
77
33
ee
4f
94
ba
52
c4
e0
bb
11
4a
14
5e
c1
cd
14
f6
b5
49
10
b5
9e
76
61
6a
13
f7
3f
3d
6e
08
ea
bb
46
60
c6
18
56
45
d7
c1
9c
fa
16
1c
e1
82
3d
81
ae
a5
24
74
c2
13
f3
4c
76
ae
47
e4
e6
af
f5
27
d3
1d
be
f8
2a
c6
34
43
38
68
26
db
1a
fe
7f
f2
f4
35
bd
34
2c
7c
25
10
a8
9a
79
95
e5
fd
7c
93
ec
85
a8
72
a0
b7
fa
fd
6c
04
7a
c0
83
e3
5c
52
21
ec
a5
c8
6a
5b
7c
f1
0e
b0
2e
cc
f6
8c
b6
57
d7
54
04
c0
ba
92
86
d1
7b
27
de
a0
02
81
a5
52
37
cf
0c
94
4d
18
9a
e0
0c
71
f3
57
25
6f
98
ae
13
62
15
67
48
6f
75
aa
eb
f1
93
97
7c
50
2a
8d
dd
15
06
3f
90
b1
ab
8a
c9
de
b4
f8
e7
b3
19
4f
9d
0c
c1
6b
10
5b
9a
28
20
7a
13
b1
cf
3f
16
8a
b0
70
b3
6f
50
4b
ec
1e
10
15
17
ab
91
6f
7f
f3
7c
ea
e2
40
a8
77
bc
6d
8c
1a
42
a8
6c
b7
76
05
32
8c
e3
ea
06
5b
73
64
cc
db
4a
c4
fa
d8
e0
6f
4f
3c
6c
50
3b
17
14
d5
7b
16
bf
cc
1a
80
16
3b
67
a9
dc
19
57
80
d3
e0
20
8a
95
41
8f
65
9f
64
eb
4d
ec
11
59
88
5f
70
a6
75
e8
55
13
9b
1b
b1
b9
7e
90
3c
81
ac
c5
58
39
c4
c3
23
07
84
0b
b0
34
c2
b0
86
35
52
d0
3f
45
cb
04
3f
05
7f
d4
60
16
0e
5a
b8
ac
7b
70
5b
11
75
4c
b4
6b
ec
59
2f
ba
6f
81
05
9c
95
7d
fa
26
54
ca
56
45
5a
8f
96
a9
b9
15
da
ec
76
ce
1d
5b
81
b1
94
97
2b
2f
d2
0c
ca
25
bd
35
2e
84
09
4c
7a
02
a6
8a
3e
30
85
f4
b6
f5
62
69
4d
89
d6
b3
81
d8
bc
b1
bc
11
83
fa
a5
aa
95
98
d5
f2
f9
ee
38
cb
b8
ec
22
77
9a
25
3c
a9
c2
e8
17
47
1c
89
b9
4a
d4
b8
0c
77
da
d0
e8
cc
48
3f
86
04
45
8a
72
84
c8
4a
04
fa
a7
e6
a9
ad
64
43
cf
d1
e5
a8
15
99
00
2d
27
18
a8
cc
65
5b
1a
de
93
5c
85
0a
94
2a
d3
82
5a
50
14
8d
70
87
dc
3b
ab
81
76
7e
82
01
dd
89
ec
b0
90
3a
d5
34
28
a8
54
9e
b2
60
ee
1e
f7
e2
ec
57
fe
47
85
36
5d
cc
7a
28
80
00
fc
fb
81
8f
7f
ea
44
a5
4e
3d
49
e5
bc
0f
66
b4
2c
dd
d1
a9
04
ab
f1
6b
68
84
91
e7
2c
be
f1
b7
69
86
59
62
4c
42
31
2f
e2
6b
8e
8b
70
80
cb
dc
07
37
2b
15
fc
3e
2a
97
3e
d0
28
a8
dd
20
ea
f3
3e
d4
ac
2a
c8
1b
c0
43
72
55
ea
5e
d8
45
4a
31
c1
35
4f
82
42
91
60
1d
c1
5e
1c
93
a2
fb
af
fd
e5
b1
91
3d
33
79
a4
fb
4d
93
fc
e0
c1
aa
03
85
ed
2b
56
72
53
d7
a0
1c
54
11
ff
f4
73
74
1b
f4
98
62
97
93
f7
6e
65
8d
cb
ba
db
80
32
6e
1f
66
b0
e8
5b
5e
fb
ca
d4
f1
7a
17
39
03
57
c4
c1
a7
9f
6a
0f
d4
80
00
b3
34
52
30
1d
75
e4
d5
bc
d1
ce
5c
33
60
a9
4a
0a
3b
e3
7c
0b
90
49
4b
68
31
65
c7
bf
1a
5e
83
90
ec
d8
a6
e6
85
ea
8a
8d
f5
ae
5d
ab
ae
85
70
0c
72
8e
eb
f0
47
0b
7f
f5
4d
78
1e
41
6e
54
74
ae
e0
3f
1e
40
db
b0
5b
dd
5a
05
fc
49
34
c0
ec
5d
6f
09
00
19
5f
14
63
e1
66
2e
32
5c
4c
46
c6
47
3f
25
88
28
4e
85
ee
77
3e
f4
e9
7c
55
f8
9f
b5
2d
79
84
96
ea
90
d5
18
67
c9
46
fd
97
9d
1f
1b
94
c0
41
ad
6d
2a
04
d4
4a
78
06
a3
1b
fe
3a
62
92
be
f9
66
f8
4d
a8
f0
c8
15
c1
be
39
78
11
a7
a1
68
ea
77
89
31
9a
bd
2b
b7
e8
3e
5c
ed
ab
85
76
54
28
f2
ab
d7
56
90
49
db
56
4e
cd
58
5b
3b
f7
7a
49
b7
5f
9a
91
6e
4b
9a
f6
b1
01
0b
62
6d
f2
b8
ff
0a
d5
03
da
ef
14
77
85
61
bc
64
15
47
7c
75
eb
07
60
d8
19
c4
ff
c7
5a
26
14
1e
fe
a6
2d
06
52
13
fc
b0
0e
b6
51
79
b9
b2
9b
76
4b
88
b0
83
03
bc
84
20
0b
bf
25
7b
cb
c8
cb
7f
a0
8d
47
30
04
ae
ac
69
90
17
8b
26
00
e9
e6
81
71
9b
bc
4f
0a
1a
14
15
af
77
2e
3e
cb
be
79
df
8e
97
70
2b
a1
43
4a
9e
c4
39
9a
a1
26
de
9a
c8
08
5c
08
e1
61
f1
77
cb
11
e6
6a
ba
5a
a7
3a
fb
2a
38
80
b4
ed
56
4c
05
39
e4
2c
99
a1
44
39
7f
1f
d2
f5
8f
ee
01
a1
8d
a6
6e
ad
2a
dd
a9
1d
95
ef
af
6e
7c
b5
01
c6
d9
7c
11
cb
db
e2
6a
01
3f
53
a8
5d
80
79
d7
1b
60
79
6f
5f
3e
b6
78
0d
36
ce
48
cb
6a
d8
ac
8b
2a
d2
c2
7b
37
d5
6e
fb
88
1d
39
06
b8
16
e0
74
a0
4d
47
1c
46
31
52
cb
52
59
4d
9b
a1
94
9c
3e
3b
9e
27
7e
a6
0d
05
d6
a9
2c
b5
e8
f1
b0
74
b3
f7
be
91
e4
44
3b
af
fa
e8
75
e0
35
cd
14
53
74
dd
37
83
ff
d8
72
85
c9
af
d7
81
ce
98
35
fe
8e
b3
50
9c
72
84
29
dc
8a
61
51
43
91
e0
5f
7c
df
e7
17
b5
0c
32
b9
99
58
54
80
97
f4
d7
92
30
f7
b5
c2
99
e1
a7
cc
03
f0
89
18
f1
5a
1d
06
54
97
f8
43
e7
8f
b6
22
50
5f
ae
c0
4c
8e
77
01
b3
51
9b
ea
da
7e
fc
19
55
31
78
09
f3
cd
71
50
97
9d
30
ac
e9
eb
82
27
da
d0
6f
84
d1
30
9c
0b
11
14
0a
07
58
d4
ff
c6
21
84
e9
1c
41
12
52
c3
6a
b1
6b
a8
54
c1
7d
62
fe
99
6d
2d
2f
13
3d
5f
6d
8c
fe
45
15
7b
b1
b6
44
11
42
97
d3
9d
13
dc
1c
b9
b3
21
02
3e
b5
e0
b6
bb
a2
8b
03
1b
08
96
f8
32
cb
a4
22
bd
52
03
b3
db
fe
bf
84
94
e9
9f
3f
64
6f
ac
3a
4c
04
19
19
e3
1d
2c
45
f2
3d
f1
b1
de
d5
4d
ca
b7
4f
52
3d
35
8c
2f
ab
ad
01
ee
8e
19
9d
25
0e
97
9d
a5
3e
bf
c7
1b
c8
f3
1a
e7
6a
90
4e
06
46
86
7a
46
5b
c4
76
3a
86
76
00
8d
0c
0c
ee
91
51
c9
47
f0
bd
61
a1
fe
76
53
64
1a
31
78
6a
51
92
09
7b
17
47
7d
da
32
8f
be
11
4e
3f
98
30
2b
4f
ba
0e
ed
f6
ff
b7
5a
67
fb
0c
84
da
14
42
8a
74
80
5a
1b
da
cf
3c
1e
ea
2d
60
97
ab
52
2a
f4
1a
10
05
5d
ae
85
61
6d
45
21
d2
1c
e1
00
8c
02
42
f5
45
15
a7
b1
ad
ef
22
4b
84
b5
01
cd
50
54
c6
f7
79
db
69
01
3e
57
ae
b5
d7
3b
87
4e
b8
6b
19
17
d4
e0
49
6d
12
ad
09
23
1a
09
06
37
1e
86
2f
ed
06
64
ee
12
80
70
35
cf
dd
a0
da
ce
b2
6c
bc
72
94
44
d0
03
6a
5b
91
89
f2
5f
ea
0c
b3
e1
7f
26
32
35
95
fc
80
e6
50
f2
5e
b4
34
f9
86
c2
98
48
2a
2f
a7
23
c9
30
b4
1d
85
27
50
aa
58
21
f4
86
98
e3
95
c9
7c
c0
b3
70
e0
03
65
48
9f
94
d9
5a
a1
92
19
ef
62
3e
99
84
91
a9
ce
b0
3b
0b
4e
08
c7
44
d4
f6
f9
f7
5f
df
1b
7c
78
ba
17
07
50
79
12
23
d8
da
06
31
17
e4
01
86
50
71
aa
d5
aa
a8
52
39
51
e4
67
f8
5e
22
3a
45
38
66
ca
24
46
b5
7f
43
03
65
9c
2b
ee
bd
0a
5e
8f
dc
04
6d
2e
fe
79
95
61
89
e3
05
8c
51
ae
d7
2a
68
60
2b
14
06
32
52
4f
55
ff
3a
8d
f6
74
c1
aa
30
e2
a6
53
eb
a9
d0
ac
60
b0
b6
db
fc
a5
c2
4a
1c
87
ab
73
ae
0e
2a
28
55
c3
cf
97
68
aa
e0
d2
6e
96
e5
24
5e
91
27
c4
34
08
08
d8
cc
89
e5
d3
39
72
37
e6
da
6a
a4
ad
5a
be
6a
3e
c7
b9
ed
2c
6d
89
21
c0
29
89
b8
e8
6b
75
1d
57
ea
9f
b6
8e
9f
93
0f
42
76
ce
66
80
32
c4
d5
fd
29
ea
52
d0
0f
4e
e0
fd
f7
31
b3
0b
10
4a
26
80
a4
c7
16
16
61
e0
fb
ad
c6
65
4c
25
31
8b
a8
29
8f
f5
6c
a6
ae
dc
00
c5
8b
aa
61
d4
7a
9e
43
44
5f
7e
38
f0
d7
a8
7c
1a
b5
65
e5
d9
f2
d8
91
69
8f
9b
66
34
d6
ec
d9
6f
b5
05
51
6f
17
41
59
a0
b9
a9
97
aa
c4
9c
30
ab
d4
5b
6a
57
34
fd
7a
fa
e4
dc
32
8a
a6
ff
34
5a
73
be
46
ae
47
b2
e9
ac
43
6c
e9
11
db
76
04
38
cb
33
f0
2f
1d
3e
b3
95
73
1f
7a
70
83
cf
2a
8e
18
1f
60
3e
09
f6
db
e8
73
0a
e5
bf
5c
d9
1c
b8
b9
7e
95
d0
c1
03
c1
0b
77
a8
1c
2d
0d
af
42
1a
1f
66
04
41
a4
e0
62
82
23
64
07
77
48
db
d2
cb
7b
e5
b6
56
d3
61
e8
85
c9
85
84
0f
db
a9
b6
0a
eb
de
9c
d0
ad
bf
bb
49
b5
19
98
79
be
1f
84
43
a1
eb
a1
92
ee
14
75
82
90
52
20
55
f1
7b
8d
30
68
3e
73
84
b5
65
7e
ba
8d
17
1b
1d
29
58
a2
32
da
1a
3a
0a
64
a5
48
1c
78
50
5d
1b
1a
21
50
8c
6a
b8
ab
24
88
bc
af
49
32
99
ed
11
b3
a5
f1
05
2d
21
b9
e8
4f
12
8d
07
5b
a7
0c
d5
79
07
8a
45
4a
20
3b
57
ea
4f
f5
25
fe
7d
67
15
98
1d
35
70
66
42
52
2e
34
5a
56
d2
89
29
7c
dc
5c
97
03
0e
1c
b5
61
b6
5b
af
8b
d8
c4
4b
24
3d
3c
bb
17
3c
eb
3a
03
d1
9b
e6
bc
9f
26
e8
af
34
ac
2b
b8
72
8a
06
5a
e0
ed
fd
70
55
72
7d
c0
95
de
da
65
56
d7
f5
5a
27
15
18
3f
b9
8d
03
df
96
99
b6
07
1e
97
8d
e1
36
9f
b7
0b
c8
30
82
63
2e
d4
e6
4a
ae
87
fa
45
5e
e1
7f
a4
89
17
b4
9d
0c
2e
6b
96
52
cb
05
50
ec
51
81
78
3f
87
72
05
db
76
ea
45
9c
56
f9
30
17
cb
90
08
70
9b
52
fe
3d
15
b9
b4
6a
af
46
40
31
c3
b1
94
a7
b3
1c
b0
2d
b6
db
15
90
f5
c5
1b
97
d7
e5
14
e0
b6
45
93
41
bc
d8
ec
38
d0
dd
7f
af
d5
1d
6e
45
ec
8c
e8
d1
e9
6b
2e
64
ac
2e
d8
38
3d
9c
3f
99
74
7c
63
e2
e1
41
65
f5
0f
d1
53
0f
fc
cc
5a
ea
f6
62
45
0a
4f
ea
51
7e
d7
0f
d2
33
05
a5
3a
7e
c7
a3
df
28
9e
8d
50
c9
91
56
94
38
29
e8
09
bb
15
c9
ca
8d
5c
2e
b9
05
42
13
f2
38
ed
02
66
7c
12
52
3b
f6
17
97
83
65
da
2f
4a
35
ce
a9
e4
3e
ce
75
14
75
e3
65
7d
b6
fa
5c
1f
9f
2a
c0
5c
78
4d
ad
be
11
4e
60
71
1a
32
db
35
09
cb
57
c6
f0
4b
9b
fb
c5
e9
0a
99
00
5b
e3
a1
ab
02
75
c1
6c
53
0e
5b
61
53
e0
ec
ef
98
7e
7d
2a
89
40
83
b8
e2
e7
bb
97
c5
e3
79
a9
72
29
88
5a
f5
0b
c1
49
89
58
0e
8f
8b
52
dc
8e
57
21
2e
0a
26
8a
62
4b
a5
9e
ec
01
f1
fd
0e
67
bd
04
ed
b1
89
a5
ed
6b
63
04
90
01
6d
7c
78
f1
b3
58
8b
39
20
16
43
35
3c
a8
2b
87
87
6c
c0
8b
d4
56
b4
aa
a5
80
cc
cd
01
3e
48
0c
1f
7e
12
c2
7b
1f
4d
ef
1a
82
d3
48
ae
1f
0a
08
a7
59
ee
7a
36
15
09
d8
20
59
cd
70
c1
aa
d4
13
4c
8c
e4
69
77
b0
21
9d
02
0a
2c
92
0c
97
13
94
29
2c
f6
8c
46
d1
44
2f
b6
6f
aa
c1
18
56
60
12
27
d1
2c
80
63
89
e9
f6
7b
d8
01
89
72
9d
80
c4
5e
a2
c9
99
43
5f
64
ea
aa
02
56
78
10
ef
7b
d8
53
de
8f
67
14
27
39
9f
7c
03
3e
a0
e6
ef
1a
72
c2
d1
da
b9
81
06
89
5d
90
85
f7
b8
ad
d9
67
e0
9e
bc
15
a3
4f
ec
22
d0
66
43
70
2f
83
e8
1b
2f
80
b4
56
db
e7
c4
ba
54
03
d2
b8
55
8d
31
85
1a
ad
91
a0
1a
ae
d2
4e
1c
95
88
af
01
0a
5a
81
9d
37
1e
84
2a
68
f9
05
ae
ca
5e
70
e0
14
ea
3f
67
64
dd
1c
72
3a
16
7b
f7
79
fe
1d
be
29
0f
d3
3d
21
78
47
77
c9
5a
1f
40
24
e3
cc
16
70
d9
75
19
25
31
41
1b
6a
dc
6b
a0
89
26
e6
6b
1c
35
6d
05
a0
0f
24
55
6f
a8
9d
ae
4e
0c
ed
f4
7b
a2
aa
57
79
87
8b
35
fa
31
fb
d7
c5
1c
95
40
68
bf
a1
e4
eb
83
cd
90
f9
0c
45
fb
b2
24
53
09
05
e7
6b
cc
db
6c
3f
ff
51
21
9b
2b
08
75
c3
84
f6
af
5e
3a
86
f1
e2
79
a7
27
cb
43
f5
a3
f4
1b
6b
50
2b
ec
8f
36
50
85
af
60
2a
e0
46
80
f0
9a
3c
33
07
2a
27
4e
52
af
3d
eb
1b
51
d2
e9
e4
4e
cd
81
c5
9b
fc
78
38
62
6a
a8
be
c1
98
2a
94
ac
21
b7
0b
4d
2c
09
3a
d0
a6
b1
f9
a1
fe
23
a9
07
3b
56
01
ce
7b
10
87
b5
ce
31
7a
fe
92
93
a4
c8
06
92
2d
46
27
41
d9
6d
31
e6
37
ff
c2
65
54
46
4c
06
69
c4
fc
42
9e
e7
e1
61
3d
99
3d
0a
d1
05
60
b7
6b
76
de
95
fb
d1
b2
a4
e9
40
b0
93
e3
3d
e9
5e
25
ce
f3
14
3a
c7
0a
aa
2a
ca
96
02
64
5f
14
02
18
3f
07
2d
a2
72
9d
fa
ed
b1
7c
99
ab
a6
7a
7b
00
31
6c
9d
c4
31
e2
92
44
e1
cb
08
00
7f
2f
f4
61
95
6c
7a
51
f7
de
d8
7e
a6
0e
f3
aa
6c
69
b6
fb
6a
70
01
ee
70
76
8d
c5
ae
91
7c
8d
cb
26
40
46
46
27
59
a2
ef
be
61
6c
3e
49
ad
ad
0b
6d
c4
a0
c1
c1
9d
fc
40
c9
c9
06
e1
b5
59
95
19
5d
af
6f
43
5e
da
0b
43
00
f9
e4
ac
09
14
3e
5f
d2
3a
41
0e
6c
24
ae
f9
68
bb
b8
42
f4
d7
9d
b1
74
89
4b
52
14
14
9b
a5
4a
58
f0
a0
6f
77
62
ca
7a
b7
ab
c2
8b
92
02
61
20
f3
12
fb
89
c4
de
78
c6
cb
74
bf
77
69
7b
62
2b
10
c9
8c
49
83
c1
2b
53
31
ee
9d
4f
41
cb
04
86
c5
9a
41
1e
73
9c
3c
e1
49
be
08
f6
a9
05
c0
c7
69
e4
3b
11
86
a8
21
33
1a
7a
b4
05
8d
e3
04
96
9d
c0
06
0f
c3
51
b2
a6
62
b5
86
02
38
7b
6b
15
44
10
be
7b
ee
4a
a0
e5
ad
d1
fd
2e
ea
75
6b
f3
d6
5c
29
6b
50
d3
fb
11
02
14
aa
3f
6f
e6
4f
08
eb
0d
53
eb
a1
20
79
9f
69
c7
25
02
28
fc
60
66
ee
04
c0
e6
b9
14
27
0b
3c
34
71
eb
9e
9e
93
53
c4
ba
8e
7e
c8
1e
f6
bd
66
90
9d
70
f4
fe
33
76
93
fd
bb
dd
7d
c6
4d
23
7a
ed
9f
42
6b
27
33
d3
f5
98
e5
5d
1a
bb
2c
d7
53
16
2e
db
bc
80
9a
b4
cf
c4
3e
0f
93
69
e3
3f
80
d0
0f
44
59
c0
2e
87
ca
53
36
c3
7f
40
65
90
b0
fa
2b
fc
63
fc
58
31
c5
44
ba
f1
a2
3d
ca
63
79
ca
08
57
31
2d
40
04
65
ee
fc
35
d0
cb
31
3d
6a
d0
16
d7
8e
c5
0d
46
21
a3
3d
0b
aa
2d
98
cc
c9
76
4e
a3
60
68
27
c6
20
73
ff
19
7e
38
af
f4
ad
b4
08
3c
8a
2f
d0
b3
93
f8
2c
1b
b1
4a
7c
0c
59
5d
aa
c7
28
37
16
91
ff
91
ab
75
9d
a8
cd
d6
7b
5a
25
16
98
a8
22
f7
6e
e5
33
03
03
03
24
0b
bd
d1
bf
44
69
3a
be
12
c9
72
26
f1
73
c9
3d
38
7e
f3
8b
d6
e4
7e
1a
f7
c9
6e
af
59
90
26
7c
d5
5a
f6
89
f5
aa
0d
14
01
37
65
d3
8a
04
30
69
39
c2
96
b4
07
8c
d9
75
b4
4e
e3
29
4a
52
44
b6
a6
67
2e
8a
d1
74
fa
9b
d5
45
3e
5f
74
cc
c6
64
3c
c7
12
80
2a
30
64
1b
f3
fa
f4
ff
6a
92
d7
48
60
c0
f4
c5
ff
88
87
84
19
77
25
d9
d2
e4
f9
29
b7
c6
92
3d
0f
e4
fd
67
d1
6c
69
e9
30
35
71
e6
e2
6d
ae
12
c0
e0
ea
19
84
05
b4
4b
f5
0a
55
12
8d
0d
01
a8
0a
76
64
8b
f7
6e
6e
3b
4e
92
f3
ab
29
87
1b
9d
29
7a
02
6c
49
1a
1e
d6
e4
e7
6c
0c
ca
19
f9
0b
0f
11
72
1f
ea
5e
4b
84
f0
3a
bf
7f
11
48
48
55
e0
c7
f7
04
2f
61
a1
88
4e
0e
ac
d5
0b
21
a2
d7
79
0f
0b
35
d8
19
33
57
87
4f
94
ba
12
73
5b
a8
26
23
b1
3b
d9
d3
13
aa
64
7f
e4
0e
de
8b
99
2b
bc
b7
8a
3a
f0
ec
a9
f1
8b
2a
b4
ec
09
dd
eb
9d
60
af
7f
34
0e
b1
ad
d9
fa
73
a9
25
88
f0
23
ca
61
a6
8e
16
6b
89
69
47
d1
91
a6
ab
03
da
d9
cf
b0
3a
9a
ad
7a
d1
f8
aa
00
75
c8
66
d3
b3
19
23
0c
cb
fa
2b
a8
ba
bf
a7
61
d8
80
7b
02
c1
89
9f
81
3d
f9
ac
ed
9d
e9
e2
ed
11
c9
4d
98
58
3a
47
5b
57
dd
2c
26
a8
af
c3
5a
0e
e6
c9
8c
c7
2a
7a
06
31
dc
cf
3e
91
e9
dc
c7
e3
cd
d3
8d
e8
a5
19
4b
d7
d4
a9
ae
a4
a7
c5
fd
80
0c
90
6c
d9
42
e1
7b
06
96
c5
c0
80
fa
27
08
85
33
69
80
dd
e5
54
28
17
05
c6
24
98
a2
64
1e
7e
0b
93
76
e0
e6
c4
5c
45
d1
49
96
6a
66
9e
eb
82
3f
05
26
ac
28
c0
e6
be
f7
65
14
ef
07
65
b6
61
d5
28
ce
2f
d4
f2
8b
c2
bc
63
99
08
23
5e
19
db
76
3a
e7
b9
cc
74
ce
b0
75
d2
3c
da
b8
44
ed
63
5e
21
7a
3d
a0
17
5c
97
49
51
7c
5e
5e
58
27
48
57
db
85
a9
fa
ca
c8
1e
af
5a
16
23
31
90
be
4c
ae
d2
d4
ce
20
60
31
ee
c6
70
2a
22
87
c9
06
26
04
d3
e7
71
b5
65
2c
2c
11
d7
87
8c
90
f8
67
b5
58
34
69
04
fe
0d
29
6c
36
23
cd
35
1c
a2
55
bf
eb
92
f3
1c
91
b3
a0
09
61
1c
18
cc
ca
a6
03
a8
6b
6a
16
f0
0c
00
a4
b1
54
24
7f
5f
85
aa
4f
a6
c8
d4
57
a0
b8
33
2d
cf
09
3c
5b
45
dd
9f
ab
cc
59
85
e3
2d
f5
ea
ee
b0
65
c1
92
20
a5
44
03
8a
d1
63
9d
60
0c
1c
c3
ad
db
d8
3f
cf
e1
ca
3e
b9
6d
93
b7
49
94
88
b2
d6
84
29
95
6b
0e
7f
d7
ee
75
e2
d0
05
54
30
24
fb
65
43
ad
6e
d8
30
05
f7
1b
47
de
f5
99
bd
68
53
38
ba
f2
96
9a
24
d6
58
16
d2
88
7b
4e
c6
d9
6b
26
98
a5
90
15
db
ce
cc
f7
db
22
5e
63
35
7d
9e
45
6c
73
6b
4f
37
cb
fd
22
97
22
33
af
e0
fd
0d
29
75
88
04
c0
fc
9f
6d
19
b2
09
0f
c3
23
00
78
82
b9
4b
4a
3b
ca
6f
f7
4e
1e
78
ec
49
4b
0d
3b
60
f5
6a
fe
bb
90
a1
2a
ef
6b
04
11
5d
45
75
1d
cd
34
2b
25
a9
c9
6f
02
8d
01
1b
e2
ad
dd
69
03
cb
04
5a
25
15
57
aa
4f
96
be
32
bf
89
24
20
9c
3a
6e
dd
de
53
29
55
3d
e6
06
58
ca
b1
07
dc
44
42
4a
d8
78
8b
34
9b
a2
8b
dc
20
d1
5b
05
64
61
fe
24
ae
74
81
c9
fc
6e
a9
89
49
f1
64
1b
61
8f
bf
85
6f
20
50
e3
22
92
74
44
83
d6
2f
d7
e9
fa
9f
df
63
b5
ec
ff
9e
6d
e3
84
44
dc
0b
61
eb
c5
32
60
88
d3
cc
4b
75
13
5b
41
37
93
cb
1f
5d
19
0b
e9
83
b7
f2
72
e3
11
53
5d
1e
56
5b
fe
93
33
da
ad
3d
75
4f
2a
d4
4c
01
7d
91
3b
d9
08
f4
6e
21
02
89
bb
53
27
fd
13
2e
2c
92
5b
13
37
76
10
c9
7a
f6
0e
e0
37
00
23
a1
ee
86
24
11
06
e0
6b
79
36
3e
70
1b
fd
7b
e2
c9
ea
bd
e0
f2
3f
22
c4
f6
1a
f7
c1
dc
8e
4f
d0
b3
5a
0c
66
07
78
21
67
b2
ee
e9
ed
5b
b5
e9
e5
e9
0c
7c
80
85
8d
18
62
38
e2
e3
28
9c
e0
f0
3a
96
6f
b9
b4
8b
61
ae
3f
1f
d5
6e
d3
aa
a1
9e
00
38
46
16
16
50
cb
fb
1a
86
85
49
ba
eb
fe
98
35
ab
10
70
d9
e8
09
5d
4d
a9
40
12
7b
c6
af
3c
8c
8f
2c
26
56
7a
c2
43
de
ee
8c
11
7f
f2
7e
3e
45
7f
68
ca
22
4a
fa
d3
ec
f9
68
b9
4e
42
5c
11
f6
32
bc
f5
b9
dc
ec
8e
a7
b4
ca
f4
67
9c
51
64
c1
90
4c
d1
3a
1c
29
df
1e
68
da
b4
60
e4
4f
10
98
9d
71
c6
03
36
3c
d6
e8
df
dc
97
08
25
2f
0e
d3
51
85
bb
d7
3f
ae
c8
d4
7a
08
cc
4a
5a
3e
f5
fb
53
d6
f4
5e
70
42
96
ff
b4
ea
d1
ba
48
be
59
9a
6b
8b
72
d0
4f
4e
4e
91
db
a9
f7
44
f0
b6
0e
5c
ac
44
57
95
24
4c
f2
ff
96
8f
4c
fb
86
f4
bd
bf
d9
29
69
db
73
fb
5b
0d
2a
63
39
9a
e2
5c
91
03
37
3a
d0
fc
44
38
45
33
f7
c9
2c
30
11
10
b8
67
3e
ff
9c
4a
4c
2a
2c
6d
87
36
8d
a8
db
16
6d
9b
a8
2d
1e
79
a5
a7
26
10
d0
50
86
ce
46
c5
c6
c1
14
6f
4d
74
34
65
6b
5e
75
f7
5b
90
76
ae
1b
d4
98
76
c5
ae
f9
3b
f2
c4
ea
50
f0
9b
9d
9f
19
39
83
71
03
e0
e5
ff
42
70
b0
bb
c3
f7
f1
fe
dc
7d
a2
86
4e
55
68
f7
92
77
ba
8a
48
df
39
7e
2d
b7
db
69
7b
ed
e1
bf
5f
1d
19
72
a3
1a
7b
51
a1
13
5b
1a
32
5c
7f
4d
dd
23
d6
3e
14
73
07
78
94
7e
3c
52
fc
cc
a0
d2
f7
81
ad
44
b4
be
5d
3b
fd
84
2b
b9
22
ec
c3
e1
67
41
7d
f1
81
4b
32
4b
64
55
42
be
e6
07
5b
46
c9
f0
4b
dd
de
ae
fe
2e
31
90
66
3c
2b
aa
40
a8
8e
9c
72
c3
97
2f
c4
6c
4e
8a
43
44
c8
fd
b0
75
fc
eb
49
98
34
9f
06
63
ba
12
12
d9
91
57
5e
ee
b9
ec
03
be
05
5d
f1
3f
6a
d7
4e
d2
b0
2e
b6
6e
85
b0
de
90
10
27
1d
54
c5
e1
50
d8
af
07
0b
e5
9e
7e
72
78
d3
6c
06
38
86
00
e0
79
61
69
9f
0d
f9
c9
17
c1
d7
21
f4
2b
a8
26
e6
20
32
07
de
35
37
c1
3b
0e
1a
7d
49
16
28
72
dd
ab
8b
7b
5d
ff
9a
fd
3d
28
3f
54
c1
ca
7d
0c
db
ab
55
a4
08
b9
5c
d2
91
5b
db
e2
54
09
e6
14
72
e3
7c
a4
a2
63
10
e7
d2
ad
c8
92
e3
38
ff
23
76
91
34
bc
a9
60
67
5f
33
54
0b
5e
4a
c4
ec
fc
f7
6b
c3
3c
4c
c4
bf
b7
1d
75
fb
76
a6
e9
0e
80
54
7a
65
a9
fd
34
d7
8a
d3
e5
28
56
9d
48
81
41
d3
dc
85
5a
24
fa
e5
a9
2b
66
f7
ac
ec
d1
69
0c
a1
25
7b
62
14
35
6f
85
d6
e1
a7
e3
00
d9
45
09
10
b1
2d
68
a1
af
4f
7a
e1
c3
56
8d
7e
24
d5
d9
ba
2c
da
3e
70
af
80
bd
28
d9
d7
f9
ec
ee
19
f8
8f
ba
71
9b
cb
85
a9
6c
ac
31
cb
1b
f2
2a
24
75
c6
1e
52
18
f9
63
3a
49
21
0f
18
37
fb
04
0d
20
ce
ca
46
fb
f8
9f
05
61
79
bc
bf
34
c0
d0
ee
1a
01
49
c9
e1
ee
9f
0f
83
cf
9e
37
e0
ae
42
b6
9e
22
6e
21
62
96
2c
57
ee
62
4a
f5
61
1b
37
e1
e0
88
2f
db
00
8e
09
2d
20
f9
48
d6
6c
e4
e0
03
93
1c
77
15
8e
b3
89
bc
7a
2c
d2
8e
65
16
fa
4e
54
5a
00
be
66
d8
ef
46
e9
a6
3e
fb
17
f5
bf
e1
90
47
64
c3
7c
18
a9
5f
ef
75
42
35
e4
55
17
81
98
99
65
a1
05
84
1d
75
28
c9
5e
95
40
4d
ee
1e
b1
31
87
3a
3c
9b
89
ac
16
0c
95
44
ed
56
37
9e
5e
3f
86
b6
06
12
a2
b0
bd
b4
9b
51
3e
71
be
f1
85
6b
a8
b0
fb
82
1c
5e
11
e8
e2
36
54
6b
38
4f
4b
cc
de
68
ab
b1
d2
4e
ba
ec
1d
7e
b0
33
df
93
0a
af
98
4c
a1
70
d0
73
2f
57
ae
4a
60
ca
05
0a
73
aa
a5
ae
f2
e7
72
e9
01
21
57
2b
89
a0
42
73
b7
99
7e
8c
2e
3c
f3
07
7e
6a
ee
b0
b9
59
d1
7f
99
70
bb
ee
7d
07
b9
45
28
55
50
a7
0e
14
89
86
d3
74
f7
36
34
13
20
ad
7e
d4
d7
d0
e7
3e
a6
66
cd
7e
d6
ba
12
db
05
f6
cd
ab
59
d2
1d
cc
ae
9d
f8
8d
fe
01
12
57
2b
7c
28
85
10
e1
e9
b1
2f
6c
74
e0
6a
53
82
3a
25
12
68
ba
a3
f8
6e
c8
72
08
b3
c5
3e
eb
3d
f9
bf
48
79
63
20
36
04
73
96
fc
1a
cd
e8
29
ec
32
9d
53
6c
f6
3e
f7
e2
37
03
f4
92
66
04
9a
35
71
96
08
32
58
ab
76
94
30
4d
16
79
c4
d2
8d
b3
56
1f
f9
ff
86
9a
85
94
29
3f
11
ec
8b
d0
32
d3
83
a5
34
8d
87
28
e5
fb
47
07
e3
ff
b1
c3
5a
d5
2f
72
b9
15
b9
30
03
04
48
f2
13
be
69
83
fb
9f
e8
05
da
d1
99
d3
4e
00
e4
6c
06
66
d5
1e
75
54
38
d8
eb
c7
67
1c
b8
d1
eb
1f
25
58
eb
3d
c4
4b
61
f6
93
b4
84
68
bb
2e
c4
5c
19
22
e4
b9
56
a8
6c
71
0d
4e
51
e2
86
23
08
40
62
62
58
de
1c
bb
99
e8
77
0e
a8
26
38
de
53
a3
75
f9
6e
3e
c4
bb
57
07
fc
50
ac
77
40
38
0e
15
c2
6e
15
de
2c
b4
63
4f
69
6f
1b
56
f2
34
67
ad
f7
30
e9
a9
69
f2
e9
ee
f3
20
ba
d4
6e
89
c0
ce
b9
93
b1
52
70
bc
65
0d
78
dd
13
da
f7
43
56
3d
88
8e
8f
a7
6f
04
6e
56
51
c9
2f
de
13
59
ad
ec
3c
7f
d6
4a
c3
06
8f
7b
92
82
0d
61
21
77
c6
c8
8f
36
7e
d9
f3
0a
89
6a
2c
2e
c5
db
e8
36
90
f8
e4
dd
fc
c8
de
9a
e4
92
de
86
e9
89
b6
64
60
37
39
08
32
e3
1e
e7
a6
f6
c8
ce
96
2d
35
27
67
7b
67
5f
58
9c
ab
eb
b6
aa
db
b0
59
ea
18
8f
7e
57
70
f1
52
ee
c7
d9
d2
0c
b6
fd
68
5a
87
c2
e4
a0
76
fa
0a
45
56
b0
e0
64
fe
85
79
92
b7
ef
ec
e3
b9
1c
91
e1
9f
37
ce
74
f4
ee
be
69
57
21
b5
5b
2e
db
51
9c
fb
ab
b6
bb
4a
f0
52
0a
c4
1b
46
37
90
7d
52
2e
ac
de
b6
ae
9e
f0
68
7a
b5
be
68
ac
7e
b2
4b
b6
13
3a
1f
29
f1
4c
27
02
a4
4b
13
b2
25
95
eb
8e
df
06
db
a1
bc
00
18
ce
78
78
e8
22
08
23
c1
ff
7a
86
58
2f
0c
71
6b
3a
a7
3d
31
cd
75
7a
09
89
f9
20
90
bf
2b
c6
e6
1f
f7
e6
65
9f
c2
90
f2
e1
ea
d5
a4
42
ff
c1
cf
24
36
0e
6d
39
82
c4
d1
fb
4d
ee
e0
d2
af
c6
d5
b5
d7
21
37
cb
7c
4c
1b
98
6c
cb
4f
e2
cb
50
66
c9
42
2e
e4
6f
14
b3
36
3e
c7
97
40
e5
2c
f9
a0
43
25
3e
e2
44
ba
e2
59
a9
85
49
1a
de
06
72
54
67
66
94
a8
d8
42
6b
95
50
bb
bb
b4
38
63
97
d7
19
cf
b2
27
55
57
8a
fc
a2
6e
b3
34
80
e3
bd
a4
8b
60
e8
0b
bf
ca
45
f5
76
90
cd
77
54
e8
15
29
e2
9f
c8
6a
97
7b
ee
0a
46
83
3e
39
fb
21
fe
36
3a
78
d9
19
13
1b
f8
c8
b6
db
19
f7
3f
b8
21
a0
9a
a9
dc
e8
a8
41
bc
0b
17
1a
50
2b
0d
05
3d
45
28
e6
f3
17
a0
ce
2c
c9
c4
1a
46
2a
0b
d1
5b
9a
fd
53
25
5f
bf
90
8c
33
81
f9
0c
b2
d7
aa
99
5a
f1
fa
96
68
d8
02
eb
54
5e
11
a4
b5
5a
4d
a7
66
98
98
b7
7b
06
71
8c
27
83
86
51
08
94
27
a4
84
21
59
7e
84
a9
ca
81
e4
f5
57
95
2e
70
01
1c
19
e3
0f
5c
73
50
03
4e
58
ac
35
65
5f
5f
60
7a
b6
ad
c9
7b
17
16
fc
7b
2b
81
da
55
ad
2f
fa
31
3a
22
68
0e
7c
f0
e7
b3
dd
ef
5f
2c
e8
69
3c
1b
9c
56
39
96
53
90
ce
36
5e
57
f2
88
93
c9
51
23
ef
3a
50
d4
17
3b
95
71
36
6d
85
1b
ec
8a
25
b0
0b
17
14
65
e8
af
01
dd
88
68
7b
6a
16
30
67
8e
d4
e0
f7
f1
83
3b
01
8d
09
b2
ba
c3
51
8f
45
7c
e8
ab
c6
c9
54
37
b1
58
c8
64
1d
26
18
a1
88
d5
6e
4b
77
a3
e5
f6
7b
98
47
ab
e1
d9
e8
a4
5e
19
ad
41
06
10
e5
98
1c
4a
95
3d
26
7a
78
d2
47
1d
e7
0d
d4
a1
a6
2f
3f
cd
6b
39
44
cb
d4
d2
53
e4
fe
af
b9
0c
40
57
10
76
22
3f
cc
bd
68
34
8c
e5
38
c2
bb
81
a8
41
27
f6
4e
45
d7
fa
3c
ec
de
b1
7d
da
b4
e5
40
3d
09
90
94
b5
85
ce
ce
9e
f5
a4
8f
33
55
45
f5
08
f6
81
55
be
a8
32
93
38
48
3a
10
99
14
5b
76
33
90
7d
5e
dc
fc
1e
70
a6
9e
e9
34
bb
d7
3d
60
be
51
31
6b
8a
40
1a
45
e4
3e
e0
d9
dd
4a
40
05
78
fa
67
52
65
12
62
33
f0
46
6e
ff
2b
54
e3
b8
1d
7c
5a
a9
f5
ca
bb
dc
f1
e3
35
fa
99
a8
24
e9
4d
fa
43
c1
70
49
59
04
d0
13
71
4f
87
ae
fa
02
11
5e
c0
f6
1d
8e
0d
a8
1a
8a
91
4c
42
76
9c
98
50
23
78
a9
c2
c9
fb
d7
9a
ec
5f
cc
bc
dd
90
33
0f
d2
4c
aa
c2
20
d7
23
15
35
ae
d6
e8
4c
ee
6c
22
02
df
b8
85
9a
d3
2f
62
bc
19
2d
e4
0b
14
e3
b6
1b
e6
99
46
0f
72
4d
ba
67
3d
3c
5e
b5
e5
cb
af
6d
dd
8d
a5
62
3a
d4
31
f4
84
24
a0
6f
d9
95
7b
9b
51
1b
ad
39
a6
f3
bf
4d
4c
5f
cb
06
88
7a
36
2d
7e
3a
ac
da
76
f1
2e
f6
a5
dd
5d
d5
a9
cc
ae
19
b4
2f
64
af
6d
f9
1b
a1
1c
bc
c3
1c
d4
c8
59
11
d9
cc
32
e9
58
d1
bb
ad
14
ad
d8
b7
16
e7
82
12
e8
6a
96
00
56
b8
0c
05
f0
c4
3e
c5
fb
85
a3
8f
f7
8e
43
36
6c
ba
23
ae
4c
08
31
5b
05
e4
ba
23
c8
53
ea
54
6b
16
ac
3f
ee
a7
45
1d
60
53
99
c9
83
38
e5
3a
a8
a5
37
26
09
fd
60
fc
6a
06
44
c2
a8
24
a6
08
7d
b4
76
6b
66
bc
d3
56
61
3a
db
76
e0
5c
62
a4
0d
10
1d
62
d0
65
33
f2
3b
7d
bd
c8
75
4e
55
41
fc
74
f5
5e
7b
89
80
c1
b7
a5
6f
ac
16
16
c9
f6
5b
7a
6e
13
76
2b
b7
15
07
f0
36
4e
d7
40
6e
e2
af
12
b6
40
70
19
3c
91
0e
6b
16
80
e1
58
78
ad
e9
ff
7d
9e
af
56
3a
17
8e
0e
39
c6
41
e4
54
f9
bf
f0
d5
c9
ca
0a
2c
c2
9b
49
61
96
a7
52
ba
70
da
db
df
0c
c1
66
dd
11
d9
eb
0f
38
54
6b
d2
32
76
0e
06
85
20
d2
2d
f6
67
94
63
65
8f
c8
dd
0b
22
4a
04
8f
56
59
a5
df
6f
86
23
2e
8c
91
65
4f
5b
d7
e8
74
b0
4d
44
20
65
24
d0
8a
4a
93
61
9b
e2
d4
9c
97
aa
9d
60
76
a2
15
19
c6
83
2c
b5
ae
8d
83
e8
e3
f6
fa
8b
d7
e1
31
4f
f2
d1
50
64
9d
dd
1c
26
60
54
25
c1
37
9b
1b
96
43
8b
ed
bf
13
81
4a
07
8a
11
70
b9
fb
d3
ba
0e
56
7f
e7
56
c0
5d
58
cc
18
bb
20
8a
49
97
f9
e2
99
0c
eb
58
54
d0
c5
bd
77
1d
65
68
ab
78
c1
f0
8a
16
81
95
38
b9
2f
47
45
27
9f
94
0a
80
0b
52
b8
2e
38
7e
fd
06
fc
75
b1
ee
56
8d
88
a8
d1
31
bb
b3
72
b9
7b
0c
03
b9
ad
09
39
70
23
5e
4a
80
48
b4
74
f3
97
14
38
34
a1
9a
14
b1
54
d3
b4
aa
65
88
5c
54
67
03
98
93
13
ce
c3
2f
50
7f
55
bf
81
49
d3
c4
7a
76
15
71
f7
db
4d
c2
b1
a6
17
57
a3
08
12
d3
8f
45
4e
1e
f9
34
0d
f2
76
43
b5
db
26
67
b7
85
3f
8e
16
6a
8c
e2
8e
5a
84
a3
87
49
c5
fb
37
80
76
16
81
ec
ba
7a
20
51
4c
7f
52
bc
04
a1
69
50
37
8b
9e
01
b3
6d
a6
75
9d
47
cf
a8
3d
9d
e8
2e
7e
0f
92
21
a6
cd
60
10
59
7d
eb
0a
0a
cc
0b
aa
59
e9
7d
87
45
78
78
2f
9f
1b
94
da
6d
7e
89
09
03
fa
51
af
15
c7
fa
cf
7f
67
9c
4f
3e
82
07
ba
dd
8d
f2
58
a3
8c
9b
25
4c
0a
cb
28
27
27
d0
12
33
8a
f3
fb
4e
4a
d4
f1
ba
7a
2a
01
10
48
e2
de
c2
f2
1c
96
83
b5
ff
99
4f
34
ac
b9
29
80
cd
d1
4f
af
0e
91
0b
d5
4a
a5
96
e3
4d
07
ea
0a
e4
45
77
dc
94
30
f6
a5
79
03
b3
f5
66
bd
18
12
b3
b1
9d
aa
6e
74
ce
86
f5
64
b5
01
55
bb
66
c3
59
8a
ae
b2
b7
aa
5b
10
0a
88
90
df
76
37
90
7d
52
72
fc
5d
d9
ae
96
e4
30
ba
f7
f4
c4
a8
55
b0
6b
a1
e1
d9
e8
8f
1f
29
ad
41
44
1b
e0
bb
34
de
bb
3e
36
02
7a
60
03
cf
43
4d
14
13
e1
3e
2e
c0
50
ba
ce
e2
70
b7
5b
51
79
ae
67
0c
56
1f
11
74
c6
2a
c5
a8
de
ad
2e
c1
70
cb
b3
c0
8c
01
eb
b6
02
cd
14
92
41
f2
54
23
a9
37
80
ff
c5
eb
7d
1c
2c
68
96
ff
7b
e7
30
de
b2
e3
c2
49
97
7d
d6
5b
10
ec
68
a7
57
ff
49
69
7f
f7
d0
8e
79
34
31
f1
2b
69
aa
f0
f7
ca
92
a4
5a
4c
37
e8
04
6c
1c
20
a4
45
fe
84
a9
71
b9
97
c9
45
7c
08
2d
5c
b3
66
d3
9b
23
6c
6f
d8
c3
66
7d
71
03
71
26
09
74
4c
f2
79
d7
8e
8f
b2
bf
92
84
c9
59
a7
94
41
81
81
36
92
c7
1b
4d
d5
0f
b0
d1
e7
85
26
eb
74
6a
61
99
44
7b
bc
f0
97
a9
da
18
b8
f3
82
00
e9
d6
7c
52
72
41
de
db
9a
8d
ec
0a
1c
11
51
fb
2e
09
74
67
de
f2
42
ab
1e
95
b4
d9
31
b4
f6
c4
42
e4
07
c0
fd
2b
21
0a
84
87
9e
59
0c
5f
64
56
72
36
0a
f0
b3
fc
ed
68
13
99
67
26
6e
cf
9a
ce
b0
7d
9a
0f
98
6c
7d
2b
60
45
1e
41
d0
82
91
62
cf
ca
cc
16
fa
06
22
84
41
3f
fa
15
76
78
7b
06
a6
03
b4
9e
7a
67
eb
de
b5
fd
89
d9
61
12
54
d4
65
1d
2d
8b
00
0e
56
35
e5
26
90
d3
97
b5
f5
b5
d3
4a
45
11
e7
cd
cf
2d
8c
98
1d
90
e7
ed
c1
1c
d9
f7
bf
b7
45
39
ff
8b
6b
dd
06
02
d9
82
a9
69
62
bc
53
a7
33
9a
5e
21
4a
f1
32
0f
bd
cd
6a
42
fa
94
c9
2c
44
cf
d6
bb
57
4b
1e
ee
d6
b6
b5
e8
9f
98
5c
0b
f2
c5
d7
02
86
db
f4
34
33
20
d3
95
53
55
57
1a
58
95
8a
a3
2f
5d
58
81
ce
c7
8b
4e
3a
e1
19
d2
7a
8a
56
eb
32
1e
37
fa
c9
d5
75
d4
ae
18
a8
8f
b5
cf
a7
f6
f3
a1
ce
13
99
58
30
29
70
83
a2
52
5a
3b
c4
9f
f0
2d
60
71
d7
20
3e
5b
88
70
64
ec
f6
d6
5e
9c
0a
80
b4
e7
a9
c5
75
9c
c3
64
80
c5
c3
27
43
1e
91
9b
fe
83
83
82
76
76
1d
4e
ca
c6
a2
01
9e
e9
d7
88
70
84
39
c3
97
ec
2e
2c
2d
e6
02
52
1d
5b
e2
3b
d7
02
98
01
9b
db
7f
1d
35
4a
69
96
aa
c1
8f
45
f9
59
bc
cb
96
c3
b4
51
13
e1
1d
4b
3a
fe
af
8f
0d
5a
dc
16
67
a6
62
72
80
20
49
bb
79
ce
08
97
9d
2d
4a
12
4d
ec
29
24
9b
a9
3d
03
6a
f1
12
c7
86
e5
08
47
e5
a3
2d
bb
89
09
88
c8
c3
56
ec
23
a6
60
26
d7
69
16
2f
59
7e
2c
ae
f4
fd
60
28
74
e5
24
d3
73
93
c0
ec
3b
91
0a
64
ed
bd
b2
d5
3b
a6
0f
30
02
5d
ee
c9
96
98
d0
bd
3d
7e
d3
f8
46
ee
e5
bd
95
57
e3
0b
40
4c
06
d2
a2
ea
04
8e
c1
70
d0
ad
d5
6f
54
33
21
b9
c0
ea
0f
a3
4a
a4
9e
d1
5a
c1
97
6d
f6
bc
7a
08
c1
44
fb
3f
57
b3
e1
6e
52
08
d8
9f
53
41
b7
37
50
da
ba
14
d3
bf
35
40
29
52
a2
7d
e9
23
00
7c
23
c6
12
3c
bb
04
a4
b9
4e
38
85
b7
94
c1
e6
ad
c9
c1
3f
42
0a
8b
33
4a
9b
54
83
65
7e
bf
02
89
f1
fe
04
40
0c
2a
ff
21
ef
16
81
ed
cf
ba
ef
8c
a9
ad
fe
fa
20
20
62
8f
d1
61
66
6b
c0
e3
ff
d9
14
2f
0f
9f
75
6b
7a
da
21
c7
5a
88
7a
3e
15
d4
5a
7a
e0
a6
d1
08
d6
e0
68
5a
71
db
e5
8a
59
73
9f
40
df
d8
b5
b0
d6
87
59
1a
33
6c
e0
fd
bb
4c
93
f0
0f
af
ce
e4
da
e6
b2
2d
37
25
d2
5f
06
55
51
31
a2
33
d7
ba
1f
d0
7a
4b
f4
9e
6a
56
b0
f5
73
2e
e5
18
71
8e
8a
f7
36
f9
f7
ea
44
88
7a
22
2a
4e
20
69
c5
95
fd
09
37
56
85
6f
dc
2b
35
dc
af
f5
66
5c
68
a7
ce
c1
e4
c0
f3
ec
c1
ea
2f
c7
13
a8
2f
8d
6b
ab
1b
42
61
f6
96
58
32
7b
35
7e
3e
2a
d4
7a
f8
aa
ac
20
b5
59
73
25
94
78
15
a0
2f
27
b9
d6
e8
d5
88
56
28
3f
ca
9b
18
24
2c
6d
df
9e
66
1f
1a
e3
ac
d7
04
98
8b
99
ea
be
49
dc
ca
7b
17
92
45
15
5d
eb
d5
38
fa
f3
c4
b0
ab
1d
a9
d9
8b
a2
7f
02
8d
0b
db
ed
1b
d5
87
ca
ba
0c
01
bb
21
42
0f
1e
02
14
be
7b
0e
60
78
9c
4d
e9
ed
35
6b
a8
a4
13
e8
8b
32
29
78
ae
06
c0
b7
a8
b8
29
1d
79
49
f1
3b
0f
24
c1
79
58
a3
a4
9a
44
3f
73
d0
be
71
13
69
85
8f
a6
68
1b
f9
44
b9
f7
1f
d8
6e
0b
87
a8
67
e0
c5
45
94
6f
67
e9
69
92
a9
6b
0f
a0
ee
99
83
a4
bb
61
f6
68
85
81
b6
77
3c
b4
6c
c4
12
e6
c2
5e
2e
c9
84
8c
b1
4f
54
f2
37
25
51
1d
00
ac
6a
f4
26
83
61
2a
e8
f1
42
b3
ae
fb
11
7b
5b
3d
56
6e
15
00
49
77
93
26
f8
52
06
6c
bc
1b
fc
31
36
b8
ab
46
be
2f
e0
35
c6
a1
a0
2e
82
1d
b4
fd
d1
25
79
26
3c
94
1b
df
f4
ee
5d
6c
bc
e5
b7
19
56
ec
a4
1a
d7
de
75
09
c7
91
ae
a5
57
ed
ed
c5
56
83
89
c1
13
db
a4
de
a8
5a
9f
f1
17
47
7a
44
d9
bf
87
87
14
27
e4
3e
3e
93
fb
5b
5a
0b
c6
da
de
cb
84
ae
f1
4e
03
54
81
77
37
98
94
89
bf
15
0c
67
74
52
01
c7
0b
15
65
e7
7c
d9
70
39
e2
8c
7e
23
ad
50
24
5f
67
28
3f
02
54
79
30
af
6b
e6
07
5e
cd
f5
16
26
63
3f
3a
6a
22
d0
0e
e2
d7
f6
c2
e0
5f
9c
00
26
c8
45
31
e8
0d
bf
e7
ef
6c
a4
ae
84
20
c2
b7
cb
b0
c0
ea
c2
80
26
d3
ce
fd
d7
b9
b0
fe
24
c3
45
e8
ef
9e
bd
da
0c
d3
5e
33
28
27
cf
72
dd
0d
fa
ca
0b
61
92
ca
2f
32
93
91
ad
67
54
48
2f
5d
c3
50
32
eb
5b
c0
5c
31
2a
5e
03
85
f3
5a
6a
37
e7
4f
31
33
8e
15
4e
27
76
ed
7f
63
f8
16
9e
b9
e4
d1
d7
50
ed
6a
a1
df
54
04
2d
f9
61
b8
18
e9
4b
dc
0e
25
97
5f
25
23
8b
cb
2a
1c
1a
80
69
95
fb
56
5a
c5
1b
52
0e
92
96
33
9f
10
7b
8a
09
55
37
4d
b3
94
0e
37
54
8c
35
15
93
e1
ee
72
0e
bd
be
1d
59
f7
d9
02
fb
8c
5d
47
2d
5c
30
01
f2
a3
16
7e
9b
d4
76
16
57
33
64
8b
05
2d
2a
43
94
c4
f3
3f
22
25
e9
1c
c0
2b
42
93
c7
b3
6a
8a
11
d3
3d
4f
ae
08
89
a1
88
0c
8a
a6
de
af
30
ba
79
81
c0
e5
fb
8a
e5
e1
4d
72
24
a3
e0
63
0f
5c
c9
c6
e3
1a
d9
74
5c
50
27
2b
fd
d8
d7
5b
36
31
c9
d9
86
bc
00
32
c1
5b
72
cd
5e
54
83
d3
90
67
ef
37
fb
b6
50
3c
48
86
1f
bc
22
8a
0a
a1
2d
b2
36
9e
be
4a
20
75
fd
ef
2e
68
38
90
43
8c
45
50
38
eb
b8
0f
61
91
3c
49
d8
10
d8
43
d5
6d
ae
7d
65
ce
bd
e6
a8
4b
32
aa
83
63
be
e9
0a
61
01
8a
c5
2c
a9
c0
cf
f9
f5
9d
89
df
4c
a7
de
02
96
da
ad
72
94
ba
50
8a
63
d0
40
91
b8
c5
58
1c
93
12
5e
0c
94
3f
c4
6e
fc
e6
97
52
57
04
10
f7
97
94
9a
79
76
ad
c2
32
89
e5
b1
33
c5
17
55
41
12
42
84
0e
90
3b
13
ad
7d
c1
89
06
79
1b
9e
5e
31
5d
43
7a
f4
70
c6
1a
38
8d
1d
9b
ab
5c
1e
77
bb
b6
21
3e
a5
33
37
f3
a9
a0
b0
20
c7
fb
be
73
8d
b0
8e
e0
88
4b
b7
c3
3f
a3
a1
98
9c
77
70
a8
71
24
12
0d
c8
2a
d6
59
bf
4e
ef
bd
82
ef
02
a0
79
36
77
9d
3a
db
20
fd
67
ef
2e
63
08
a1
33
64
05
71
1d
cb
ed
ca
e4
a1
58
6a
b8
5d
d0
4d
85
71
6a
3d
e7
7e
54
b6
b8
0f
9a
8e
de
43
b3
e8
9d
61
83
f3
e7
78
46
df
47
ab
4c
1e
72
bc
b6
40
35
81
eb
ae
7f
8c
0e
5b
31
e5
a7
60
2a
62
80
43
93
0e
5c
5d
74
28
78
4f
00
60
7c
0e
be
25
34
2b
07
01
26
4e
91
5c
05
dc
a9
3c
a8
8c
f1
61
26
01
fa
33
d8
82
67
53
29
7c
eb
c2
c2
d5
5a
a6
0f
a4
8a
f7
81
6b
76
24
c4
6d
f5
42
8c
9d
23
49
e2
06
88
e7
44
74
f1
f7
63
27
49
15
40
13
94
36
46
63
43
8d
6a
63
c3
d6
af
66
6d
15
fe
2e
0f
9a
5e
68
ea
ac
19
2a
c1
cd
29
e8
ee
19
b6
09
b3
f9
ff
76
0c
f8
f6
f9
99
ca
00
02
50
82
62
52
1c
cb
80
e9
d8
2a
2b
df
5e
9c
b2
ef
84
ec
26
e7
13
d6
19
94
f0
b2
57
82
38
2b
75
85
cb
da
86
55
d2
d5
03
04
f5
07
5a
91
a7
0a
d6
b3
11
a7
67
fa
bb
32
69
52
68
e6
2d
61
d1
0c
c9
37
90
e0
00
b5
0d
9a
76
fc
66
27
92
67
ec
f7
6e
61
f5
a2
a3
e4
b6
48
65
16
f0
62
a7
ac
86
3c
48
23
9f
5a
fc
3d
a6
d1
25
b4
b4
4a
e4
a4
12
92
9a
b8
9d
a6
93
e6
14
ef
9f
b4
99
f1
ae
0b
36
f7
af
ad
71
71
9a
10
b9
3d
46
d2
a8
c5
54
fb
58
37
47
e1
0b
4c
44
4b
92
32
ea
a8
0e
85
f0
d0
2b
c4
6f
04
79
e5
ed
98
c1
1f
26
5b
b2
aa
0b
08
e9
d3
27
c4
be
7f
98
d1
9b
3c
91
22
56
00
95
3a
7f
7e
4c
4d
98
57
ed
c4
56
60
ae
a1
c1
2c
43
54
e5
ca
f1
3f
cd
95
4c
82
5c
24
ff
69
c7
2f
0c
45
d1
ea
b5
e8
e5
1b
03
a9
57
7a
d3
69
52
e9
30
8b
c5
2c
39
a8
e6
7a
ee
89
ba
72
3b
53
28
e6
4b
32
79
dc
6f
13
21
65
ff
e5
06
55
03
d1
9f
94
60
8d
5e
da
3c
e9
b0
8a
22
a1
dc
18
dc
4e
4d
20
65
6e
1a
a6
31
a1
81
fe
7a
a9
89
6f
66
81
de
63
c2
86
57
eb
2a
30
c7
42
90
b4
2f
eb
6d
5a
1b
da
e5
67
d2
66
1c
d8
44
15
8b
93
15
5d
3b
04
18
cd
95
c5
1c
be
94
61
f4
c2
a2
6d
82
06
08
04
40
26
f3
84
76
9d
79
16
9f
4b
ee
3c
86
d4
a5
95
15
28
ca
ad
70
ae
87
d9
bc
c1
fd
18
d5
ac
89
e2
92
96
25
ad
45
94
3e
6c
58
27
92
fd
19
30
ee
73
d0
47
ce
c4
e1
16
23
03
0f
02
48
c4
b0
fc
e3
56
c2
e7
ec
f7
83
e8
66
ec
2c
19
c4
6e
7b
ef
a9
c4
04
cf
a5
69
c1
ab
47
e0
00
7e
90
92
76
14
ba
53
c5
81
6e
38
88
49
1a
1e
ad
34
77
64
6e
d1
8a
f9
e3
16
40
2b
67
90
3c
aa
36
08
30
82
ce
c2
7e
7f
56
65
b1
5b
be
37
34
89
d9
3e
8a
c9
5d
2f
e1
ae
db
03
82
d3
24
5e
a1
3f
0b
ce
13
e0
7e
13
c2
05
a8
74
45
e1
f6
a1
ef
8f
bf
6c
0c
2b
a5
fc
f3
6e
2d
d2
50
7f
e1
ff
4f
94
fd
b4
d3
de
47
3f
ac
f1
73
7e
9b
3a
c7
0a
00
66
76
11
52
5f
3a
e8
1a
f1
eb
d8
e0
64
48
71
9b
cf
ce
d8
b1
6f
54
33
b6
65
71
21
4e
8e
a8
54
0a
13
1b
b1
c5
62
aa
d5
84
cb
c9
b0
4c
1c
ea
23
5c
f8
c2
00
76
37
15
70
74
3f
47
84
98
4e
6d
92
b7
d1
c0
64
a0
db
94
70
81
88
8e
b3
8e
9a
2d
64
37
56
fe
c6
01
f5
aa
9c
02
5f
4a
09
ac
f6
8d
89
a0
02
d4
c9
a3
e0
25
5a
60
84
21
04
01
d9
65
eb
ee
4e
c2
e1
b8
bc
27
5b
34
b8
d1
a9
1f
aa
a7
5c
d5
bc
8a
7f
00
5d
e6
6d
0e
12
1f
51
d5
ef
ad
70
ba
fc
b1
98
54
9a
ba
8d
2e
ef
c9
a0
58
8b
bd
4a
10
da
28
5f
27
4c
4e
79
54
59
43
68
1b
12
bb
4a
be
1a
b4
b1
28
f2
5d
42
c5
4c
15
37
85
e5
76
fb
25
a9
c8
6a
83
81
0d
01
81
8e
71
69
17
cf
95
0e
43
03
51
a6
57
a4
7e
3a
f4
43
71
4c
4f
e0
fb
9d
9b
17
14
3d
33
27
8b
e4
0d
eb
af
d0
98
09
1e
c2
c8
cc
b7
b2
a7
fc
4d
d5
18
ce
54
34
87
0e
74
3b
7e
87
b8
06
76
33
b3
74
31
ad
4e
35
ba
a3
35
08
15
59
d8
65
61
75
9c
c5
9a
66
ee
ad
22
8e
3d
10
43
a9
ca
8a
a5
e0
4c
73
0e
a9
62
24
ea
74
e5
e4
ba
9b
1b
48
58
60
b5
62
f5
ff
36
41
bd
ff
ad
57
80
58
67
74
03
81
3d
69
f9
78
96
8b
b0
53
af
37
eb
ae
45
5c
0a
86
92
fc
1f
52
2c
a5
dc
1c
69
5c
0a
0f
60
23
ab
fc
3a
39
8a
53
49
4c
40
7d
65
36
3c
bb
22
10
20
a7
96
05
9c
2f
04
25
a5
1a
b9
c6
75
8c
e1
7e
8a
ac
01
6d
ce
08
9a
2b
c8
87
85
4b
3a
f0
b7
2a
92
82
2d
95
64
3a
bb
41
bd
f3
df
8f
b1
b2
0e
5d
82
ab
95
1e
f9
2c
27
22
b9
d0
10
0e
da
44
c4
ef
99
de
43
07
00
a1
ed
7f
5e
a4
c6
58
5a
36
9e
0b
54
1e
f2
94
ae
fb
37
5c
cf
6d
ba
d0
19
dd
bd
bd
7d
1e
3e
cd
0c
fe
53
a1
be
16
5c
cb
15
89
20
3b
b3
ea
34
39
1e
95
39
a2
49
c9
b0
2f
de
ca
a2
60
f2
6e
6b
90
38
1c
0c
a4
b2
18
ad
dc
57
94
aa
6f
8c
14
c1
13
03
00
99
0b
cf
cb
2f
53
67
5f
bf
5b
8c
5f
89
10
5b
49
9e
4e
03
b9
63
92
d6
e4
ae
44
19
1d
5e
a9
7b
54
46
73
9b
92
8b
76
85
32
77
89
88
c8
d8
8c
e9
d3
bd
61
4d
71
2e
6a
88
4b
d6
bb
97
a8
af
88
fc
27
62
a8
21
0c
10
3b
88
88
00
bf
bf
22
79
78
db
92
4c
a6
82
da
dc
58
04
25
58
da
60
50
7a
01
8a
79
d1
65
4b
df
67
70
38
2b
07
70
28
e4
d4
46
7d
3c
54
e3
21
f5
9d
b9
64
ad
cf
7a
a5
c4
f1
29
cd
2e
d0
6b
90
01
a6
2a
ba
3b
15
6a
1c
f2
d0
48
c9
fc
e0
fb
05
af
25
1e
c2
e8
a8
34
ec
f5
2b
74
8a
72
c1
4f
ce
76
9c
02
b1
ab
6b
1d
4c
89
88
c4
eb
7c
87
47
61
79
2d
47
24
a4
6d
39
9b
ba
3b
63
39
6f
a8
0e
a0
78
c5
af
a0
80
40
7e
82
11
27
ef
4d
f8
31
e3
fe
ce
52
86
91
1a
45
33
b0
4a
31
29
10
96
3b
28
bd
63
9c
9f
5e
e3
a8
43
e4
2a
92
1f
02
94
8c
87
ea
94
3a
4d
db
16
b2
c7
e4
5c
40
17
27
1a
31
28
df
d9
72
d3
55
5d
bf
69
de
59
c0
84
e1
b4
f6
af
b2
cc
c9
34
a0
a5
df
aa
c0
99
51
3b
a4
8a
74
e3
69
dd
e5
04
c7
76
48
76
09
01
37
ef
6d
bc
e3
9b
d6
e1
cb
44
8f
3e
27
f5
c1
55
7a
ee
7e
52
96
96
c5
66
eb
74
fe
26
05
ba
aa
cb
4b
02
59
2f
ce
4e
99
dd
a4
37
c5
44
ef
02
4c
95
76
d5
a3
7c
50
77
f7
96
ab
dd
a1
b1
1f
17
6b
08
90
e8
db
d3
ff
d0
0d
6b
ab
a1
8c
eb
16
b0
5b
a5
bd
98
5c
67
64
a8
75
6c
ce
af
aa
2b
c3
d2
ba
6e
18
0a
18
15
aa
66
c8
49
d2
37
e7
25
cb
00
9e
c9
3e
a9
a3
d6
0f
dc
e0
dc
8b
f5
a5
b0
39
11
03
8b
94
2c
c2
d3
8f
45
68
6a
8a
c2
a1
42
27
f1
7b
b9
0d
9a
56
0b
ab
a0
7d
24
d1
cf
a8
63
b2
fa
9a
25
4d
4f
d8
e5
a2
9e
62
ed
d2
36
ef
e5
35
b1
dc
97
a3
8d
e3
6a
f4
d3
e6
bf
e2
35
e3
75
5b
36
47
09
b8
cf
aa
b2
7b
db
da
38
e9
f3
9b
4e
73
b1
fd
5a
3c
de
98
5a
08
96
a8
24
d9
b7
49
c0
2c
37
68
08
83
74
e5
56
40
3d
97
db
f9
5e
00
b0
dd
c2
26
d1
45
17
10
2d
59
0a
6b
7f
67
ca
a6
3e
c5
f4
28
f4
3f
c6
75
ac
f0
ba
17
ae
c1
79
44
88
cd
da
85
77
17
a5
c9
01
f5
c7
10
a5
a7
2c
ba
3b
41
ae
47
de
9f
76
23
46
2a
56
e5
e3
73
9d
4e
77
88
69
83
bc
6d
ba
a9
e5
17
26
53
df
68
76
ec
43
f4
1e
89
a0
e6
0f
14
7a
e6
22
0f
1c
c6
3a
18
b0
cd
18
34
3e
be
61
ec
b0
7d
62
8c
24
d3
ae
8b
a9
85
c9
b1
d6
5f
24
c2
6e
db
b1
2d
a7
77
8d
69
4c
aa
6d
ad
ef
2f
72
4c
b0
21
e4
cd
54
d1
79
cb
86
e3
00
49
53
3c
3c
be
f9
c7
4f
78
59
47
46
db
f4
b8
0d
12
ea
68
f2
fe
e8
8b
cf
88
7b
e9
74
c5
cd
e2
d8
46
9f
0b
03
64
09
3f
4a
96
75
d2
eb
f1
b2
54
d9
92
8f
85
cd
71
24
1b
fb
fb
b1
0e
6b
87
54
d4
f7
b7
9c
41
ad
08
52
f9
3e
4b
84
42
2b
d2
23
9e
9b
74
3f
a6
94
95
96
23
70
c7
ac
08
a0
11
d9
3c
b1
7d
3f
