c7fc01f7
0167ffef
936e0210
defb71bc
6e7d038a
43f5ba0e
06028fd0
7d97fe7e
104d07ef
bcdc6f37
80000361
de6d06ff
805344fe
e737fbec
f24ef86b
37da499f
5df0ff08
2f8ec0c2
3403fe04
b23f60bd
fc4a07ff
e4e27133
9120647f
ec013cfc
d740003f
7937ff80
ff8ffe81
b82becef
003fe279
d892499b
7fc4bdb4
49246d86
890d2360
a007b7fe
d93e82ff
d22fc1e4
d013d7e0
0126fb42
dfd13702
390b3c86
4c9b4448
52427c92
449ba7ff
46401008
3e7a007a
dc904d34
77f7ff82
2369e4a4
5f28d03f
09c99a5d
dff24fe2
17f06824
f1212444
6049f91c
649905ff
7f24d34f
100000fe
083189b0
48db0b41
1a49a7c3
9c924801
4120106d
007fc012
7c924da7
e904007e
07ede427
8009c1b9
fe41f369
7a00490f
b6ffa980
e8b46d04
25ea9800
a5fbedb0
05380005
0613f400
bffa6d20
c04ed257
6f0da705
347a7835
4907fffe
fdf0003f
4e836df0
ed049eb8
2701a0e6
0a8682fb
edfbd07d
e76ffafd
b4d0683f
f0713c03
2f96a80f
892a6527
f2208482
106fcb7f
e6d84bbc
69ff127d
e249a098
2660327d
701f0081
9349a4c1
f8920d26
b07ff37f
de4db60f
bf7246dc
b636123f
fd96dc05
93034d9a
626a6fb5
efc984d7
009d343d
26bb1fba
ed7e00fc
e7e11a06
7db7e068
a377c6fc
bffc203c
ffe4ffb0
000fc9e3
dbc380fc
febfb3ff
feff5f59
fee13dc1
f9bfff87
e3afff23
343dbff6
fefeee44
1c4fc5a2
b87dfa4b
fdc03ff7
3c3e37ff
4242f21f
0019da5e
e002781c
3fbfefff
fff803fe
ffbfc122
4098fe00
fffde0b0
a4b26b05
5fe1f0f9
fe0b000b
61f04695
4eff96c1
407825ae
000fdfe1
00fc0000
ffc5c240
43f600ff
3f638b71
fe3f1f90
02c050f8
a81701e4
6a4fffde
00603fe1
f8100137
8fc0cd07
0009f420
e009600b
7fffb216
80765ec9
c01c7136
8e000060
008fb7c3
0ffefb64
0000800d
c3c13d00
7f344df0
bfff2231
006e07e1
77db81ff
e7017c0f
fffe1f1f
1fb00866
e9e45fb8
e7e9f480
f422c13f
dfe96269
1248080f
17f47f02
40a01e8c
d3f93c10
b843ffff
00300428
6d8e00a0
f4e0b647
43f82469
c022c800
2f00003d
fd900000
ff9fffe3
c14b0010
80363efe
54f7fffd
77e3f003
11f5ff8a
000fdf50
091fb27b
761f8021
9849d8f2
4a245c90
8600fff2
98f01f6d
0004bb20
fe006592
e5a21b2f
41eff6f0
f000fdfe
00368002
cffcb3f7
92c92f43
f1d9b428
e006fe09
1324fb5b
e0b3c804
20fe803f
bdb1e006
2401ebe5
01f80004
a6fffff1
299608fd
0821f058
fe005a80
1ff03d17
037f9fc0
77f96f0e
0036d9e3
03fe4fff
7fc21df8
2fffff00
800be018
43dfffb3
21f9032d
2bedfff8
acd00dc0
8003da6d
f203ffd9
7e3f6df0
034801f0
fe1f8e07
0000f077
e80fc03c
7810002e
0dbd03f0
dcb07409
8127f80f
0018bf51
99bfddd1
169c4fc7
4180ff9c
000d0490
f864ffff
4fc2017d
19143907
07fd2049
0c8de5b0
61be0010
092593c9
ffefb610
16f7db27
93fe7824
f097fec6
00327fa7
dbb79166
fd0c7fbf
2793cf24
c92fc1ff
5fdb2617
ebcfdb2c
2f6cb7ff
f997bd80
66b95b3e
2701ff59
c93f8021
fdb4a4d4
192c164e
ec4964b2
7f46cfef
d1da691f
985f65db
edf6fb2c
4fd893d9
c91fed96
67fed964
3f132b83
c8d9c9fc
2202432c
486cb619
3df327bd
24d21f65
000f60b2
703c00f0
41f7c0a0
b78481b9
0810093e
1a40e7c0
00e03017
08200000
5bbe3fe8
f99001f6
f00b1fff
efedff2d
b22d9e07
01ff1b41
6000d86c
121d7f9f
42df6e80
8df41f04
7ef269b0
7ff807f0
13f3ff02
580c87c8
f1b4f418
1c0ee793
84fe7db8
41bf7ef9
e0103d1c
07c269c0
6d9eff81
8391d810
42d919a7
e9f8e473
13758007
30f07e3c
91788001
806918bc
57009600
00340c3b
b87f8080
47f3af42
a1ffe421
f00f20d9
fcd8683e
4927ffe9
0203c8bb
fe800980
e03640ff
fc40dd7f
9ed80ff9
685ff07e
fa2bf8df
e413993f
c205ffef
ffc985f3
ff0400ff
000bdbff
0201f200
03370640
920b2000
05f6583c
40ffffc0
fff834f2
001bc00c
6ffdfe5b
d7c007f0
fcfe5aff
c4b40c38
b6492ff1
14f03c00
efa5b780
89bcbe00
ff93c504
a03e4c31
8e7880b4
65255eef
d9a021f5
722b9906
00286393
031d71d9
8b418e4f
cbfba490
f21f8ddc
0ed77360
d2b3e985
850df276
4f098c87
c3b04fb8
246849b2
f69f62f3
69eb4427
f9087790
81c08000
0520c7eb
000696dc
edf400de
c046cfe3
410301bf
80202c96
ff923fed
04d97c00
01cb2500
236df000
9a407010
fcc0c812
04b0000d
5b007f2d
07d8025a
0075b534
596f0024
b6c08db2
0348db6f
b6132e90
01bfda29
000e8110
042596c0
e2ffc3b6
fa4d248c
b910be00
12c11a4f
d869b43b
c28f3ede
b7b49016
85bdfed3
d99e6d3e
8e4fed3d
7fa5b690
b64ffe49
87a24d9d
6cb2df25
c12d9a4b
b320e4ff
fdfa496d
fd6d949f
bd277cbe
ff927a85
db6cb644
82ef7d92
25b24924
456d9259
be492426
2d204fb3
662436c9
d0d96dbc
2d96cb67
0703fe00
00000370
83ff4000
fffb6004
0004f87f
e489d4b4
8000003e
840ec8b1
f7cbfbf7
00000000
002a4dc0
7c01f700
277e4204
81ff007c
5c002358
dffbd6b0
ad380121
007a24cf
e8000126
7ff6c4df
00016fe4
2412c931
6cfa1200
1be134e0
007cfec2
09bcc1d8
00002683
c6ffe3bf
be400050
026d2424
4004d648
00009b27
01900050
36004d9a
a2cb6081
7fd2008f
c2a5efc7
01c374c5
d80de803
c6e36139
4f061bdf
e7b1f819
2203afbf
714ed84c
ff8fda60
b37c7e17
813fe3f1
9c5e0793
bfc2c9b0
df3707f1
d04030fe
371fa4e6
79f8d8dc
db89c0e1
a5016e00
7e80059c
046fff0b
c4965b20
00000449
fc2e8724
75fd7bc2
49b71db1
8383c01c
000d2000
7fcfe040
1c000503
29c4bd00
6004005c
1e5004fc
e4bf81c0
f60c1911
00512df4
b8843036
7f8017ff
07927fd2
0005f05c
00001380
72003b24
45ff7fc8
80500068
00164004
cc537400
f912019f
6c2008cd
c25479b9
001b000e
6f72dcc0
3609863f
9ffea6f0
1df00966
a7ee4cdf
3a5b201d
a808c964
42edb64f
920725ab
0db64b65
d82cb66a
8007fdb3
97eff9dc
3b659249
927b6260
98b60017
42fdbeac
922624d0
cd913498
21ff92e6
965c9fba
1ff27e9e
141e6fb7
57d4e040
fd01fc02
64109923
4ff4f2c1
027f67e8
ce02493b
f000024c
fdf25f4d
26fe6f37
00181ff8
e04e01db
f5ce9f67
ed000393
0c482523
07e481f6
51dc50d2
fb365930
b08050da
ffd8001d
2fde97ff
26c3f135
00003780
26effdfc
6f002d08
4d37fdb6
9077f782
0203fec0
26283c80
b4810041
85a6f6c1
7040000c
28d02794
b467fb09
d20c21d0
900b6fe2
4ffc01ec
803fe238
134c0bff
38d369a0
ff000780
16ed27d3
046797c0
4248907e
027dfffb
033ede6f
12c09fc5
d99fd7d0
82136137
5fa4664d
c0f9207e
66ff9136
6da49009
80693ccf
f84bffff
00204d9f
affe1800
ffcd1249
0124b07f
e032452c
03000037
8fb7ed92
ffffe01d
40680e21
00abfff6
ffbffffe
7fee90bf
33dffd8e
61f27efc
f0ffffc9
e6d85db1
4353f96d
03fc1108
bfdbc160
82fec7fb
0b79aecc
fa02fd80
1fd65cf3
00000000
b097fdb6
00003feb
021200c8
01002000
00007810
c0156820
7e20ffb2
c86904a7
5b12b7ff
852c0000
004d3e1a
badb49b4
b3801ffc
bfc84feb
4493dda7
01f40fff
e0083780
7f0087f7
4086d30d
fef6401e
f0036800
6e6fe80f
003129da
2da6ddfd
6980001d
d7ffb32f
c4e6827c
d927d8f9
fb6d1967
c79c09a7
3fffff92
5004dada
40112f48
fe01d300
1fff2b2f
14ffffd2
74d002cc
007fd2c2
27ffffff
77c24070
0bffff00
4057a7e0
8c04dbd1
8da0234a
0fefffee
40f80008
ca17b036
f8dee9f9
ffc0127e
f411c0fd
7ffa6037
0008db14
bfbfbf60
ff1d01ad
fedeff6f
7fb24013
fcfb21bb
cfffac83
6271386f
2fff2e39
7e48dd89
0373f30b
9dfc4000
19207f7e
3fb63fdb
cf61ff3f
0029f7da
f981f000
d81c8fc3
4e801a7f
fefed726
ead84c7f
8d9f67f5
7a88fffc
07fdfd7f
063fe004
427fff00
7fec26c1
21f0ffd0
0d86c0d8
e018cbff
86c143b7
08364f3c
fff0003d
26073b9d
024a3df0
0dffe168
9164fe08
0d9fc7f5
187eef00
87e7ff59
0083cb5f
07650049
7f00000d
90120992
c41f01b0
69366db5
ff4da4ff
361f8264
000c9000
121e0bde
00000003
ffc00024
07ff37ff
1f2c705c
f6df1300
c1bedfff
ff19c9c0
f0380109
24801bed
f86d7edb
2dc101b9
71b2df0b
00107490
7e3925c0
ebf07890
c04c3617
f9101bde
0336cbe1
b8f30196
8140071c
064bcffb
c00cdfc3
4900b0ff
604eebec
21bfafff
50a0124b
d437c004
000a2c00
7fd9e008
84000192
3ff4dc24
e8040036
0fff21a7
38ef8020
59080002
00051de3
e7239e00
cfff1c0f
fc6ffafc
c6fcc09f
8020fc7f
ff9ec017
dee07e3f
8e480585
bfcfc1fe
cb612048
763de074
dc040714
37fe8fc0
9007007a
ff8014df
cbdf8dc0
9dcce2ff
107b66f5
848182cb
c9011240
dfaf2493
bffd3107
0036b041
6006589c
ff000012
ba4c4e49
01f7db3b
00000000
483bff71
1c02df8b
10ca8907
69ff65ee
d24133be
68ffb2f6
b90003de
00025bf9
c1d801ff
fc04dff2
03b400ff
3909a000
4def1f00
026046da
20000000
2ec802da
000006cb
fcdbff27
fc00007f
122fbf7f
80018163
7fb0dfcd
e80ffb23
d8006cbf
aff13e21
77ad9213
07800307
ee18160f
007fedcf
84fc30f8
91f713a8
dc801703
c1e07000
88470008
000dc0dc
9b0a8a47
f200027c
9cbed793
001e0f00
8037607b
fc880813
1f0b8fc0
c27fdf90
b7f202fc
ffe36e37
000015ff
cc0e6587
44d379bd
11b484ff
ed813c90
19800006
7037f830
ff8fd01b
b0664099
4e83eb7f
d8369f9b
b68c3d24
4006fd90
1a6db36e
bd0b93e0
caefd220
db6d07ef
0346ff26
366ec480
9241db25
e918c091
6dc96495
f36bfcda
466db277
2246d193
d2003ffa
dcddcf36
b6e4de06
836d2464
bf78eecd
b7e0db18
9d924323
288049a4
6b3367fb
edcd811e
7067fec9
e9a9b24d
fc9326d3
cb2c924f
50db04ff
e092496e
799acdff
97b80003
ffb6cb24
c827df29
ff6fedb6
2492496c
bff03e59
961904ce
3bfc0993
49349241
9149ef2e
679249b3
003ca1bf
c1000446
047fff0b
05e3f038
0e0f03c0
0061383c
17239140
f05a000e
0101f063
b13c3e13
93c08370
9c2e0f9b
c0543804
0e3f6387
76103c94
3f0387d6
7605cc95
1bc1c5e0
0f1c7e07
78191cb1
9effe0e4
c4dd9644
bfb6602f
44d60337
cff37a0f
99210390
2797c28c
0b7c8840
fa26807e
ddbe5f03
c8c47fe0
f0172478
df880cf3
c70f97c4
0dfc9c91
80291f8c
c0fc0037
9fc6d112
03fc6fdf
3dc360fa
02071f80
1bf1f8f8
00078fc0
7ebffc1e
015a2583
f818703f
8fc01fd1
b02dfc07
4013f85f
0fed03e0
6070393c
77dc3a2f
ffc4fc08
0bdf9f22
0403fe07
f07ee09f
7cbef938
c7f03f00
ff8007f7
fdff9007
bfede2ff
7f832fff
fb83dbf0
0dfc9fdf
f23fe2f0
7cbe1f00
4df1b608
f03f6de4
ec81207f
f40f9fc0
b9482597
4002c3f4
d8db0dac
bfc0ccb5
1388687f
3d9a07ff
efcf005c
a30da7ff
28349020
00f7fc09
4869000e
e803fa97
9bc11c4f
900de6f6
301a0fef
ffe4c45d
feff6803
04d3603b
9faf3fca
f2fdf21e
f8de0380
8fc6e8b5
e7a223ff
2a0f887f
1e079e90
a369307c
7a1f87ca
7830647e
c3fe2000
fcdffe17
8fc4a003
206e8007
c0a0f0fe
7f400317
20703ff4
0fe0750d
de113dfb
0f83fe0a
385eedf9
c1be60e0
eb900503
3814ca87
c1d8e07d
137f28df
fa1005ff
f538dc01
fc703b00
5fa77ff6
74b81f8e
23b1e8e4
8bc3f0b7
21e8ff0f
03ffdfe1
45f8703f
757f71bf
6e2ff817
fc9eb7f8
d9f41fff
cfc1a503
b827ba6e
000001ff
6e493800
b592712e
0ffffc7f
f3ffc01c
038001a0
496c1fc0
e7e9fee0
7eb4714f
43e9f27b
125c473c
edfffe00
7f6481d5
a8403cd0
a613be00
7dd7df6f
bdffff90
dbe817f1
0040f47f
fa425f5c
c0f7ffff
dd82ff61
ffbfdffc
00020000
7f7fe090
34007f00
fffc7ff1
c07f00d1
fff001bf
2bff935f
51f80280
005ffdec
a8a76a36
f1d4dbaf
9e3e076f
13edfe04
a720e6b8
cf27693d
a7038fea
492b1fdf
49a6c98a
e0cccc44
8f853752
93328925
9d9800b7
00d94ee5
1b721e0e
f29ec9b8
64875113
6c059b7a
66da4d34
493784d8
1a412692
249649a5
6936930c
9b0924da
a6da4984
4da1276d
10690db3
26d36d30
49bcdf69
da4934da
240d89b6
6d241018
f269b64b
b49b4c36
260c9819
9b4d891b
9007fe40
c03be00d
fc9222fd
df2cb3df
b63fd07e
ecb6d96f
fb03483f
b0002c06
ff965ba5
ff1113ff
c83f209f
6f804025
5fa5b008
9649e422
6126de80
1f24360b
b2582f7e
6f92dd31
207c0040
8057e920
0376002f
092db248
7fff2480
0376da6e
01038080
b1b3fcbe
00423fe0
f89da836
82c01d9e
64693764
c039f45f
bfbf9787
60be4c01
5b982de9
7e396c40
2481f410
bed821bf
14bf2320
200bb000
80d93478
f606ab4b
1fbc8cef
20dce680
1130026d
0001fb3b
07eef7fb
64100250
13f7bf02
00395020
1304ffcc
e2003338
fddbeec1
31381111
0266d61f
df0209a4
92dbe302
924c096d
249add98
ffa0d800
1ff2786f
180482e4
b9b7fc96
006924a1
a7ff11ff
06c05b4d
d37f3790
e0171046
9324dbb0
041d26d9
4f9369f4
99ae003a
c0446491
7b0001ff
0fbff6f2
0241d800
201d0d10
fe00e000
1fd9b49b
00fcf208
09780091
006d3e9a
07fffdff
22001800
d3ff2472
80190004
0200dff1
000007b0
8bfe6c00
09a202c8
606db6d0
4027f640
fae4bff0
9ffed924
e0c4bdb6
fe006dff
7bf1236f
0221f27f
b0001133
ffe98012
fbec35ff
127f7b6f
9023b4fc
fffcfff5
91b69bfb
c49fc0d8
24f36dbf
bffc1093
b0490278
841efbdb
0e3ff089
418df880
ece8a807
ffff9b6d
dffc9a7f
02ffffbe
f007ff78
4b803fe1
ff7ffbff
afc1a00f
4bb703f3
72d8cfb0
0ed6ffa1
ff7ffb22
f10036ff
6f87d001
ff24c816
7000fe10
2c3c8c8b
7dfbfffc
c49fcbc7
00009d7f
f00fa7fc
fafe3dff
0d2002b3
e6fe26e1
dc13e924
6dbffffa
ff49246d
1fedcffb
00389204
6db6f8fc
80804d9b
1601237f
259d97fd
26fffe00
9164c490
6ffe493f
f49ac931
bfbc935f
f37d2767
f72582ff
29201c4f
ffbe3edb
c8001127
32fefff6
e401fa04
ff63864b
99ff1260
e4964823
240c79bf
e6db26db
e0e6c01f
fe9c8136
b236c7ff
dc49db2f
24927825
6c080b2c
d96db79e
f72db2e0
7f28003f
0049849a
46fd2fb6
36f4c000
826d3614
415136cc
32209b40
0db04cd8
209b4d82
724127f7
0441e4b8
fe03ff2c
70ffa11c
e3400703
e91befff
eb60a07f
f27df0db
1f09882f
f027fc1e
ffcd3dbb
04dd25d0
063efb24
ca492070
bbf24d2f
7ff0bcbd
fa680002
ff08e8be
3ff8028b
dd8df401
c040013f
603cbdba
13efff93
01be59bd
48370300
3e4f789c
659b6fc0
7fe7620f
007fc4f6
3fff6e34
c9a047f1
3fff678b
0051edb3
004f129e
fb70397c
f8f6d8cf
c6ccdf4a
9bcd9cf2
e96f7fb4
10241fc2
d36c4925
e483d58e
6016d07f
f20056f9
68001276
43f87da7
df6da460
fc80e920
10389367
da41a42b
73c972fe
19a6d212
c5b2f7d8
19db683e
ce717984
2fed22d7
61062fe5
b6d88013
b248486e
64d24d27
ec07137d
fc9db363
d46c127f
67d80081
dbe9801b
7b939bf6
b6ffdb6c
db49246f
3fe4924e
9f06e03a
c59e7e59
26d34936
49273efd
a7f6649b
b82381d8
edffaee1
03f1b703
3f1843e0
f291e87c
1fb32723
04dbc9d8
4ff00036
207e3f3e
07e457f8
49a45f80
e3f1f8e4
d0180017
15d8fc67
007243e0
b7fc7e08
b4c02220
225f7c0d
90154fff
6bfc9260
f3e0b602
393c8d07
fb01e4a8
1c6f23a3
fcf75fa1
c05f0309
fa7f981e
4ff8dee6
fbfc9ff8
f7fffce4
58008c27
dfd9e009
1a7e0763
24fe76f9
49b40b5e
e7e83f34
805c081b
2ea71fbf
61fef8fd
8fe5b2c1
36165c45
1df0d96c
401d7e18
7fe41480
0207f040
c0f9b058
8f8681e3
6c7e1f2d
cffd72c0
3eff1ea3
01b3ffa0
371f8bda
f2db6060
2d1e84e1
18fe6a07
f1c0e90e
0c7adf23
07fd8938
7e3f0388
e5f01fa0
08bf85c6
fbe7e00e
101fc0d0
b89c0e1f
83cde071
bc3e3f07
cff79018
0e2f200a
2df008bc
273f83c0
11383c0e
0381c7e2
78efedf8
8136edb6
d6c007db
001373aa
f8581bb4
f3787413
87000084
edb9fc6f
3fc6249b
44fdedf7
0086df86
27efed6c
bfa15007
31f0ffc6
00a6c9bc
68a27909
624b6965
246984e6
b7100002
403f007b
e81000e0
413d0bff
ad93acc0
0b4fc001
fc1b0402
000ffff0
000dbb3b
b89b7cf6
890603f8
6c4c0015
e03b2d10
0c9b2671
10099964
ed0809bb
4ffcfc2f
9bad8719
07204800
aff816fe
f1f5f8ff
96fe8f2d
004013ca
3ffec760
e8e57bf0
8dffe00f
a717d91c
c3038100
11e80bf3
9cd1be80
081faf40
816d007c
1c0000df
d8ed3fb2
8e4dee1f
b07e103f
dfa401c9
82791360
35814d07
1b3c8649
b1d97200
11c6ca2b
f8ec1b00
84df6e9b
0032fb6c
4327b240
12081c86
2391f864
411b9f6f
93d8f052
fe9ec013
d974f67d
9e47337e
64b67c57
b063f600
2f42049f
7c87df3d
c09cd007
000203fb
f209efbc
f5d1aed9
4930803f
9280645e
00000000
07aea000
0c012500
1df8f6d0
244b03d4
15b01db4
b2038902
66d903f6
007fe9b4
7f20fe0f
bfffff4f
4660ffed
597d0ec6
01c02dff
fd9fc401
8dfdfff4
8fff0091
7f80c45f
876c9a49
7f5e032e
c89689d0
7f582fc6
911025c6
0f0e006f
c901cfc0
b5c7c33f
f87a00fe
c93fff20
bfd7ffb7
f8487fff
c003527e
6ef803ff
e377f898
bfffffff
66dbfd9b
ff8903e0
d8fd9f3f
7ff7d04e
e27f3760
efef6588
b03e0930
0fb602d8
dbd80d84
6b8323fe
4c8d06c3
87fbfe04
8388d292
fe4f7fd7
a494aa5c
1ff7937b
e0493ed8
b4fffffe
11201200
ff8bcef2
081a4c04
7ff7f26d
dc4837d0
56235f06
6926001d
2fdd06af
cb9b89b4
405ec249
d06d9dfa
9ffff60a
740bf2b6
f5be1091
dbe3f2ff
fffff23f
e730f80f
2708001f
f4cfffde
ff80bfe1
b8000043
e6afe40c
1001ff05
fffbe7f0
7fdfffff
fbffff83
1f0396ef
33fc83c4
0003dab8
b4c2fbff
c13fa5bd
2093269a
000699a3
df19d27b
7efd016e
fbcb6d83
bdb00247
5f92c004
4fbfffff
e880a4b2
25be4005
ad6a33f8
7c49ff5e
7b224df2
b4249edb
f2de2637
fd924b34
578001ef
7e7ff001
029e1b6c
00c2b0d9
ffd06200
1ff2f97f
11edfec0
b8040180
0003fbf4
07fe81ff
7e581002
1ffff780
4505b041
2045ff8a
0c8e4740
1723fbc0
007f8170
e87e586e
cb23e7ff
52693b6f
fc000700
d93f000f
0849207f
fe824ffc
ed82907f
86dbffff
fffdc17c
24341f00
01fff402
468984ef
3ffc424f
833bddc3
801ee7fc
40fe8000
1d2103fe
65127f98
62dbffd9
49bc05ef
fdb5b67a
cb6d82c3
480b7f7f
fa43f93b
f43e3dbf
6f4b13e1
ff900175
f7d8adf4
87bde7e2
2c11c92f
1fed42f1
005bfe81
c1e2fb67
7128680e
efe1f9ff
3f179d64
0683e3a0
0dbffb00
4f439b80
741f4d06
fe007e77
5fed8e87
53bff6c5
1d2687ef
fffe3ffa
07ff23ff
07c01f00
83ffff80
bc1b1407
01a7db5f
3c1003d8
b7fc7fcd
b8d803a8
006a64be
78ec8826
7fc6ec8e
fffd2ffb
86409135
4c301b0a
5ff08100
ff30c9c3
ba4f6d4d
647ec4df
00d80036
77567300
606c1f00
4804b207
f1fe0213
18a00727
27ff8da4
dfcc837f
0032d9fc
3843da3f
ffc005b9
27da7fe6
7bf6dff9
0000ffe5
000f35fc
457db2cd
7db00384
281be6d2
0003f000
ffffe250
b46d6f93
74edf044
002d0302
35789e9c
b0f7ffc7
d60000b7
007b7df6
936c3726
92c7f880
5f461b6d
fb3f9404
6fc02cbc
efff452f
b56d96c4
0207d9b6
96c9e7ec
48147e27
b6f7525f
964da790
3f0db24e
b7b7fb7e
2dbfef6d
f0d4c9a7
bd2facbe
9016f06f
f0e8ee06
7fc003f1
b74ca7ec
f6d59fdb
f326cdfe
1f882723
870401db
e027fc67
fa81401a
259001d8
cfcdc06f
1989c013
c1f67818
7e80ec9d
22fd30df
2603d139
00301c99
d3703dfd
841c4c4f
7a793f4e
006eed83
00f30ff8
18a40000
5c9ff6fc
0292d800
fe4fd808
002fdbeb
2824024f
7b40ad31
ddbecb92
86824706
2f3f2485
dec92003
333f92e6
3db49308
f3212f80
0724447f
8036000d
0c4fdf01
80cc5ee8
f84bf080
120b403f
4fec7614
19b01bc1
010dbfe0
7fe0be80
b0201ff0
fd10002f
c0b08ffe
f23f004a
ec001e93
e412053f
71983d87
6d81f0b8
b49d8104
c83246d1
05b77ed0
bf6c26fb
13966d80
19364924
49d0c980
bdb7fed6
603efeed
480a00e3
494064b2
2706dbc0
c848ba21
57fb837b
72424bec
db2db6db
b65eda25
5276d765
03fff6c8
8ff01330
e9b40f0b
cb65b07f
d1ff25ff
fa023fdb
6f828dff
fd38fc1e
fdac1fe6
ff809f80
81bfe420
2f41402f
ff6ee078
7e5be43a
e2707ce6
4b087009
91787ffc
0fcd3352
7fbc01f9
9fc11eed
0181fb05
0800f1b8
044b8190
0031b92c
077ffec0
7f4ffe2e
007fd001
4923f600
bac83f86
632190e5
c800dfcf
83c8d843
1ff60fa0
07fc6430
3a632c80
ed925e49
bc991e02
0d3fc20f
581f849a
c7e66f23
fe021b5f
ffeda053
22db692d
6907ffec
ff81c962
07fb41fe
4d9ec011
fc5c1f03
dcc25920
6c3f2fe3
32413086
4e038141
6f781059
000985e3
1813fffe
b09ec168
bef8cd13
b7c469b1
be24937f
fdbda26f
7f00003f
0111026c
bd860ddc
04d801ff
003fc000
03ffff00
2f8c6e00
4800ffb1
0c48009e
b6347fef
16c803ed
0076f7fc
6e02c9b8
ffff644f
002fe5fe
c7e961bd
00190487
5801b81c
86827e00
fa07fff4
08088b63
046bd000
50002480
00340224
800f6ff8
6c020105
e0000423
3d0b888a
afa120e9
05af82e9
f79801d0
00400046
0380cf00
7fb9e238
01fff000
03044644
d8009dc0
fffc9e5e
60763f84
74800120
91f81f8c
23e1f8ed
d00537ff
dfcdd821
9fff7fa3
ffecf600
82ffe702
ffb2713a
7afc01bf
c9b78a68
041026df
002141b8
c0591300
1b89381b
209b4980
4a79204c
00005b02
3c87ff3b
c9000005
0222d8df
800341b8
00d0e4c1
2063bf20
2f2cf07b
bfa7fc01
0bfec201
bf024fd8
fec01cbd
fde9c3ff
c6c7f07e
01a0488b
fc801b3c
81801029
ad06007e
e0fe400d
97013640
403efe85
519000db
89569ab3
a6000034
1c00ecf3
1fee8209
265fc20a
fc7047fc
ff5b87fe
82773ff7
ff0e00ff
fa9cbf86
01e4d97f
1997e9a6
cf4c9e3f
9ff80373
fff2c00c
a48261b8
02dbf80f
9371c1fb
fee0d337
41c4d815
00bff34b
0f65c020
bb67d39e
f2165b6c
b81c0449
c91b64af
00930f6f
012c9608
b6046d80
0db66909
50a90180
7b0830b0
00000b79
376cb0db
41800001
01964900
c4d41030
680bedc0
82603893
450036c0
ac58d841
0215a3c5
580001f1
7fc03a4e
82ac37ea
1bffa7fe
06007f00
1fb2ffac
20000480
365fe1b1
00f14040
a7fc00df
9fc0682f
020f07e5
c01d6010
be017fc4
1bfef7f8
0bd3a084
9c020048
fdc07ff3
04001c07
c0601a2f
bc1fff13
47f26c20
24051381
320f002c
c9e7ffc1
6f07f34c
0081c27c
7806de10
8b4643f8
3c067f17
05d1fff8
007f896d
fff8781e
f00387df
ff07be1b
ffb2c2e6
06006480
7fc00051
e3fffffc
3e838f00
01807c68
000fc080
fd7fffc8
693803a1
007f7e14
0203c000
0fc01e00
438048c0
d00671a7
c1800065
17f007e1
a6ffb63e
cb8e83af
c06c3f99
410b7e27
f1bfe40e
cc4fa0df
80d3fc9f
760263df
fff9d8de
37182e3f
33308235
bf81c6f3
9dee7fbf
803fe070
1a6e2713
3ffaea18
b0069ff2
5201b92f
790209c0
3f187ffe
0b0fe4f3
ea13ff17
092007ff
fc0c309e
c08d9027
6406037f
fb91207c
3e004d3f
69f900d1
ff83d802
30676133
0d3fe370
dc36031b
3ff86220
c8260fa5
8241bc9d
24078244
2671d9ff
3bad80fb
26fffe4b
698c9fdd
e9b7f0fc
c925a2db
be1b6dff
73408b6d
fbfd7cbf
9d6801c0
fd96c965
d97dfe4f
fc9f8db2
25b65b2d
ed6d8011
065b0fad
7a02592c
272c96cb
a3f36fee
6d96cb05
27fc0004
81bfec8d
3fffff1e
1ec48fcb
7ea61f88
1a910002
f5ffffc8
8db7e17e
0001e7fc
0727ea00
02450000
00121b00
4007d7f8
70b60439
e04504fd
ff7bd2df
cffff9ef
6248420b
0783df7f
0d36936c
5c26369f
496d7243
f9d95c1b
ffeeca0f
f7c04801
8807004e
fe8052dd
4ffbfffe
e00044fc
2ffe07ad
09d72501
404bff6c
3b0fd807
78001598
0d07e06d
fcac02ef
efed3620
8fe77d94
7c1f361d
dc80b003
3266127b
7bb0200e
3fffdffd
afb7ffff
fff0cf6f
16640730
0dc3ed21
90110970
bedd82f9
fda704f4
c765a4bb
34f1c266
6ed97976
0b3fc0eb
21248d4b
82e09cbd
01b64127
5b6db6d8
a0596d82
600e48f3
c1019249
b82bec92
24fffe4d
4a002800
82c83ff2
2fa6d925
c07632d9
965b6068
24b2493d
5bfffec9
b4c92c37
2491fde5
141cb3a0
7937d70c
0151affa
99037490
fe036e92
1f603ef7
01dbe9cc
f8069ce8
10781332
16da61f2
63c42590
6f69e804
90145007
065bd846
f0305b83
36d07c02
3fa004a8
00883f90
dbf7ffff
7fffd24d
e193bf98
db64c04f
8800047f
fdc27fd9
fdffffff
8f47ffb1
fff7efe5
07ffffe6
ffbdeff0
7fffff16
7fe3c983
90dbf216
1b408744
c9fdffc0
f64882f6
93f218e3
596c2dfd
96ffadb2
5368db24
2405d25c
49246c88
04d67db3
496db6c0
d25fe092
804d2694
f3fdb64c
b2c0324f
d3ed245f
420c9644
93241a96
0c9ef2c8
49164924
c53f6cda
5fcb2dc6
f7e00000
b004edbd
965fef2f
002cb6d8
07b62d80
e0425c9e
59139fc0
9da7fdb6
00003fe4
f4dc6e07
01800067
127e1f10
0215b638
b41317b0
75f2f927
48006fdb
16c7dace
d8499f74
70033920
dfff9df8
e3ffe0ff
1802f007
0000f817
a00ff83c
58bc780e
1e807ff0
60138101
f993ff36
ce3e9fa9
721fa808
3fa54ffb
21f9dd40
e001cfc1
e0e06fff
cf8f3001
0e1f926d
f4d841ff
6d36fa49
0093a0d2
0965b64a
005b2c80
136e8480
68da6d80
2db36dc8
007edb67
4efb4dff
ed200492
27fe5b62
811b0df1
6849ffe9
3b407be4
dbb4b2c9
f2fbfea0
bfc6d029
ffe043e0
c12409f0
dfd03583
7f1cef42
c1c0f078
180fe783
64020500
03bffe6e
a07a381e
df1209f0
f1349fbf
e7c9f0ec
341c39ff
e9c8f80b
3e4e4b03
b5fc7c20
48ee04fe
e1d9fb1e
07fe79b7
02001fff
fc75db00
804061fa
7f27ec60
d10038bf
f7fc723d
7c0d0381
2d56c003
0cd80026
fadb70b0
6e4c2ffb
fb6ec405
fe3f036f
1d80cf63
07c38980
813a43f2
1b8fc015
c7400202
8e77ed0f
104e27ff
0fe35560
06471e80
fbf1e0fc
101fffc0
7c87fffe
0901c5e1
e0ff8e3f
07c00073
1c7e1f07
0011d7f0
a00703e6
e570309d
780783c0
d7c33d01
360dc7e3
