fb406e4f
82001e07
a19e3f0b
04ffc402
8226000f
6070187f
c0ffa1c1
76418000
047426e0
feff8fc0
cbfd7fe2
7f9e4129
e403f2b8
0020ffbf
ffbffc74
fff7f03f
9401be77
fffeb1a4
f81025d3
01c0fc4d
ffde0008
ffd7fc37
c840ffff
c07057e3
04000e44
af071320
21ec07df
afd40fff
29f9009d
7c01da00
bd327d80
fe10a07f
c00fc683
d705848b
79106bf1
c82000c1
1bbea104
7fc5fff9
bd00008d
d41ecfc0
fbf8057f
e7bf877f
3f37fc07
7257ffe1
ffc03fe0
dadf7607
4be27ff0
fffe80f8
c7e07187
0e00f6ff
e3fe4e3c
004fd805
f1fffc10
1bfffff7
ffda0e3c
fd806502
6e05030f
60e00df8
7c003d08
1f6f07bc
01bfffc4
2039bb1e
26803000
a1fffeb7
53c00844
e3ff4502
f7fe73ff
bf872bc1
fff038c1
77fb11db
1f5f3c06
6c002be4
6dbc649b
0a80032f
8ffe0000
3fe110c5
be1079c0
00000f1f
3f5c7000
8247b7fb
10ffc084
1500016f
882fa380
faba4ad3
00c40000
8930ff84
0c8f6a68
204c7fc0
f1f8fc20
8007d7ff
9ce3dfff
3fc00004
e8144840
c087fff8
00c0ff81
fed93218
b0a40dc9
bffb02ff
37cb03fd
275e4cb8
0bfdbff1
4f8049f4
015e0000
09ffed80
4eb0016e
ffffe030
0fef0003
f7d4b640
27bffffb
74034001
f3919a88
d0507ff9
8280ff8e
1ee7ff7f
000057c1
09801100
3d8417ee
204120c3
c957e21d
8073dfff
02183ffa
cfe76384
3df00143
3b2fa413
077bdbd8
900003e0
07ff20c9
05fa7fc0
d7e9ffc2
001700b4
be092c00
fff7dfff
247c003f
fffcfc01
df6ec5ff
009849e3
ff7ffffd
8400fe6d
c000001c
f0f78eff
e000131f
107daf3f
4b0843de
ff8bc000
381fffdf
0006c371
fdfc0100
afe2ee47
dfe0fffb
c00228db
afffeebf
0c07fb01
12a02ef4
05e3fe7b
9e7fe5dd
ff936de9
07e27127
ffdda380
07f187df
65e6ffc0
7ffcc801
0009c200
58abbe0e
dfecf370
1001fcfc
c0000ffa
20cd0001
ffffcb69
de800fdb
00076001
5b7cc6e2
00de9fc1
7fc6dff0
205f7feb
379ff162
eb7f8004
ec0fffe2
80e07fff
d1fffc83
d77a3c1e
fffe5f00
dbe7fde6
bf21fefd
c0007005
21edffff
ec000014
bfebffff
87687d50
5fffc080
07fc0020
80392fe0
7fc4c10d
c7e03b5f
1370003b
c3e3f87e
80802806
79b9279e
e04c0080
fcfd8001
89bffb03
d1662eef
281e46c7
0dc097e0
c16fb6ec
ff60003f
0bfc83b7
1276401c
80192080
83fde00f
fc22dbff
b9f881fe
fe0c478f
e006fb7f
b003ffef
00024009
ffb204e1
851fee20
7ee45ff0
5f040180
cce14f78
fe187ff5
1cfd2803
578aa640
f004feae
1dffc61f
58ebffff
8028d822
1efdffff
c86040b0
40070005
ec8187da
0770bf01
8fb82c70
00c34020
b28821ca
083ffb6f
13df779e
c6e3f690
69ef060d
ebb4c7f0
12fff920
aff803fe
9898be80
20036f80
523f1d66
d3bfff14
c0f24a00
3005ffff
1f7ac8c0
2008ffc2
0b874ab6
2dbb8000
f803a139
cf480346
9700d011
48179b68
75ffff86
0d0ff76f
720437d0
c0c0027f
103204de
43406e01
80d00050
1d6fdaff
17e0113c
fa00ed02
20032893
5b801bc0
b02103de
00098643
fffc00d9
b9ff77ff
da2be010
36bf804c
dbbf1000
ffff44c2
15802be1
018599fe
8c04f800
4402dfc9
7dfee00e
fe40497f
b2000fed
012fb249
03207ffc
008df9c0
30a2a000
bfffc01c
05140416
05390df4
f4801de0
bd100e45
0ff9e450
0808381c
3600567f
0007fc97
fef63f9e
87ac464f
fe800b00
fee9a6f6
00c80f78
f9490184
c00ffb23
00dc702b
f3380048
0001ff1f
972ff037
100003f6
ec25c9fc
c000283f
ffe86f8d
76d2807c
ddfff9fb
0837e3df
033401ec
c4502036
f3ffe000
1bc6dfff
bf826004
07ffe001
fff187fc
078d01c1
af4ed388
ffff6b1c
b8186e4b
c1420121
9fe068ff
39017038
6c00ff80
fbf37c60
1403762c
0bf85bb0
002fc3e9
2883c3c8
b03fb808
83f2001d
001c5fce
fdefff86
fff02059
ffd3f65b
49f863d9
6c21d352
381ffec3
8407bf90
dffa0643
d95ec5f6
1610f3ff
fbfedd7c
0c00483c
d7f9fd00
1c763b1e
3cc00bf8
81f8ec81
7d21ff24
ee3621b9
8087dff3
8fa3e83d
905781c0
b89fe3e0
ff92073f
fdfc0620
4dff010f
27f60000
bff3bec7
de00ffd4
1e8b7083
e0a8fd01
0ffbeffb
7cefc209
078001ff
d803c000
ff980bdf
2dec0180
ec3d0000
003fe723
00405b00
62e0ac12
8001fbd2
1027ffcb
01c00006
5801c803
00012ff8
b1996c81
7ff83825
38ac0920
bff8cbdf
4d026020
6780bc00
ffbff674
43fe93ff
31134000
773ff580
17f9436c
10ffab39
0ff89100
ff6179e4
30027fff
db5a0002
7fffe857
e013e933
00c0fff1
1b6bf80c
00005bfa
89780000
080001c1
b04081d2
cdffec89
df29ffef
001410fa
c1ff9202
7ef02120
1feeea00
247de77a
60002103
5dde54cf
bfbebef4
3fa5ecfb
c01bfdb0
91202406
ecd907fd
273f801f
98f8ef20
197ff81f
86481f40
88fe81e5
fc004024
d00009fb
0149d009
e000037c
00640427
913063de
17cbd018
8a6e5080
725bf37f
e0080110
e8ff5ffb
90061a01
77fdc043
d8d28fc0
ffa0ea49
82ffc003
48d871ff
c03f7fd0
7dae4f7e
b920003f
21541b98
0ff208b0
807b8184
dac92fc8
ffcdbda0
650c0dc9
003e4026
cb2c0703
3ffd8048
53e2fffe
25f8b980
00094a09
0ef8dadc
a4042c82
17bf8220
7ebffd96
62dbf700
3f726f43
dced97c0
42624802
000472da
4a0cfc40
937fc4e0
4ffffe26
0fd8000c
0022ff08
fbfb5fe5
cffcbfff
e23fffef
00fcfc3f
d006e60a
1bc8b01d
f8680020
97c01cb1
ff6ed8f8
3feef0bf
40446782
fffe8782
c20a49db
61f30b75
01edbfe4
97a1be5a
30be46df
008050ec
82c36580
601b8100
5a597ffd
10007f46
681f83e0
dc058003
14133e90
fffd027d
93e849e7
74800e06
e0400200
7df97e9d
20f624bf
01faf14e
047e021d
b7e0c004
c4081ef3
f7e86bf5
ff06f5ad
9200018f
0059a76d
fff300c0
7cd4d7f1
92ffd243
480f4df6
80181f46
1dacf902
39209352
20000340
d9a3b814
000a7e44
f5f8083c
135ff91f
bb11a5df
003ffda1
27de93a0
e7dffc10
7e00ffdf
81fda483
00b07e0e
7ff8bffa
01e41f13
4d3baa37
793f3fd6
ec200400
f962bff0
c420449b
3bfff000
637f841b
0fc803ff
01fe4000
eb2bfe49
0bfc4190
cf200000
40bfeff0
ff610001
803fd84b
a51ff236
09a6f1fe
097fe6e0
d80025ec
7bc00264
6400fbd0
ffe8c1d4
e00af3cd
e3fe288f
efedd28d
00021da0
008dfde1
b77bfee0
dcd008ad
c995c07f
05c10c07
39e82824
1fafbffc
18000000
4fd9b96e
83003c21
7500173f
0ffb7ffc
835e0b13
00977f46
0027e424
e027e83c
06f767ff
77f80804
0152091e
2643ff24
be520008
0025f0fe
400ce000
5736e6b0
3eff5ffc
6f20c003
fff800fd
5702001f
dfdc1600
f781bfbf
f602357f
04800b63
09c88000
14fffbf4
0010043c
9f42df5a
7e964a35
ff340097
0b00000f
fc044000
c01c0005
fe00ffff
5ffffa23
0123043c
8258c3fe
0bf6ffec
f807fe6c
7fc04009
fdffbc00
1119ae0f
06054f88
1f65a308
11f7f535
bddc2180
238bdb54
f80040ef
d0001333
5f0ff6ff
bce1bdf9
00809f81
fffda810
c0dbcc05
7d07ffe1
e78036e3
08b53000
7b220304
07cf0420
377d4780
27ff1f80
f7f00500
03bfa43b
c9fcebfc
fffac9f5
f7fc4e77
ed80122f
535e3e03
db1f4678
ebf900df
e0f10775
007f77df
f0c3bdde
6f81499f
76c3be7f
7fc0440b
eb49de04
c00000a1
00fff7c9
fe962160
7f3d983f
0807fc84
c0000017
16a780cb
0f7ffcfc
2139ffe0
3c100e02
69fdffa6
a009309e
c7008bfd
001020e7
9fffbc08
002f801e
feccc1b0
466fc0e3
d8bf9ffe
95f8e4ff
df307d63
04f38e10
761f203f
107d39f2
573b9a32
ffff1ff6
93f3d96d
403b003f
d7f41388
bc7f00d0
c060f01a
f1b77c01
e8221fe3
573c8010
877fe002
018dc0f7
3f838178
d03ff0fe
f801ff47
82010487
d1befc87
80607efe
c8efffde
8b3ffe7f
e89e28ff
c5e03099
1e0882d9
05b05810
7f011e38
8000de00
1ffec0dd
b82490c8
003ba786
13e61f9b
d82fafd9
0617137f
e3ff4743
7f05fe20
0ff82131
0d4404ef
f0000e0f
075bff96
fb186de0
c01e9f4b
910ffc71
038e39f5
fe7c0bd0
0fcf3341
23d039e0
3fed0800
82c10070
fdbc87ec
fffe0fe8
f002fc36
93fff863
909ff200
df7fffdb
fccfdb7f
9201bfa6
e83be4f4
0353fb0f
d08000bf
b20093da
600fffff
bf0df480
1836deff
9d7fd200
434c0dbe
800165ce
ff2126ff
87e5bf7f
4804fff9
f75b840a
6ffb0ffd
cffc4fce
9f22404f
86fffe00
11ffffb0
27fe1b92
f19e7f48
f600dcff
6f81df3f
ffc4b3ff
0ff84001
0d981f30
1c17be10
7e451ff0
fa7001e8
0255fc57
2f450980
d68ff881
049d7fec
f07ffd40
347fc259
4ffdee27
92d65246
1e4d7e64
277feff4
b618b780
1fb6200c
fff37fc0
0df30ab7
04723f22
76dffdc2
ef00124e
5431f401
501ffffd
9c00f47f
dff00083
9f3792ff
6ff801ae
247bf920
f85fffe8
800120fd
03fbfc05
ffeed004
fe0007fd
eff1503f
4061053f
48078c92
d0401f13
439177f8
fdffbc8b
bc21e101
000c5dfb
003d9a73
e1080bfc
e8e597db
87b80a04
ff89dfe5
f13de000
5c3fbff7
f3ec8100
fdf12e47
effb02ef
1faabfff
ae101c1b
8097dbff
fddffffd
fc0401ff
f808000b
5951e0ff
c1e00f71
6c280544
0321b7e3
481df602
fafeec80
0017fc17
87fffe04
ffc40164
3bdbfefe
e48bfff8
fffc1289
f5050ea5
ffffffa0
028b4bff
00005b62
9f02c000
81ff7ef4
502059ff
209d6018
c37fe6d8
ffff00bc
ffd90036
30186836
ffffc01d
b7af8dff
92c0158b
bd24c0ef
001b73ef
b250d800
0dfffb43
87005658
80284090
087bc21d
8242c9e7
69bfe0e0
8001a4a0
b8023bf8
ce10fe59
d27fc002
6efff644
09b84885
040d9640
8003fa7b
10001ff9
fe7bff80
c0026c17
5e982dff
fcf14800
af908c06
0fb7dc81
087a7b80
817d7e3f
001c3c81
bc208b00
c0007fa8
91fcfbf5
800dfdff
88b4ffc4
ff7883dd
4effe17f
f33e7826
d085601b
be7c1717
d2f7a037
a0a60bf7
178f07fc
ffa4703f
4892cbe7
8e4e800b
cfffa1fc
8823a09f
03f23f02
fc03bbfc
4ffb0171
fe3005d3
bf67fe42
063813f0
ff85d610
f998008e
80000003
0c2dbb23
3e81db40
9ff33880
dd81ba90
4bfc505e
4fccbfea
5807c940
c923802f
77401d01
7ffe0f91
343c0e10
63cfc800
6471f803
0300793b
035b7c1e
60ffc061
07d7e136
c000033c
4fb3fb5f
3f3fd573
d3ff0018
01660d7f
c7f44639
f4fba5fe
005e2031
790c6fe0
00005e0b
0021ff2d
f0146030
29ff000d
800da08c
5e046e5b
20118dfe
bf8068e3
f0b7fe5e
9ff29009
078fc37f
c6fd8036
7fd9fd11
e58ff902
95007fc2
f007d8fe
006c405f
00084b6f
7f3fc13d
dd3069a4
029ff826
0001f104
2ffff001
3ed101be
925e0001
f876089b
55004198
efc4120f
0005f067
0000b138
007d8070
687f0724
18bb81b7
fbf807c4
5c706807
d85fffc4
09e561fe
200eb900
26081c1b
013f0b70
fbffa01c
00111038
068703ff
ffa200ff
bb20007b
003f9e0d
0100a5c0
c8e20607
a077cf9e
1037ac3f
8099bb33
0f6b43df
5bfe3f10
3803f12f
363f0300
f45e2fc0
c0fe41a8
57e0fd81
01083e66
c0eedd31
8fffe0ff
f383ff1b
c8ebf1b4
70bb0835
006e0708
d3fd8f77
6f376052
ec8f91fc
c0bfc003
71b1be2b
b077df10
f8e50e80
a0e6108d
e87ff904
7fff8f02
617fe010
2d812da6
c7880027
ff44044f
0bfc00f7
f8ff09d9
81e7ffbb
240bd01b
3a13f836
8f00f672
1ff061ff
40fd5fde
f7c0b02f
fd800601
dfc3b7c2
ffc0e09f
c86ff87f
009fff83
f1ebcc24
5ff707a2
1107c83f
8004fd10
601fcc83
86deffff
73ffffb8
a7adffff
3defd007
28ba1f7a
6ddffffc
7f886182
103f9ffc
dfffc000
f2644648
8082004f
fc0120ff
43ffcfff
008c4051
638007cc
7fbf0378
de7ffff8
fe301aec
c7f7fe81
7bfffff0
03fe10e1
f8ebfff8
b6083fff
cc813f07
10edffcf
3ffd9010
0588ffe0
a007fe10
17fedff6
ffa10094
020ff63a
4fffffee
9f00c002
389b9264
0afeee90
9877c0c8
0fbffffe
09b492d0
5d41bf50
15dfcffc
9000ff85
13f00227
f7005fc0
8003c003
03003fff
fce3b184
e380040f
1000072e
fc1e52c6
ce000f83
fbf007fb
3f36803f
c9202c07
04fbeffe
e89a97c8
a42e72ff
caf1fbf8
3ce80020
39fdb7de
fff000bb
c0fb8182
0ec3b0d7
e6f1df40
5c11021b
5f3affdf
d8003a12
c4000ffc
1e31907d
e00a4fff
00f6fff7
be18038e
fffffbef
4e010101
81001c08
fc4e3f5f
c0640ff8
59ffa02f
a6088001
d0000def
1ef83c03
ff3fe970
0003f96f
778a1a14
03f1f810
7f160180
be245ce0
742ffb7f
801f0000
cc87e006
007fc0a8
73f87fcd
803b1d0f
df003d82
83a3f607
7e070fff
6d8e4fff
00ff0002
9000acce
f3f73817
30f991ff
643de80f
fff7ff04
e43f35ce
00207fdf
003e057c
b0fc8010
8fc4187f
afa02fe5
a041a2d3
20180086
207e8732
03ec09bf
fec00003
00f1bd7b
90f873b8
f9bcf07e
02b21814
0e617ef8
cfffe0b2
27ffd383
3b005fb8
e57ff420
1f8f43c3
ff000df6
b6976bcf
9b841011
87c1813e
5fc0207e
3bbf0013
fa1ffc53
fe380e0f
5c77e0bd
00acee24
f20ecd70
e00ff8e3
069bde84
ee413672
037fb897
d9fb8003
80a40483
181407ff
1720783e
41bcc07e
0010e497
8827ffff
fbfffff8
f01600ff
3a17fed8
c1ff5bfe
fe9da05b
da98fabf
d0310600
0a7ebffe
fcbff388
5bc8ea3f
19bfebe8
c01f70ff
81f80fef
1dc006ff
fffd8140
1f97dbc9
ff8ca4e0
a4d99506
fffdfb79
13bff6fd
21c08fc0
01ef0980
1ed98420
d7ee7148
61a50400
3fe9ffe3
0003fe88
ee841d60
a1f777ea
36efbfb8
6ff9fe6d
ed045a43
7f00767e
ffcffff3
fd293ef3
dffd9304
a73ff3ff
f712df1b
3ff8b00f
01affff8
892007a4
8e4302e2
5048fe01
0a01c09f
87fc2014
8200190c
0340e2b5
bfe11901
8a020009
206bccbc
669a6d12
918027fe
02800683
f027a378
01bfeb9f
edee3f18
252182cf
65cd9200
c48ff002
ffa07fff
02f1034b
effe1240
02fc68c0
403ef30e
880720fe
3ffffffe
fe011702
1fffc7e3
90da7400
c01bfc12
f77ff165
8201307f
ff881c90
ffda8050
fbaf0007
2d850004
e00fff80
ef01a41c
0eded803
9a880de0
012459e0
09fa5f70
bda34000
3feedd07
3790ffc1
12df58d1
ff01ffc0
f0504081
fa7ff91f
47fbffff
f9fcbff0
07fef8fd
fef7fff8
2011fb81
a90db67c
e051e186
f6876401
3e7fffff
07fc0000
7dfc9fff
e6004805
3cec3cb8
9a9f0000
038f5890
30ff8009
0ff92400
002f91e2
bfffbe30
023fe07d
dc960012
3d1fe000
ef7fa000
009ec7af
011ad262
002e8116
03fffb60
10025bff
80c5f380
04001bfb
ffe0a7fd
dc107fef
618ffeff
65882021
1fbcdc01
9f892fe4
ffbc01db
7fc1e623
61c5ffdd
00003000
3e992408
1e2fe7fc
7f1fa184
0ffbd090
3b902600
01fc0045
863cdb70
21b1b503
d7ff2fec
fee06f4c
fec00a02
00fe03ff
fef9fffa
e909c1ff
f83be624
8d2c1d9a
ffed407f
fffffc62
7c00040f
00019ffe
fff24902
8efc9d9f
19fbc041
cf600db7
4c37da62
4210c108
cd289fd0
0000f571
0fcec358
00017fc0
fdf80000
926ff91f
3a1fb65b
083fac04
2ffec0ef
7ffff1b9
de0ff7f2
c1a4349b
0038adb2
7ffffb9b
c3f3c797
6f500033
7dfe16fa
6c040900
fc758f7b
7c3c62f8
1ff3f000
081b8400
0fc803d1
0d000000
07f3fec0
7ebfe100
00908400
d81a6bb0
ff0f006d
0d924aeb
fe0165c0
2cfea2df
407dc460
2640fbff
f9c01ff1
f8000fd3
c0a181fe
80108cdf
800c2f00
4a3ecae2
40879404
01043eec
3018ffd0
55c01f30
d2a9ff00
04830127
be072016
1ffdaf6c
00b43014
cbd8bbdc
5e001f11
c77d23ff
2f1ff378
01152b82
200c9fd0
2137db74
fe0002fc
b6ff3fce
dffa4349
005bd88a
7013c9bd
07df920b
efebc8fd
3c24bf87
29fb007a
3ba0e800
44158278
fd980c02
ec09c016
904281b4
e57ed2ff
860101e1
0144c007
b7f9e6f2
2a8107f1
02f681af
f0b5e639
9fb4a073
6a8ef1fb
0e516409
b379e8fa
0493b001
7e911254
fefffde4
446fffe7
f0b9f806
bf84069f
020a0108
7a38c859
efa5fe12
89410117
e00c9c7e
05ad04ff
b91bd6e6
06ee0d7c
f9102da2
34918e16
1906a455
75adff02
7c1830f7
f84983d3
0250b3b1
a4823080
81c2305e
22002ca1
42005838
083f7b66
0dfe3684
58fb8ca4
bed98d48
fd0f5a26
2a2f3834
12dbb2e9
0f002add
dedfa226
493c317c
f06658f8
4fb9ad3c
f3e8687e
e06fb96b
d79d89ff
15645d2e
99b7e6c3
4aa00886
219d5dcb
1771a0f2
7bca3e70
0127040b
a049c27f
b8007937
01241ca6
8345c488
badb60ff
fe14e267
0002807f
3fe00f78
6dff000b
e0000087
804111bf
0f2cb980
f9fffd1f
05fc093b
91dce009
eaadff44
861bf2fa
0127ffe1
030ffac9
2413a0c0
f90683ee
ffc045bf
b8426237
0000000f
f401a2c1
d9204087
42093fff
1e0f437c
dd0124a4
90a7ec00
24dd004c
17fc01e6
202feb29
c7c0694c
41f5f004
07f0bec0
12e08324
00f059d0
c937fefe
f87400bb
27fe7f7c
0c9b9cd9
02deb7a2
7fe17000
e100ffbe
fff2ffff
0000003e
ec07ff9e
0780b71f
fffffe98
44bffdf3
038000fd
ff0a6fff
7fff5833
cbfc036c
fdc87fdf
f0183c4d
ffe093d7
4e03ff32
004fdcb0
0074179c
4b76f000
f4fad405
d4edf7ff
ff07ffc4
fdadbc01
fdffc01f
e6ce41d0
ffc055f6
031579e4
effec001
fe003c7f
1ff00623
906783f7
dc37bff2
e5c66bfb
97fc824b
72581fe0
1d82381a
bfe77ec8
790b000d
20000498
7f7101db
8f85d840
5bf5c120
659c71ff
c24f7fb2
6c80fce6
371f9bbe
301ffde1
07efe17c
ef13f9c3
fff827ff
ff89bffe
7f31823d
a276b30f
6ffe4864
fedf727f
6440f3ed
c5b19cd8
40f9b24b
0b770800
7f00013d
07f19630
21ffe1f9
50004b00
0c9e3248
fe2920f9
6002f853
d2000080
0e98fca8
2006c000
37ffffa8
2eba9ff0
0c5609a4
7f5e7a58
ffa7ffdd
0d3f21fb
2e002640
8047ffc0
0037401b
e06b6c48
e5001293
681405ff
ffe1f410
12007cff
e04937a4
4021b6bf
945874cc
08493c9e
4008807b
0d801c98
03bb2718
20026f78
3a202080
9cbbffb4
8924ffc4
2e4f927b
fff21022
34fc4946
edca9a41
a066998f
1d3fff0d
9e00e496
1ff65f4d
20ffc040
5f7d9fb0
ee7fff79
c8f80446
3e120000
1c7e48f0
c01c3a00
3fe91f8d
0000783c
c08089fe
0e002fff
7f800424
01b7a043
7e001d00
1aec7e00
3f419078
6fe09fff
0c1fe841
a0ff80fd
f00202b9
fdf9a819
6f2c0fff
0482000e
6401d19b
0608004f
f8d91554
207f7cfa
07ff0630
f01d7c4e
c81f270c
bfbc01ff
8900800f
fffff403
3f01fa87
0c3d001c
e1419314
37030fc3
0d009ff0
de713fe0
c0402000
049b8abe
01be7f1b
3fe011f8
fffe0240
e372cf9f
00ff803f
ff87fc00
1fe02fe1
39ffba80
3f3bea7e
0bae4b20
f91e7048
efff0006
e02fc722
f303ce02
96279241
ff9351dd
37b86e0d
9e34e007
5f6e1ff7
c21aafc8
10bf8ddf
038efffd
3769ff00
fcc53f00
8081f89f
7af7f037
81efe358
fffa4be7
9f9c0001
80187703
dff1c813
cf7e0000
d4d7f00f
0000371e
8fffffff
ffeba007
417e011b
ffe40490
9026017f
f7ff6c17
20203816
fc0302e8
ff800842
fdfffe00
4fc4179f
00ce7b29
fddffbff
815f3fff
244307fc
ff257dc0
0f3ffffe
ffc03ef2
5f750200
0bfde082
26be3600
e9a40f68
21deec17
e4ffa121
19ffffdd
aec7fc00
3a507ffe
5f27feef
01d01ff6
1181b002
07f1fff8
40050001
c0054801
0a093226
f006dc00
e07f001f
dffd7236
263de07f
fc021008
3eff400b
01df7d11
e00007fe
0bfff92f
f61ffc00
9bf508c5
03f401c0
b78000eb
1c69c02c
3fed9004
fe00da80
3bfffffd
ff8a179a
79823d7c
dbedbee0
cfc74ee3
5fa88302
23ef80e0
264009fc
04ef0000
c00cbfdc
005b7fc7
0e04426e
9bae9900
1ffc7db9
fdf99c0e
41960170
25ffffb8
fe001300
9ff16fe3
27fb003f
d2085007
60764e55
fff83004
763f7bdb
fdf4ffff
d01cff78
077f1ba1
a00001a4
f7ff8bec
1ffeffb1
04ce02da
05fc65b7
862f84a7
019017e7
f802b778
01ca002f
47e60012
12078006
7c2803ec
ff87ae48
7f5000f7
8000ec8f
1c2de97f
17887030
6ff76686
8c00056e
000176fa
6fffffe8
ccbd8068
f9002081
19b8e007
6fff2f00
e7600a92
5e00fa77
3e73fbe0
07000d40
0feffffe
e090bfe0
3d21b705
efc00100
0bb9fa07
ff8095f8
eff7247f
f35edfff
05018483
87f803fe
002f2322
fb4b0aca
32441ff3
43ee59ff
c1ffe03f
01e40002
80050126
0bc276cf
f03bd570
240af7ff
78003e6e
fbf7c198
18c012dd
c7fdf000
31f1d831
780fc722
34007fc3
c003f200
3ffe72fc
08430206
7ffff3d2
ffbdfbb9
249e70f4
0000f900
1ffff000
90ff0100
7037dc01
fffc0d80
e8200996
9bede0ba
8289eff3
00000010
b1301140
1ef7b7ff
c931f959
f12b0092
e3fe5c3f
7dbfa000
ffc9e5b8
01be0003
c61e1ff8
2000b67f
e607ffd4
481a003c
b7bb13fe
fe800425
9d64be10
f3421ffe
7fe8b41d
64b40087
ee002ffa
c01e1683
cfe400cf
d19003ef
9302233f
4db433d8
c9814100
090100f3
313efb65
a5f8fcf0
bf55ea1b
bf03a43d
f1a8076d
19ffc7ff
0001a04f
d1c69ef2
dff2af47
87e00ff4
de00087f
f7e006d3
7fcfe803
ff076681
ffeff6fe
7fbc95ed
7bd7aa0e
cc3fff10
16ccee6b
fdef04fc
fff00001
7dffc01b
9b57dab1
fcfffde1
b10bf679
7a8839bc
7f7e2352
c2ee3fcb
6140c07f
21902003
92405201
f082682e
0bf12b3f
7be7f6c7
0640098f
cec62600
fdccf9f3
01d3dfff
dffff808
ff767036
ffffbe9b
6048393f
042217fb
d3ffe00e
87e6c23f
01bc1000
90050400
e002ffde
d7ff80be
0e10010f
0d000880
fb3fff23
77de663d
e34bd000
fbe7ffff
b729ffff
c020001f
ff207dea
404fa7bd
27c9801e
4112e206
8a2ffec0
838806fa
ffdf84dd
b237f957
c17fe4a3
c0015b43
c0077c01
377ffffb
5f6d237f
13c01ffe
7f65487a
3ebb39fb
9f7d0000
ee0decc0
3f1abaf7
92001c05
c005c79e
dffc1220
363feaff
bc020310
dbfc42cf
19ff007f
e0830219
3fffeb3f
5effff0e
027bfb00
545feff0
36500fc6
f001d100
fbfd8d07
9c1acc7f
020e7efd
00080037
bfd7f800
9bff3ac3
70a82fd8
80f3c001
2033fde7
001e804f
3607cf80
0342cb6d
2596f1f6
7ff9d19e
0c920608
37bfc9e9
8eb5f204
fbe3fb0f
373fffc7
fe402700
df734423
eff3141a
1fefbff3
46003fa8
dc0397ff
8ec05ff6
fc9000c1
6d0ff377
6def138b
e002d803
48ef8fff
f205fc00
807fee1f
0003db20
77e0ffe0
0381e911
521f3003
fe11b3a9
ffb40702
24ffe7c3
cf010005
007d024e
78c649ff
a03fe00f
dfc1a79b
c07b7eb7
704f40f2
e8062124
04214fc0
0fa69416
75cd37e2
a02403ff
3ebcfe9d
fc01ff08
de1cf0c4
fa36f759
601fff43
3783dffb
fffff45e
d600309f
dfffd302
cb001ff9
001d5aff
511ee0d0
9010ffdf
fff107fd
ed007fff
b71453df
e6f69b64
a6fafe00
067dfbf5
b70ec010
fde1ef2a
2810257f
de97c765
98001c37
f1b8ca86
02a5c25f
fc029a26
6775d40f
5c000814
fffc7e65
ffe90f9f
77ff7843
edff8c8b
7ff6bc05
fe4ec000
0cc36e00
cbc31fd2
a58e48b7
fff365f5
ffff187f
0000852f
006ffbcb
28204800
ff80368d
1fc3ae20
72401f9a
1405ecf9
c01d7f78
1b34bf89
1ff5eaf5
e3960d42
ff7afc80
e47bc012
fff80000
bf837de2
5941beff
e41b81da
002f8004
2b4f7cd4
189c8001
806d3fca
ffa2bfed
ff7801c1
00400a0d
2f680108
cce2743d
ce00ffff
8277db06
00fc1284
dffaf7fe
2381100d
b5b76e1d
669b600d
9c0d8500
c933ff94
913af7d9
13fe0001
0f406118
4ff8204c
03e00600
070229db
4ec01d46
b66a00ec
7cdffffc
fe00f684
1ff9176f
60000019
b0820fa3
fd803bff
ec022603
4fe604ff
dfdea07a
3f8b00d0
61efff90
baf007ed
77e5efbf
bf05de5a
2c17ffff
e7ffff27
f1cb0bf7
02a010e7
ffe062e8
01ff0c17
2000201f
00dd7fc1
f007687e
ff80007f
c843dfbf
7fc01cb2
23fa0012
e0004d2f
c1ff9073
fff58702
3fffd97f
a987fc00
0001e48d
47fed004
907f63b2
0bc9c716
c01000f8
f400d828
1ff74c83
e9007fc0
f1984791
ff4805ff
fffc0c04
bf8026cf
01cdc91b
c0080ff8
003a1c7f
c84feedc
4d048006
412fffef
f7813f04
3d75b020
0940ffdc
ec5e3006
3dc00087
cc00ff70
8008081e
e8f7d3ea
674afbff
9b05249e
ad000600
91010019
20020003
ff630fb8
00003f81
00f0b2c9
5f8825be
f9082870
fdff477f
0300004b
40be3450
fe760558
2edb5f27
ff080c70
5b444703
77c3883f
0f37ef83
ffcbf7fc
dd2001f7
5fd40c8f
1fffff80
c1ff1000
f9c0ffc3
f0e05f46
f3ffc13f
0c07e021
e45fffe8
2b93fefe
7ac00425
4fc600b4
86c007fb
08ff8075
20001003
04007600
4007107e
17883ffe
196783ff
02c00ffe
03ff1d10
c0c27180
01fb9fdf
7ff03c18
fff62fbf
3bfdbf2f
00263e9f
f7fc0020
07b8ffc6
002162fb
180b6ff8
49fb0204
a0018103
903bebe4
9ffffc11
f0d9e01e
06bc613d
897c0810
4305b6ef
09ec82d8
003f0078
527e5880
004035e7
da4003fe
ff878efc
1200c1f5
8003400f
a840c700
2830064f
a0377bb4
0030069f
00017d24
9ffe5ffe
a3fb8008
a0042000
7dffe00f
217e0710
fae200c5
7810ffff
1f5017b0
001a0149
0ffffe5e
0e06ff00
37f4ffe0
6f400c0d
025e4df3
7bdf3ef8
fe049cef
1703ffbf
9000024b
2ec003ff
e02bf01b
7fc0fe44
fd200572
fffe812b
1e57afef
f000f812
80813300
00e852fa
864e007d
00721a5f
fb076324
7bc6a7f5
00802001
1f07f400
f00642f4
1fe927ff
209effc0
d0016c00
fe8bc216
7f03fd50
fdc1e073
7ffe8b19
74be0000
59f099f3
1ff094e0
80fb8600
4e17fe4c
6f9bf9ea
7213fee5
5d0444ff
4249cc80
25acf005
b0008140
1dffef4b
d40fe9c0
01020009
4800190c
00402401
a0bfcff0
fc7f8cbf
1fffec97
180f8f00
67be4da4
20803ac0
f011bcf3
900947f7
9683ffed
5bdfe068
026e0008
c0127fe8
0240747f
e2fbfcd1
0024cfc7
effec836
b04636fe
6fff3a00
7fffffb9
0269cb00
320dc163
756b0400
f9050400
c0ffffbf
fe7fe000
f17fe1ff
feebdfa0
377beca9
fc0083ec
c07a7ffd
8008ffeb
5c875003
e2dffa3f
18074801
bff69fff
33000001
70001ffd
d403d074
16fdf136
cf20ffb0
fff1fffe
00a4c03f
37f82aee
6835bcf0
3cd3e005
9406000e
0293f822
a04022b8
b0303df1
0b5087ff
085f8000
0ffdb892
db8180d3
2742ecf4
3fc04261
f26e1804
c0400d98
fffd9fbb
e1003eab
007fffdf
280102ee
bf800105
e7fdd8db
4c7f2bfa
fc320102
7dfb26cf
287ffeff
e0093004
a40016ff
0907ff7b
be983f38
2023c9ff
7ec0da45
1bc0f492
eea191b7
9eeb6f8f
29e98126
b666ffc0
ff7b6009
004da49b
33ffffff
f3a4f101
002ddbff
02526ff8
01cf1009
beb68124
bbdff3cf
1006fe41
13324061
0068cde5
8077fff0
03fb26fb
33e87149
4ddb8160
adfdbb64
56001fcc
40007ace
62023b68
ffff7f36
8209601f
046ddbb7
1377d008
211ce008
a82b0a68
84004bfd
96f8d99e
44ffc005
f64ffc19
803f7009
11b1a427
e49ddb84
d6c81816
800f3008
fe8a1636
71b96763
08040413
149031a4
093f7001
dbe38f24
001cbda7
b8326c82
97bfe76d
f7ed80be
8ffedf61
01622004
aa7d2420
c93ff487
fc68cae5
3bfe6dbd
3e446c8c
004bcbfc
000093c0
e0f801b7
ffdde4f7
6f080120
b5ffdce6
0006bffe
40169fc8
09ff0000
a0400106
002c877f
b6fadc5e
1dffff1f
00dff17f
7e61600c
03473ec8
c0168ff8
9298fff7
8ff1f8dd
7029e01f
6f8723fa
6ff3801f
04984800
c03f008d
fbe1f7ff
3fdc0807
6f6f9f9a
e942cf6e
fccf2027
9000ffcf
5dfb8104
309d912d
823f6320
ec60f8fe
c6ffb010
d228ffff
1ef387ff
fd100000
86841c7f
7f8005bf
87fff7ff
a89c1c11
800fd95f
06e01b3d
fe96005a
1effffff
92897000
d3fefffe
007e1805
6a43fff0
7be6e01e
23fc2082
3e017f7f
b02fe07b
0365c3e1
6dbbfff8
f0059081
0370001e
02038f30
04c13b9d
7760f000
f91ff787
fcc80e0d
1ff0783c
80b87fff
f40097d1
f4de87b7
bbffff04
08022400
3c4fffc0
0cbffc01
b0081c72
1ff3efe3
cf24e004
fffdfc86
e074fb37
7f210e24
b7c06b7d
02483fe2
0002e000
feb6f3f6
17f207ff
846bb740
fd04207c
13a03fff
7fe7fc3e
503d29bf
fb6e0001
80009ff7
fe06fff4
ecddfc1b
49c97a3f
8ff81fd0
0032d10c
fa640008
dbdafe5f
aff89b6f
e61c0607
fe1093fb
cadefceb
ff840074
8000ffff
8364001d
77c311df
80001fdf
fc01b567
da14bc07
ce000036
13ffff9e
ff49ea01
f000014f
07fec09e
800000df
ffe19ff5
dc0160f7
84049ff8
9208006a
fcd04912
ffed980f
ffffeeb7
fffbed3b
d0dadbfd
7dc91ff7
b5953418
20ffffcd
51affffb
bb7efa80
002ed2ed
4f7ed0f6
6c7be820
33fb7f24
7f000409
fd121828
ffa406cf
de700dff
e195f813
0298319b
704d99fe
40242ef2
c927df40
00030c14
6fce7900
419ff023
1007977f
7e01c22c
ff21128a
56444001
f4001b10
10240220
8188004e
1fd00013
03fd3007
9014fffa
610267fe
0f047fd3
7687ded1
9062001f
07fc05e7
80304ce1
7f408d9e
9041bff8
202fe428
104a028d
06e5ffc0
8ff803fe
ef80c75f
bbbbe197
00006101
64041c40
3fc31f40
0390fe00
ffb89020
ff08068b
0e7f7fdf
4b8a001c
17c9817f
7141dff0
244e03fe
c00f903c
fdf80f00
fe91f941
f1be7f7a
0fc7ff93
ff982400
37ffbe86
ee3013f1
a3c7fe45
ea1fed30
b17f0822
9f4effff
09c3ca3f
efc337fa
083e7967
9f866f20
fd260405
e005fff7
c01c0102
a1ef3fff
e4002025
c9ec76cf
0000a06e
ffc129e0
bf93ee3f
51fec009
59bc2a17
04285136
b0115fb4
032d3f9e
29587908
f0d0dc7e
862e001f
130001e7
edffe5ff
fd86d9e4
0007f048
0137d8a0
eef029b0
50178fff
7fc00e00
7fffe163
9dfffa00
f23b0cfe
ffde000b
a987e2c7
f7b0bb65
1ff71000
ff09501a
70f843db
74710017
fbcc7fff
d82b924f
b7fba5e7
bffd9030
440a0010
16c007fe
fbf1fb40
8ffdfc00
000fff00
a0ee91b8
7fffe225
0bfef9fc
3fe9fff8
7ffe8101
9f01f858
000cd7fd
ee7803fe
f58f7d1b
3003de00
ffe01ff0
529e5ff7
ff782ff8
81ff0022
1ff06452
3b30043f
9fd80b30
e582401e
f803cc5f
8179008f
ffe1dd24
401499af
abff9dc4
0180a003
4f00037b
80200002
0049c59f
004041c9
fdd71bd9
186fff65
00e00102
0c000d82
79bbf803
fd6ec5c2
0fc7646d
2c003760
07b87611
ffc21f70
d361ec27
b7c02fff
0d212496
2c06c800
7f2d0800
0447dfff
00003be0
36a06fff
003f81a0
8c000092
1001dff8
f1ff8380
a003ff9e
ff84fee0
8ec2c245
007fc65d
d89c81b0
e33bbfff
d8b2f9bf
3fe6effe
01ff8ff0
e3c80002
d0eff9be
297afa01
a3ffc016
004c0124
8bffe200
01bb17ff
c0244000
d1ff6980
0b70005f
00ff8008
dfd7708c
9f89f9f2
3943b1ff
8004e90b
1cffffef
4b7fffc0
67272404
1c0683fc
00027fc9
bd31cbc8
6e85c9a0
03088002
747fe004
07ffff00
e7ed8021
5600fff3
16300f32
00605fd8
0fff1e3e
6fb83c00
bff7fff4
f4800929
63ffff5b
f9e7b430
0e40fcff
1e200d3c
00012fc0
04c802fe
4c0fd904
4f824c1c
903df999
bbeec127
bfe18e77
b000e026
c000b941
d4801754
540a2e09
00000010
5e248140
003f73fe
5249f000
0497f1b0
a1e49a0c
dfe9bfab
a7245fc6
06456349
b2e23fec
c0006c00
efffff7f
ee4e73f6
3be3cffb
834064f8
027897d1
003ff018
5984be28
c3ffd1e0
4203f43f
26505006
b00e1a0b
c7ec1800
f1ef0013
e00de01f
14080141
8035fc40
9175fea7
e4ffffeb
00457816
ffb1d8fc
f60079f8
16071ff1
ef314f88
7fee01d2
9997a7fe
7fb03009
07606e04
8e026d46
ec001667
e7f8f417
a05f9bcf
63f077bf
3ff73100
4ec5bf81
a4dd181f
389ff35f
f2bd9f7e
a7e1e83e
00d67407
093fc078
df863b02
3cff8fc4
90539d70
fc6d4033
c1fe7fc8
5bc1f37f
e30217bc
20dffec6
f6c7f6e1
f3f7c13f
f9ed5567
ff3bfebf
0381ddad
1077ebb7
c9b0bac6
b7b401d3
ff000ff1
b61ff84b
f3ec00bd
6ffe0aff
75c01cff
9fff0a80
0782f1b8
4df0fd89
217a079c
3f1fd093
6ee8038e
1ee3051c
ff03b1ca
f13ffab5
e43bf807
4c1fb1fe
80a6fc45
8347b02f
04e3fc05
fe18134a
91701dfc
804fffdf
13781c0f
ff81e7e4
07de5def
a6a6dff0
49f17ff4
3c0dcf78
4fdfb7a0
fff00061
504eba7d
faab6860
e07fffff
c803f620
99f0004f
fc21df6f
efe9c407
ba1b000c
e46d0066
4ec2103f
4087fc00
007dfffd
b9a46ff9
f37dbfff
db9ffdf6
00025f86
0e7f0029
d96fe80e
b8967fc6
11b7817f
0789a5e0
30036fc2
003bfa09
00bb247c
5be00f98
7a1afff9
17ffa7ff
fa007dc2
feff03ff
ffeebfff
680001ff
8c776000
1c6c405b
2007c000
20007fba
84852760
2720bfd6
03a0c804
c3e40120
ba83f020
103fe377
bffe0058
3febfff8
ee18ff80
8bffffbf
b34b7fec
d1fe9fee
0016521f
4cdd013f
ed013ff2
d39890ed
fee00ffe
42c049f3
e24fc881
c0f7843f
0fbf767f
fffd7fe0
c019be10
00001fe3
becaf0c9
fffff678
ffff0dff
000f3edd
4804ebc0
b0000020
f9f4149f
9723e9f9
f27fff97
2389bd03
ff8bbfef
81fb1261
c1ff9503
6d0e31f6
717f7014
f77ffd30
cb205dfc
4ffa035f
215f39fc
1fff8fc7
ce3dfa77
e1a07c1f
dd0c7c15
afe7643f
01b440f9
97cf9a07
fe3ffff0
fbfba0ec
f8f66e04
f1b7030f
9021dfe5
f810911e
c5b61c01
12f79f19
245ffc02
07bf3fe6
1c00dbfc
64fd97b8
41eaff80
099e3ecf
32fbfe3e
f7ffc017
4430471f
cf2db1f9
6137b45d
f27c34bc
00ff9097
bc81ff80
1d991060
fb007fc0
71381af9
be7a6edc
da43c5d0
906000b0
0577a71f
8f031f5a
5e06f9f5
5df278cf
ff707031
3fff446f
006c8801
f84f81cc
f0035ff1
3537c006
3a42f527
8e001b8c
1c317019
e8fd89ff
6fa04e4f
6e5a9be0
9f0c6fc0
8cc08c83
c06c7813
3d3f8fb5
ff3b95f6
036fc767
80807401
8e04bfd8
ec7bfb2b
f82c0100
063bebf2
dc774bb8
400fbe82
57db0909
a80120fc
47207fb8
9f04dc81
80d7fc14
07bc000f
e4064030
df82a6ff
c003bff8
0087ecef
5edf5e80
80f38fc8
ef7803eb
ff807fdf
3b40f610
81800006
e401df1f
3f6c012f
eeffaede
e5fe01db
ef678031
903ff76f
49124264
0de80038
f707e042
038021f7
7fc5b007
be279b7f
ff71ffb3
8e178fc3
001fdff0
0b102060
37fffef7
adb41ec8
1bb1ecff
7f037ff8
b2791380
1ff3fe23
7f080018
fe0073fb
3ccf4067
6977ffc0
ffbef030
c3b1499f
401e4fcc
bdef017f
c2748021
2fa6feca
66bcc004
a4791232
b8006e0c
6dcf04f1
237c0501
c01f86c1
92109ff5
7fa3b5ee
870ffe60
f0059600
642d401e
47e58c7f
11d92006
ff90c140
3c9e01b1
8084fa30
5ff1607d
e8ff81c0
0fcffff7
1ff77fb8
688f81ea
8519b00a
03a00307
30427fc7
057f005c
e152481c
9fff86ff
fec04bd4
917e0403
f89ef5fa
4cf93e09
e009f7fe
fa00713f
76e6ff81
1e71d85f
7ffff1af
b809427c
3f8e080c
bf2c01c0
0615fc81
ef214ff0
be5f849c
5a00fffb
c07ad250
1f207248
d0001c00
6408fc9f
58fe603d
f01003a5
fb812c07
03e3b0b9
df477d1a
eca16321
070472f4
fe005fb0
e7ded823
cfbfc003
bea5f6fe
e1a6341f
c7ec87c1
9e2f507f
e1ffd07f
0f1ff41f
3be8fcfe
0affefe0
989c71c0
093817b0
f3fe04c0
fd3f8fc1
323f44cf
efc3fc9c
e8d09187
f7c0b490
dff7c100
f3a86fc8
0488040b
24ebe0e4
135801df
41ff4f2d
a80e7b00
3f000fe7
fa80187a
0b80800d
783cfe39
0dfb2000
3fe227fc
0cfef400
8e003c06
03f1ffe0
3f1bfe3f
56d8df02
97f407e0
dbffdeec
fe7f7ffc
fbf1fffc
2bbf0007
fbff7fba
1fffd8cf
1a5fbebe
e103680c
a78fbdfb
f863f624
bfcaadcf
fefe4b1f
cdfc9087
ffc80276
69d005b7
5ff7c41b
277ffc00
00699f92
3c931fff
ffffff38
1bfffb6f
005f0ff8
0ff70000
de06da40
f290ffc8
79b0906f
d8813fb3
0013ffef
1ec45ff6
64ffffeb
7f612efd
221897f6
cdff4619
ff007b04
f016608f
9ffa0ddf
f800482f
c0793fce
7f20eabd
8405b00f
00811a16
c4383000
f7e3ffff
87fcc801
7377d01e
84a36004
16fa36bc
12f60600
bfecf998
0e00ff80
dbfeeccc
d45b060b
cd384f72
0000f00b
c030f064
003c036e
db71ff00
ffc207ff
e1f05409
e30fe803
c9d980bb
0fff53bb
47efbde0
00bf8618
121f1f80
195e9f20
7ffeffff
b6af1dcf
000fd8df
fb147dc0
a000406d
66fe889d
06ff0fc8
0e020d00
fe7ac040
48840207
06c0dfaf
1cf9fcfe
27006c19
7005386d
4780000c
3de1006e
fe019bf1
13b1b77f
24699f40
89f8c87e
044df010
c800fec9
b6380013
3c217917
7f7ed0ff
0c605b95
037dd87c
c83071f8
dfd9fbfb
f82a1683
00ff95dd
51fd02fe
d3993785
37e06f67
53de5ff0
5f6f2f84
3f0781e8
21ff4836
ad49ff41
ff030db7
0fca2019
99c1bb00
1803ed97
48121828
fd91d8d8
3b527978
dea10200
f765e8dd
3f978fad
89a6ff37
fc4866f0
37c33000
99ba0481
0181271c
15e7aec4
ed7f9fb0
fbb08963
fff4e20f
88000f6d
254180ef
949c4edf
f6db1f01
fefe3e02
b69c0e67
19d7fc3e
a99f7ff4
78280000
4607de8e
03103810
7f200f7f
0bd9e33d
5d888ffc
38000ffa
81fffdfd
e38f4375
ff9d81c6
9e076091
ff701816
6923f803
0dc08c0b
03ee0001
c01ef000
f7a0438f
7df3fdfd
2fff8e4b
703300be
00a03fe8
78ffbe89
7efffd34
1c0df000
bfcccf7e
7656000f
ecfe7d0a
fb505bbf
804857ff
efc67f59
d404fe86
7fd81ff6
b740c3cb
36c10cbd
f29895df
0260178f
7f040ca4
c0071121
bb723f3f
7ff37e00
8210058c
ffa5c0ff
3b0d701c
9fff0030
e80e0087
97178626
b0000401
0407d97f
c003b100
7fefffff
fc1201fe
85220ff5
6acfe2fb
eb6fc002
37fffc1f
79a7ec21
7f8400e0
381f817f
ffc1dff0
f59e2dff
831ff04f
057f4388
77ee849c
08ffe001
b3f99a03
1fffedff
03b40003
b480b304
ec01df07
42115e7b
3ed0ffde
1c34001c
d8c35ff4
f000200f
18f5c001
1ffff27f
96134000
6391348a
00000f00
25e07bba
fef57f02
ffe0bc8f
07dfffbb
18001732
0ffffe37
7f7fe4d8
fbff6f00
3ffd1007
f210c176
1f9f3fdb
ffff7f00
09d503ff
0f601ed9
fd0427b0
ac15e5bd
ff81b82a
3fe7ffff
7759e01a
dffe034b
fb185fff
f7ffefdd
0004cb17
9403fe02
fffa5ff0
021e88ff
e7fd8600
e0046041
67c9a693
ff00db3f
253ee161
00fefffa
57fc7e00
cdc01ff7
137e01fe
2800021f
bbff400c
fb4fdad8
90fff62c
b0481a81
2059c307
758c3e20
ffffe922
fdf1f8c2
fb977f84
01ff01f5
080ec000
3fb7b640
13c9a665
d87bf6c1
411c01ff
8a00176f
f4002ffd
807ff187
8dd0800a
3bcff81b
00fd8019
39bfe3f6
ff7da7e1
792c005b
f67e0f40
0001ffba
00007706
fc1afff2
c06007e3
9900003e
03fde766
038cf951
19ac0108
80bdfb8d
1ca1f739
260c0ffa
04bedb84
e00bfaec
ffd40406
9ff803fb
3b89c960
be4403ff
72053fd6
1c300092
ff6c07b8
0dff190f
e00921dc
fe7f81be
0e06d801
9c59991c
0727f178
81f60dd4
bfb0ea04
d81a7407
1720ffcd
7ff80049
d01fffd4
900003e9
f6621000
32c40fff
803fe46b
ff8bf6ff
dbc27fff
018fdf80
1c90033c
ff797c41
10370401
7fe803e0
40fd63ff
043dfff9
a461df0c
1e843400
7a12f7f0
6afff85b
7f005fc3
7bfff7db
5b1213c3
3fffb720
6fffdef1
0077ff64
fd9ff018
fdade5ff
f3be07bf
00003fc0
008793c2
c2fe597e
37fb9800
9007f0d2
1fa04bc7
ffe1dff9
0210ffff
c00ecbe0
5d123274
d03dff98
80010296
78018508
2c7fe02b
75ed1fc0
2ce0f0b0
32ea1b80
1ffff848
fff3ffe6
4ffc9e09
ffffc360
c6ec0000
ed7ffbf6
2f73eb3f
bffff3bf
fec92c00
1ffc051f
00e669d9
89b4f876
ff8e3ded
4402e7e0
9fc7c001
a07c01af
c2333000
cf20006d
c5d24b7f
fb002034
5250001c
ff2936fa
fbfbb019
481377bf
e3cc0600
8b7ff65f
31b3fe68
3cffde93
f9fe4de9
92040193
6ffe4180
07e72cf9
04a4258f
00352680
c00df923
13f71636
515fe34c
00ffad44
b00f6430
6dfa71cd
c9aa01ef
17c41e40
fc07f85b
befc3997
53efc27f
e04e07fc
b1e5c02d
0098d3e1
0085f49e
cffc3834
220decff
004b3470
37ddb00b
f7ff0304
6593dffc
49ff893f
6c8725e2
23563fa3
a2026e08
013e109a
0349df00
6be008a5
05ef8332
027fdc83
fd122980
0e47d37f
d7bfcbf0
94ef760b
8476db66
ff7ede00
213d8e1f
f7b7f612
4074afa9
34de37c0
4d472f97
00010118
f7fffe1b
6877bbe9
eb90d9c0
821fbdbd
5ef57bcd
f058b482
5f2dc8ff
7ff96001
00413f2c
7775f607
09ffe7e2
42fe1700
c7c01f7f
51fb9ff1
e22e5402
e7007fff
0a02ebbf
cb963842
a4007ff4
7ec4e1b1
02de5a08
fdab7220
fff00017
59e0034b
201ffb02
ee58082e
10498212
047bff44
bf840020
4025eeff
2c000f48
a1ff0404
2001b2f5
ff86fdc0
e081ff81
9b7cec61
1d0010b8
f7f6ffb2
5bfe30ff
0edf608a
11ff1b8c
fff3072c
925fb27f
e33ffe02
7d93fffb
d001b208
8422e01f
7fcfcdd7
bda006da
01ec1b88
037efa80
303f0fc0
fff80058
0057c018
c16d2bdd
a037fc04
8349ff6f
801ff92c
ffcf0008
408a201c
cf1b6702
64a58530
bfa80200
21287442
107ea4d5
ff8fcb00
c11f5127
a0be93df
fe700700
3f5b2026
b07ad901
000bfffe
df1961fe
a43fd786
9522c8ff
02e007ba
48a00209
000020ce
27000c80
b2fa1aff
fff740d9
068b6806
9da40c90
a1e900ef
00141205
49fffff8
ffff4882
ff0625ff
734301bf
2486001a
9803df8d
7fe01b7d
00480000
3e849000
ffc00002
f9000767
0084003f
922ed000
0033f900
b7f73dfb
beece1fc
9d21ffff
0492037e
feff0000
c20ff9db
cdefc005
f00063ff
bb12fec3
886c0bdd
82401028
bfff6eef
09108316
80c260fb
9ff9bf7c
0817cf76
f7b0017e
6c81f9bf
c80001d9
f8000203
e3ffefef
06a005a7
6da70000
e980c61c
daff8dee
3ffc7c08
d12fc083
2ef80413
163fe80e
07ffff00
80e58920
ffff0d8e
148e6a23
fe9a2000
4527e7c1
28800013
b6124008
beffedf3
757617b7
c91fff7f
0ec0ffff
25fbc801
6ffc0039
00dbeebf
0d703fe0
10c3fe37
8036ff90
fe4dbfff
9f401fc7
a1ff6fb5
000f5803
6f000000
b087dc3f
2d10a487
4019be00
16fdfdf0
28305ceb
06170ff8
34f78030
fff00000
a0fff23f
ff7b7ec1
917fc257
59fd6489
e1ed8c82
3d37a6ff
00001bf8
81ffa612
95dfff27
8001862c
8fc243ea
24b23ffd
fa400004
04001f9f
fc41ffe2
2bf28007
6e062dc6
3fd22003
ff34426d
05f803fe
017f000d
fda1b602
9200018f
f37f9bc8
ffe00e5f
6e80ffff
107247e7
e2000001
fdab0741
ff93d16f
200241ff
fdc01b79
21b2db73
c9200b6c
96019b9f
17fef835
00647c18
4087ffb6
cbb40212
037f4c2b
ffa6dbac
fbfe0224
1f024923
5bfd2426
0ff49498
be23e6ed
50a873ff
f5a10034
1b6497cd
3d813ff9
03d0109f
c0934fd8
efd09231
3206c92c
30887fc9
f7d067f8
24c4007f
0083fe08
7fc90c89
037f3f20
489d2004
41349023
1fff07cb
6f20e900
d1079c00
22727805
df2cb034
abffffca
fa0c0002
7fc3dff8
41db0c0b
fb0002d4
047cc03f
0ff8830c
80eff040
f83c05e7
9677a807
037ec05a
6843f2f8
b0c2dfde
0bd0005d
9bffc140
fed883ce
ff9800ba
0058c8a0
803aa000
6f9dfffd
b7e01047
0977ff80
400dfe92
00487edf
f0c013c8
6072c01f
08f4e0ed
96a83fc2
e3bedb5f
ede0003a
4cbf97f2
1ff20c00
90022c00
0ffef62f
6d8d4000
97ffffd8
fd292335
03ffbf40
ffe59ed8
ffff117f
1ffffffe
fe0055c0
020a6fff
08796200
cfa76fd0
cf825213
f9000787
91038017
5000005f
40000043
11679b40
c2421c05
1be4028b
910101d2
00c643fd
d481ff00
0010f034
12255380
1e2fe680
00fffbf4
d404d3a0
fb002004
e6bd2805
680fe09f
01138968
00dfd497
f8110e80
1ff92fff
06df8000
9e5fde6d
007fd820
7c409636
f7e804b9
07dc08c3
4610cfe8
6204d90c
5ff009e1
cfb26db3
ff780184
1d81c00d
fffe5fec
97be9dbf
d948db24
fca02038
01ff0006
1ded03ed
fb07ec00
49e97f8f
ffed7ff2
df9c01d9
0eb92846
02dfff98
63601f60
1bffe124
9be16824
006dfffe
823c03fe
f7967fb7
4edbee00
d03e9262
67fe5d1d
fbfb8a69
b604ff9b
1fb03bf2
00098808
fff80358
808fd68e
c80081bb
96f40002
6feda024
fbf28efb
2fa677c6
010d00da
1ab40440
40100270
10492410
822009f4
b6db0f98
6bfebde7
17e60004
1e80d680
6f2b8c4a
5f6d8180
48159b66
000034b8
6fe840fb
bfc01ff2
6c060205
03a269f9
173f0022
3cbf6fc0
08317fc0
0001a7fe
9702bce2
26e296fd
603bfb69
400009ce
17c10a78
00537e08
1fea3802
dcff8410
c907b808
007bc6da
101f9eee
f0003db8
fff80267
f8e91091
d0005e6f
07fefffe
bf524ec1
ffb50c0c
fff100fd
5f742e03
2d84dc80
b0c890f4
77ff8b7f
01c0f38e
df3f6f24
bffe7d82
60f81f8f
ff8dffeb
fb3730e5
6016f66f
6ffe0a08
dfe3f179
12e0e6fe
dc908598
0839811e
0e4c0388
f676f9a0
67f43e10
71f8000d
0070ff0c
9ff60978
f1c7e101
9b8ff892
02e16fbe
9fe90004
1000c203
ffff93c0
3e8036f9
7c7017b4
575f7027
0fbfe059
fb181340
e707e007
1030ff33
f20fdc80
a6027e3f
8d421841
d0029be6
e6e3f224
b6003e8f
1d70bfcf
fb640db8
2dfbff93
0b2fbfec
7ef3c508
da3f9d8e
fa701673
a8d47ff0
ffc0fc8a
1c5806a4
c2e07f76
0e416b8f
b8700762
242a7bfb
54fde180
70778508
3801aff7
aff70ba8
fff1f81f
00ff17ff
edffe1fc
b87ff76f
f05ddbe9
85fffff6
ee01fda4
3cf80fff
097f9b40
e901c800
01fff0bf
0e4e9020
650ffff8
2e607e00
7fffc80b
2157d3fc
d25bf6e0
b600b5ff
672187df
5bfe8c9e
0ef91c66
003a001e
0407fe02
ffefe3f0
d3ffffff
fe5ff427
cc270041
a1c606ff
f4007fc0
f0200000
63efc4f7
048004b0
82ffc1ea
030188fe
d6e651fe
ce003eff
de75ffd8
47007fd1
f4ffc36e
005007df
bd3c325b
fee6ff4b
ffb4c04f
c80ec282
9a40497f
00800101
ff001ad0
07f893b1
667fc000
0743fbff
4a3dfbd0
778e0018
c8bd7fff
0400fd7f
fd0378dd
84bcf7e7
e09dbc01
04744102
d8078100
73c013f6
06b00900
fcfe07f9
91685fff
e3f14003
efff8983
0d380c0d
e10b67e0
03bfcc00
00030c0e
2d82a642
fffff6fa
fe171dff
138ffffe
b09a7fc0
afdfffe9
3fd23ffc
a9c83017
3a880418
97600308
ff0f717f
f6044bd1
000e4400
dedfe1c0
1d7cfff3
d2ffc000
b03c01ff
803fde83
5fa07eb7
0f05903c
7000f668
61f83913
14e2ffc0
7ff861b0
9387581f
07e7fc62
01d86000
9cbe0861
fdbffe00
7f48ffef
fc71b0c2
2700c0c0
ffcc7ffe
8c0f0413
a70a00bc
fe3cdf93
e2a03467
d802f043
fffa0ff8
5d7140b0
c0fefc7e
42079ff8
67fb80c0
2ffffe07
cbc80072
7001801f
d85feff0
fff803e9
17777c6f
2f107e38
2e4003ff
017cb520
f84a7fc2
dbc0dbed
903fe4fd
ca1c01dc
b6086d7f
c3f0005c
49e6d3c1
70401037
3fed8de2
8fa3ee3e
3ff800d9
2f81e0bd
c6f280b6
fa3904f1
7e8b3fc3
37000407
fe9fdc20
0a818012
83485bf5
1739003e
e10499e0
80017004
01b4e001
606033ac
00037fdf
ffea1be8
41fe0bdd
a3147ff7
4d6d6007
eb668319
0413c03f
b656fffa
fbbfe5f9
e8fff3cd
cd2063fb
02003fe3
a503fdb1
31ff84cd
ff2de4cc
fee5ff27
ffbf005b
e9fe0703
09aa31bf
0fcc483c
00120052
b02ecdbc
9befe6f0
d801efff
00018fd0
01bf0000
1ffafc64
ff00720b
10804075
00187f63
1803feff
9fc01fb3
0bff36f2
18004801
5ff8e004
f049bf3c
3c5dffef
f0e7b7d0
e7ffffff
78d40006
f97ee116
22afef7f
fc00d002
01c41fbf
e10e05fc
bfffffff
dfb9bc4a
0bf80300
2bbc81cd
900dabff
0f81fc10
7ffe0deb
97ff0180
9daec812
849a3656
7d3803fe
ff9bf802
ff99b0c9
e43fe42f
8695fbe7
4700d1ae
94200391
e3d24003
fb7f803f
03feec47
112fff1f
55c01120
b93e8cbe
fc01e83f
af63d1b3
fe385420
400ff8a9
cd04053b
b03001b7
fff68001
37fc8000
6fffadb0
fad2071e
3d043e84
deb6bfc2
1d8007e0
fd047f40
843f19ff
fffff75f
0f2c01ff
0020c109
f26db6e8
dbe50fe8
7e27b1fe
e43fa002
18007e0f
f4f823fe
801ef75f
835efe36
fbc01ff0
9011d7ff
3f008a06
ffb6fc08
e04556c3
ffed903e
01a04fff
18774808
e5206010
944137eb
984e00ff
f4800e07
074de04a
1fffc7fc
b45fa030
a4101113
e5ffc01f
065418cf
b0221f00
dacdc0ff
dd01bfa8
da5f0000
1ffffa13
ef024800
8bb823fe
607fed83
f013dbfb
ffc0a00a
83c806df
001efe6f
6dfffc7f
1c05d013
cfedffc8
f09e98f1
2d81400b
832400dc
f6837df0
fffe05c5
c3030607
f200f7fd
e84fd803
101179fb
f7f97500
005a83ff
593c2618
0a1f0d00
fd39a400
001dbc81
01baf7f8
04cff800
ffec8000
fefd0bef
f70ddb33
07fb6f00
858a43fc
5c80760f
c0080ffa
08067f8d
5ffd0004
db404920
ff79eee1
e4c1c2b7
0eb45c00
ffa58c72
04b2dfef
32ac8000
c1cf0000
e00e0780
9000fc07
0220027f
6d803ff8
bbc801ed
00101fbf
f37ffb01
0de00204
6fb3e4f4
1faec4ff
03b7e430
9bfc83fe
09bfbdea
63009800
700be00f
7ffe3648
70338f7c
0040fcd6
377c87ec
19076dd9
0ffd6000
8fd7e005
78000823
80100406
03ffdf94
6fe30db2
71cba782
024027fc
906c701b
7600037e
6034a1e3
075c140b
b41e0c31
83ffe53f
3f842068
9dede020
94048000
f7e5eeca
0dcc436f
20026662
ffff462f
fb803cfb
02f4701f
c3efedfa
6a01d17e
e0092000
36007adb
0001dc7e
080dfedf
334093c0
2fffe081
defc4760
e0000e3c
01fec800
adff90d8
db017825
e805d448
201bc09b
fd65837f
7638f336
fe01f800
ffea7d3f
9a00038d
e007ffbf
003ff1c0
845e9800
30ffe4e1
073c0042
8d7ecb93
abd1f4ff
d51fffff
1220ffff
1b7bfed1
dfffffe0
73b803f8
efbe0005
0003fe00
ffc2b7f0
0ffe006d
fabcf579
8000ffff
e43006dc
e08031c0
0e423401
043547b3
d5e80202
f6fffdfe
000018b3
8fc7f0e0
79100d05
e00200c1
02deadff
fcfffe00
005406fb
37fff620
5fc6f7fc
180000e8
ef3ffa03
da59bfff
137240b3
ff027fe0
b38143bb
fffa3bf5
859fffff
7ba6ef79
f034259f
e21e3f7f
0c10beff
fef0017c
0e6dfe7f
fb86fc00
d3ebbbf3
e9239100
64c3c00d
04838540
3fc262c0
6bff0dc0
0bf13dbf
ff03f604
ff785c11
a2ffc01f
85bc24c7
35980bf4
e1908809
fffe6427
2e00927f
fff10ffc
00e05bdb
8ff91ffe
ffcbffe0
de426e27
f3cde00e
009f60ff
0044dfc8
7bbf1806
fff03797
1633fdd1
ffefc142
887027bf
effd7edb
f2f6e073
5c7330f1
46407ae8
00070311
e6efeaf0
030100cb
3804f3fc
ff8032ec
cb6c0c96
b000400f
2680ffdf
3ee8001f
f010f6f0
63f4660f
61088ee0
095adbfa
ec78009c
2d3c3e17
80d9217f
100400bf
00befe05
5e27fc32
5e87f9c0
377f8180
f50f4421
fc0fc27f
00180cf9
1fc01e70
b9c23fe0
dfc0afc7
fe071df3
ffcdc7ff
c07f81c7
f807e781
2209edf3
cefd79fb
ff44eff2
e7fe93c3
00407607
0bfdffc0
f3c10015
007effbf
568e9c7f
b3f58814
3be37dc7
7683ffd0
68281718
3c1df248
fc801372
1ef0b0ff
016ffbc1
f0089bfe
f6b1a35f
fd57f1db
f48b6f0f
87ef9a0b
04f3f01f
07d987de
1ffc8700
fff78586
1e2dfc87
082078b0
44cfdac0
3403080c
1efff87b
47ef1005
9200b780
0403fc9e
6fff8400
0804809f
86800008
5d23889f
8407fd92
ef683401
3fe48047
19ff9580
a5d8a053
49406dbf
3238077a
ff93c70d
b8e835ff
084ff004
020c00c0
c00a7778
f240b17b
a46f279b
00bc7fe4
0ef8c06e
d37f7efc
3ee349e7
7fd11efd
bc0fe700
280397c7
af3f0800
e24be400
07ef6bf6
8401ec00
881d3b1d
18a34c00
a2ffe122
fc00d8f6
bf9fdffe
3137683f
edb2557c
e8f3fdbf
2ffffc21
8c523fe1
25ff8000
b6401be9
64008034
3ffdf401
b7fcb406
eefe7ffb
44f817bf
767cf7fe
ef9f49f8
6fdd2006
ec76840e
1295f6e7
d2003600
fe493cfe
81feffff
44548024
4eff7cbf
5a18bd12
b7c31a0f
c9ffe581
fff9ec6d
00000b37
61ffdbe4
e4818003
7bf58fcf
21306011
ff800015
82e39007
483afc02
2391c000
ff14ffff
5004e40f
6c0fc000
df5021c0
21e2e7f1
dfdfc101
200c3fff
81a09f00
dd0eeafe
ff203034
79400381
ff91bb1b
06e2b036
75f7602c
039fffdb
3fa3b348
3f477ff1
d3f20121
cb7b8ff8
f3c0f7ef
b279c0e5
037efc1b
8fc57ffe
fc0f3f29
3c1fca00
f63f0441
e3da4b49
38e0001f
81d9bf22
7ff401f7
03fd2e39
7fe21e72
e3f1e043
980bf248
85c2003d
fb6a069f
28ffe9e0
7e00fca0
e27ff81d
7900f400
2db88026
0171c3f8
b81845da
15ff1019
900ad8fc
c2ff8ff8
4006ec85
fff28096
38fd80c4
67e84601
07affa9d
7ff41e38
70287f81
220dd8f4
47e38026
6007e17f
3f8b6780
000001e7
2ba32000
838ebe20
38007206
09fb1f08
646cbbf3
c0c03e48
01806176
e06038fc
01017bff
e5f81f62
e3ff437f
d79c7c10
0182000f
bd7e0000
dfe00187
9200f792
0301f8ff
00000b08
0fa7964f
81124040
030301ff
d0301fa0
1f406e13
32cc8000
fc36ff8c
1f66ff63
20cf5901
7ed80000
0807c011
072c1f4f
0500000c
00214002
801f7178
b3f9bfb0
7cfe7b21
00fe8639
befff3fe
101e4261
f8ef41ef
7abedffd
b4fbff04
bf1fc017
667f0508
c4d08726
fff2787e
0dc6d846
7f902400
ead74d37
85cb200e
0361b8ff
4001f02d
03a00b89
fbfbfc0c
d8bfff7d
7ff71fd0
05d40880
a0000012
bbf9a04f
8781cdfc
1413d1f8
7d6f8010
7ffe1002
eb012f02
73f85bf9
ffa60483
06daac1b
8436a200
bf8f2703
8213ed86
90000400
879afffd
00ff043f
f1bc0800
0400881e
f6d05fc0
cdec8550
37c840fd
6003a004
80075e82
e00180bc
3f2cf019
81220076
40800018
033ffe16
3ed01cc6
7cf60798
01ec0f7a
4fbba404
7ff00bdd
08137e80
de1ffe1c
0383c4ff
fffd73c7
822160db
fff22fff
c00765f8
003f0b01
740111aa
3704f4c3
1e00dfe8
fd800600
e1580c40
8000402f
1c0ff81b
dde07018
c9bd0481
e3f03ff7
2f6f9744
1ff81ffe
2011049c
e0027eb1
0189034c
b7f1ecdc
0d1c7a00
0437ec7c
7db6c139
7a21d3c1
0f7fed79
febfc000
381f09f8
dbc01275
9f81ff65
1b041fe0
21b6ffbc
7edeb7e9
0000dfc4
d0407bfb
8900081b
c7e84a1f
c244c300
d3fbcbbf
00007000
e7884000
6830101e
103f7fcf
f0392fff
0b81d6e1
8fdf7cf5
ffc6fdff
49c6171e
25fc07c8
fbb81300
fc7084fa
07c3fe89
d0185ff6
a069c29f
c003b3b0
f50ec07f
e211d89f
22c0053f
07090b81
1fa0aa90
007f81c0
00a7e004
1bf64000
0911e820
a67affb8
0221ffff
00105ffa
41ff9070
fff00100
13044bbf
f3fc0412
cfffc013
dc9eeebd
ffe00b0f
002700a7
661d06f8
81c00020
f481af20
00fe343f
fb4773de
ffe23f7f
ef3d2000
e2120f3f
fffeffde
beff90c7
fe041fdf
80005693
01dffdf7
d00017fe
e206d6df
ad080000
ce5b6003
b98e90f6
c0a58e81
bc80ffff
17f0c790
c9058000
fde0037f
00c8821f
8000edc9
34901e31
83a21f0c
07e00ffc
fe40c060
04c07ae7
ff006400
8c600fff
c00ba3f4
5aa3ffff
7fd6e0d2
87ff401c
1be77640
5e005fd0
e8000003
feffcd2f
af4e4101
0cffc03f
91229feb
5fc109f0
165e2000
fdfeff5f
fbcdf03f
3fb02002
001853c0
2001fc0e
458fffee
4783ffff
00001a06
03ff2f90
fc44d428
81da9d6b
1ffef760
5fd3ac84
7ffffdcd
480640db
8fbffffb
ff6fe030
c3b6131a
3ff84090
f1040000
15f33ff3
ff7f7a80
c7e003ff
35e016de
efbc6e10
49d7e5bf
fe5fa768
c1bbef2f
37fffff5
f19f60b1
df2879be
8e7befd8
fc868f2d
c024da00
ffc01ef2
13fe116e
3f850741
a1002070
bfe5565b
ffa9aff8
84000001
4567e47f
97636c00
8bc01fff
940c00eb
26040fc7
ad460000
f001f819
d2fffc2d
a0ad2401
007fd275
b7fc0004
d977ff6f
fc1fe8b7
3f3bff16
01ff5f99
1d030486
05ff2241
f07f7fa0
fc7e77e0
c73c01fd
d102f431
d8365fef
02165406
bdff7c7c
35d1defc
ffe5f25b
8c3e41ed
fe697be3
db4ff540
fe048068
0dbdff83
430023d8
f2cbfbf0
8029897f
ff1c7fd0
96c219be
de72017e
fdfc0144
fc3e8001
3d93be0b
01eaf039
7fc0dd80
fefb6803
fffc0437
ffe5fbbb
705bc92b
d0a015fb
f51d1b97
5c21ffe6
c7ea81c0
2f2f03b3
e154a7fc
1045a26f
5ce8cc14
eda6ffe1
b7ffcc00
1fd81e1d
020602db
401fefed
23f2f7ff
ee07e83c
ff3da63b
0007ffff
ffa0030f
f9ec0c04
14a5ffbf
bc7810fe
ffdff007
cc00d3fa
c040cba7
c8e984fc
70053401
6782d01e
e96081ff
06800008
fc000000
9bef77ff
83d06375
0221f0e8
ffee82c0
000d92ed
007e3fe0
8000300f
e4befff0
fdb4f91f
bfa40fbf
5ef7007d
9ed00698
fde40032
7fffbffd
ff803d23
ddb3ff24
6fc08453
53d82ddb
e93fbfdf
dfc7127f
000407d4
c05f1734
f0459c86
f7fb7bff
402c03fe
807f4320
03fc43ef
7fffe379
0ff9f67f
60206849
8842ffeb
f005a3fe
fc7bffed
8bff86f7
7d401bee
ebdffc90
cdbfff21
3e12e56f
9fdfd418
ffde6d58
d7cfb593
43301ed6
17b3ded8
ff47b071
9c0209f0
71f38e08
67ff120f
ffffb6fd
28ac1f3f
f4026cb2
b8103f1f
dfeff059
f7ffe09f
fff1f49f
7217d1ff
eff7007e
bdb707eb
7f25c9b6
020c1fff
64a03fc0
3d8c0080
fe3ffbff
1f81b7bf
00008fcd
01ff0000
7ff791bc
ffc433c5
00b6c9b5
07f669a2
40c3fffb
82005982
03ffffdc
1fcedee0
ec3eee04
e003f8db
36007fff
fefbf40e
b79eef3f
f8b40036
d97814d6
8c7ffd77
3f0c900a
21bcffbb
e8910700
d993f7ff
a0437f08
9fc0181f
a7bea800
962e5ffe
ff7bfa1f
3ce04d03
953601a0
036b6ad8
06183ff6
79b123fe
7d49bc52
7813240f
e6bfffee
9defdd6f
3fe276d8
e3ff1faa
e0bc129a
effffffc
28265bbf
e479c0a3
fec00100
cdbc8c82
fc2858ff
bffff627
fe1713c2
1fffce5b
08e00080
8007e000
eff63938
3f23e04f
800e0c0f
00cebfc3
d0f78007
51b4000f
f803fe3c
40ff8f1a
817b383e
e0762aee
41bffff7
7b4ddab6
efdef8d8
7f006fff
9ef0838f
feb07949
ff6671ff
9044e258
6bbbfc20
c0900e87
81a81f86
ff0140cc
f75da825
f3cb37ff
1d8a3fdf
3fb20006
80439fe0
f151fc0f
7fff603f
de381ba9
fff1e8fe
3fff7138
c5ff4031
8607333f
3f83a035
84805c7e
540009bf
c03fe548
7640e07f
181026f4
d4f809c7
7f0d817f
f07ec8d8
f91ffc07
693dfc7f
0b87c800
88670e3e
4fc7e800
7fbe26e8
fa0bfe39
277f400f
723f403f
895dad41
43c99e03
1fbfc2cc
07e20214
d8c0bc0c
9035f703
411df8a3
7e00240f
1467c0a4
d9838fff
f83d83b1
2812b8c3
a7bfb13f
ecbfc031
e3563892
00617f03
2fd80188
f17406fe
0f640605
0ffc0176
c90006df
f9006e00
e1e7e00b
000017ef
c018fff8
4d7fb283
e2f60702
f8ff8ee7
f67a43f3
b39ec09b
181ffec0
8ffcfa70
0049e45d
f8068020
4e3f8028
f9e79816
1f202006
06c017fe
fff203fc
fa8001d2
043c069d
fd207fcb
08410e06
4fbe406d
1fe3dd7e
39847a2e
8c006bfe
3ffa3e1f
780f0da0
04080807
dc2fe6fc
c0e1eefc
0a5bbf93
01fd3cfd
003dfbd2
fb3727bc
27bfd7ff
8c410025
dfd21bf3
a04e071f
84ec0fa0
0880be9f
fffd87ef
d2d87400
fbf05435
43f6800b
7af48218
b587fffb
82fee848
3ff2dfde
ad3ffb30
9bf706fc
319097e4
91cf604e
fcfe521d
ebd3805f
f11f43ff
0d11803f
fbfdf17c
ce09067f
7dbe0003
a4fc7fc9
f080f47f
e487c8e7
ef03de06
7d1a4004
be5efeaf
8bfcf201
f5b70103
1ef7df61
ff400a18
8120fc91
ec3e9b11
0fb07000
a23dfffe
0001fff7
3f197ff8
09ffe072
e9400000
2e6379fc
02f8bc00
dbfff91a
433ff5ec
d7dd304e
01379bf7
c01e5690
200004f0
1b10bffc
006f9009
ff877a57
3ffd9ef4
f8908017
8637e40f
ffdb7fe5
213ff607
4dbfd3ca
005234d3
5bd7ff74
b1b6fec9
0b7fc001
490c503a
243fe103
e988b810
f7f80ecf
0c00f7ff
1ff25fcc
88180008
0665cfff
01f000a0
00013fff
e9821380
0397ef7b
ffe0a84a
fe0008cf
1feebd43
60006a00
06dcd3fb
89400413
7a41ffde
7f66ea9e
27fe0092
fba01bd5
b6003406
88021865
23027fd0
8082e048
0040000f
1803fbfe
1fc82bfd
526a0808
7fbff1d2
f1b7005d
5ff0b80b
20fb73f0
0ddb4260
75843fe0
ffcbfa48
70c00e7e
03fd3f40
ffffb65b
423e7c13
13ff07f5
d00be600
7fa77f05
027bcdd8
eb001dec
aec4000f
04016fbf
8011fee0
09c9fb80
96fff803
209210fd
7a426320
18000fc0
0203ff50
3fe6ddf0
3f49fb00
7ffff407
4e5f0873
fdb6453e
00c68027
044110b6
006d803b
398461ff
003dbf8d
0121ed00
00200efa
01f74c08
0c7ffbec
005bf806
6921fcce
1781bfd2
405fcfff
19c4d806
bfffff40
20090fa8
36b0ff8b
2059bde1
fb127bf9
ffff4bff
fff6ffbc
f8002104
7e7f41ae
01ffff88
2a6414d8
452a0893
e08007fc
00ffedff
9fc5bf6c
03febee5
d4843004
003f0bfe
42a1fb00
3ffd8c07
dbffef80
e40fff92
d082003f
ff25a37e
db342081
fdfe0205
b6bfe10f
800522eb
3f03b92c
60b7123e
e382bffe
71002401
0b24fc6e
b7874789
fa40fba0
ffe2d6ff
f35ec83c
7d7f424e
ffb96c81
c41987a3
7f048c3e
00002c23
f7e03684
c44c741a
a100b9d7
b4f90e60
64df1fca
d966ffed
3e0381c0
20930f28
f9b91e35
e3cbf82f
090652d9
f5dfb890
9e962257
a85e66dc
697f2ff2
3a9007d6
cb9dbdb6
0dec10e2
b48671f0
e9fc344b
cd3df029
460b790b
2054cbbd
0af9ff01
d177e8d8
82269be6
49b753df
9236d83a
7803ef46
1ec4c7d4
0036dd31
603e4ff8
b18c02e8
1f9e7a2d
404e885e
98a2000e
aafc3510
f1426f4c
7b09c527
08176fc8
fe5b7f0c
b5e90b7d
8363c8c4
db0073f8
900230fc
110b8815
c9346a33
c08445f2
0ad23f87
30a03ed9
08902509
7c1a9418
9afe8090
64820ffe
68180903
f77fc29d
fdc9217e
d113cba3
24bdde9c
26fa26c8
ed5189e0
3fe2f13e
c60911fe
94fbfffa
8703f6ee
bb876807
acb1275b
179e17a7
a1fda008
1c8f7b3f
22db4bea
06d0b011
d007d0b2
c483ec00
f9801ffc
9c0140b7
fecc9000
ee006592
1f71bbd3
a7300081
7dddb821
f79fc112
2043e840
8c1d1900
ee9a24bb
21b7d177
0046522c
d3065fd4
264d8966
867e9803
266657b0
fce401db
003bf37f
6fee3400
c7ffffa9
3624fbfb
0df09131
00ffedfb
0fff83ee
e34ce480
2927ffff
6d901efe
5993ef00
7f280efb
26042df9
188e7800
63f05fc4
6bcbe4b7
a4b50002
7933ff00
090d1ffd
d8927f00
033ff806
4dbf900c
c6924367
f343b9a4
0487fc03
18c81fe0
dfe1b610
13c1056b
e36cd9e4
7fe12006
e600f79b
007f3fb9
c1920409
f5a16fcd
24090ffd
ffe4becf
93ed2d8f
83ffe0db
37813cc0
6cc9121a
1f7225fe
04f81474
0feed24f
2b820900
bec3fa3f
77c0cd96
c3ff0508
4018ffbc
45f7025a
ffb1663c
b024799f
f0100011
fa12c04f
a824b1ff
012fe320
eafe3f80
3ff00ff9
d1ef004c
e0082003
b0006bed
0ed73f93
c241ffe0
069060f0
01ed8580
fc0848c0
8173f40f
fbffff89
782d1de3
0003f3e7
71007801
100436ff
077ffeb6
ffc35ff0
7801ff27
09380bf6
007f6c00
fffff4e0
ff6c8015
f807dc01
dc00092d
8dfc1098
aefffc25
007190fe
0ee57000
0376bf88
e2ee0ffe
92f5ff7d
fc3f1a4b
fa7fffff
37ffffd6
4f3fe059
49ffffe2
0c0d6000
0080ffa0
3a4ffc14
000869ff
301801b4
1781b800
ff7df97f
b03df132
5ffef8bf
d0008ff9
a9efbe29
5ff0807f
35fe66d2
023e1ff1
f7811210
0f61fded
343cfffd
826f41fd
40103de2
001cdb89
c94d95bc
ffefc000
fff98021
fbdff31f
1a3c0050
82391071
11941eff
ffe00001
be4037fb
10d1fe19
002a173a
61f83f7e
83d9faef
11a7dff8
7fc60000
fdb62017
6fe01006
b2000b81
01dffffc
eff39012
f8238ef9
1e80000b
3ff3be88
3e40aeb7
fcd12700
3fbfffef
963f92bc
eff01739
ffec4dc7
0f5fffdf
ff801300
f9b801ff
043f3845
03003048
c0dffff8
30880033
c498ff3d
cfb78180
0fde0801
38517fe3
7d23fef7
76515ffe
9c0fa500
121ffac4
b1bf0000
c203f803
24f37fff
0f472000
000ffe00
0fa7e000
b226dbff
fcddf8d0
3f1ff03c
01f7fff4
e18105c8
b0b7b1ff
74b7fe41
ffaa3fff
c7fc7000
80001d63
9c01c167
0ce3b881
cf3f0b94
7b403ffd
db08123b
df3502ff
ffc9ffe7
ff9c11cf
c83fe00f
010efdff
39e007e8
5fd9fe86
c8f11fff
fff7afc4
6e1cf9ff
6051000f
ee904d7f
efffe101
ec08d53f
b9004fff
fedbdf80
fff1c1c3
00fcf049
b8020000
9780f713
1ae096ff
f0bb5b98
fffe000b
fb003868
6d890807
e0203012
f7119efc
0e07fe03
d881c0e0
b7cd73e0
03c93f21
0cd4cd00
ff1f7e7f
461afc91
018e4058
df03ffc0
40201b81
fce52bca
07fbdebf
cfe6fff0
529e30ff
3aa571fb
1177e27e
8001f714
ff75e100
0007b401
ff04037e
c7f40600
9d791ffe
2060482f
3bfede00
12170304
e1feb81c
5f419ffa
af38b3e4
806c19a3
87ff9206
063ff25d
9c9a0302
191ee002
fff5ffda
000f87f3
070025fb
70df5290
bffa207f
04bc0977
c185f041
4436fffd
cee00078
c008dfff
000bc7f5
cfe7d388
a64ffc31
dfe08be3
4f24803f
7ed0a0f0
7d2e431d
07e00fb0
243bd800
180fe300
ff6ff840
9fc31d21
37ff83ed
1b3c00d7
963c13f5
80b2000b
bff80ffc
ffe02788
5ef03713
00f409af
ee7ff7fa
081bffff
47f87005
143eff72
00022720
1408cff8
0def010b
fa000008
4000f3bf
9e3be032
fb7dff18
07feffbf
7fd86002
62eec964
c71a5ff8
018773f7
083fffb0
a0038217
7c00e3fc
efe83dff
f20d0010
b084001f
ff81ff47
3d600007
fd77ffda
c9f1f267
ff7e103f
f004fff1
10480505
3ff40006
883fe003
0000f8ff
ffe4cbe8
a600f6ff
1ff0ffff
02000083
f1025ba8
bfadf5fb
c7ffb7ff
8c81567d
f3a9effd
20a00367
fe001b90
10fffb63
80080000
f024dfe8
3fbfc00c
1c1fffff
7ffff532
23fe0098
a8007f21
a2270a7a
c3ffc0b7
60fa7fc4
e7f99c01
01bedb07
c020bcd0
77001df1
0442001a
81927fe8
30009d01
5c013000
20a3ffc0
7807d340
e4edf604
dfdfd4c2
00000272
83fe9800
fffff105
ffe8fa73
1ffffcfb
04fe8400
9fe7ff81
00560bf1
4e9ec000
b8dffa4c
0037c0ff
2104fe78
61ff0000
fd000000
3f92e4bf
0ed84020
86800428
c7ffff3e
0bc4124f
43de5800
fcf370b8
01ff107e
03afc17c
f660019b
fd07a3ff
ffffeff3
3bd001fb
0a3ba06f
83dbcf70
13fc0207
f17f4278
429f87a3
0257ff79
90010800
f177f48d
5f5441c8
09d7e00f
e3fec908
ecf20bff
6e300e77
05821f13
00000008
b12004ca
4c093a1f
e0c07e20
801fa10f
0017ff44
3fe40901
6fff1068
408fc772
00fb803d
f5fffc00
9109c803
42940344
a0001d3f
a3fe0007
affdb006
bc800202
8c0fffff
99000780
7fdbfdef
01100cdc
fc840008
01c286be
22ec2e00
0303fdab
f407d0cc
005287af
902ffff4
0592e3ec
7f86a6a0
26fff9e1
7d869b0a
13df2198
3dfffbcf
7fc82704
1ffffee3
efdb8008
f107fc6f
8201d67a
de00373f
05e8cfbf
e394f800
2718ef47
39fde808
e801301f
834dd6fe
2ed7f09f
da49ff9f
302c0bf5
63fde370
b78570ff
c0006130
fe10058f
01f00203
001db1f8
f148003e
00020053
020bfe07
fb8003f0
b025c0ff
0800e63a
c1ff0000
3062ff6f
ed040fef
f0bbe3c1
0ff7c0ff
98687408
ab3fe74f
7bd140f7
549c7016
7c77e87c
ffff87ff
ff938fcf
fbfff4e1
7f80efff
707fb3fa
9fc0e051
5ff1e5ff
800027b8
2c40fbb6
7be7fa8c
f9017d44
6bb802f0
01abc1e0
98c80185
c6bff400
7f0100ab
8003dfff
0dddc817
e6a00008
09ff7a26
f0f9a000
02bfc003
208011c1
3000fcd0
6c05df02
c97db803
b09017ef
dffe0002
fff7803f
fd78af01
257a7ffd
7eddf86e
84c9a006
fc01c77f
cc3001df
0ee21391
800487fc
180023c0
2c8d7ff6
9f810442
f90031ff
7680e11f
e631f820
3ffff1fb
c17f4070
e10da723
327bff57
01ffbff2
20fbedac
073c0e38
a9ebfa10
e5a100ff
c6dc7ffe
f680fe2b
0ef94789
069e11c1
f7c743fe
f7962813
0003fe00
fe0457f2
ffde267f
3dfdee2b
91470054
3ec0060d
ff0c0f89
2d859c01
6592d823
07658200
8cbce002
410080bf
88fe7e00
0240e7ec
ea8e284f
30ffbdf7
93fe9e70
800fc7e1
07fffe50
7fe4d660
c9f607c3
c1dfe683
ca03feff
1e604114
7f007840
719f01ff
e6dde0f6
f712feff
f904ffff
fc6ffd93
c2020fff
0e10c1ff
ff80010d
306446ec
71c49590
f7efbb00
2203f3f8
7ef8fdff
4305d8f8
365ff000
80570fd6
1cf00307
e3dfc95b
ffff4001
f4ffc64f
4d7f21d0
b62aff86
34023313
c0ff0c04
2f10137f
18fa3fdc
10b3fdf7
0ff81ffe
ffffffe0
4db36c01
b27fffc3
0093ff3f
3f6d8ff0
69ff1219
fa49b000
28da927f
0f3a0095
5fc90f13
000f7810
73f75e92
6c176400
fdfff7e9
01ef099d
444ffabc
240c8836
bd9643fe
65cb7dfc
04419bd0
840916ff
bde9b6fe
3ffe4246
7c0fdb0f
839592cf
1b407ff9
91202c00
c85ffb34
fb6dff80
46c8058f
b3fe0200
ffeb025c
7234d068
04e20003
00130001
f9b9600e
7a07df6c
a2dbffb4
09b8eb7f
b0be4910
db600200
653f1679
72efe343
0027b099
11bffc08
54900218
1b7ff7db
baff7db6
6f864b24
bfe4012d
00886d2c
278ffffc
f60a36fb
544f2c4d
fd880956
7924716c
12fff3fa
01489913
0253bde8
6808c044
924017fd
8009fb76
0ffec368
678cbd61
7eff6998
7fc18d96
03ff26f3
48f7e24e
ff262582
1ff35cd3
ef606c10
79bd3ff3
2000d130
effc00cb
fd005ff9
154d0817
7fe77027
f1af1563
c00ff823
efd38436
0094bf4e
fa98bde0
0003f1fe
c03f7f42
dbe0ed02
7ffff085
8180097f
057487fc
fbe7ffd0
7dfd2c26
0079e916
a308e34f
dffdfff8
43ff142d
76dffff8
b3279320
e9ada4d8
b068f9e2
f187b400
294dfe9f
05ff5fc5
727dfff0
259cff08
feff8ff8
5de05c10
0007f8fa
fc8c010a
20d812bf
00340000
fa67ffba
13eeef8c
dc000710
425ff247
feef006c
011f5803
00fc9ff9
803c400e
0878ec5c
12004bff
049b56ec
3401ffcf
ffe007fd
de00feef
200f7f9e
a61b01a5
4fc18420
00001b00
cf27c000
7a620aaf
9b2fffa4
26e7ffa7
027f6000
0673dffc
6f0304a4
0a7fd3b0
1b9f6001
b73e637f
0600c0f4
8300a101
39c04ff4
fe507f0c
620147df
20a37ffd
55c0e961
f05fdbf0
678e6a32
80880016
334e6608
c00095ff
be80ffff
17f7ec03
800c7e80
ffe6c57a
230027ff
4c001084
99008d99
1501bf17
e40d8000
5e20087e
e0869722
5903b406
01600004
007e9304
24fe7cab
fb581fff
7e70f9ff
17600be5
4c101400
f002ea46
ffffce8d
2e03ffff
ab311e1c
ff676dfb
88001c0f
367feeff
4f626ff0
0800ff90
f7fe01fc
6f3fc33f
f0f803ff
fff6b9ff
4000004f
c1001a36
121c4f9e
00058b23
ae100300
537fbd02
2ffe763f
68700183
b1f20922
780ba1ef
6f7fe004
03ffff08
101c8e78
1fffffc0
144ec482
bf3f8260
0f9fc840
f9805b03
279381ad
fa000570
ff7e0392
f4827fff
a6000561
613fe802
20000009
f0068d92
087fcfff
b040bbdd
10001db1
dfecd803
c6c03003
01a704ff
2001fafd
cf0001df
c1f7e037
e807990d
5fe04006
80db3c8b
03ffb58b
17411080
dc184002
1ff022df
ff027b10
0038226d
d28c4040
4fbbff26
73174072
037ec000
bbffb480
0047007a
c4af7b54
b8006c19
f0b7ffff
fffbfbf7
15fdd77f
163c108e
43c81a64
f7ebc028
1efb925f
800dbca0
c49ffd24
7f7dff9b
fb03807f
7ffffec5
403b3ffa
1ffe4840
cb288cb8
c000403f
1c12d882
404e8000
008001fe
0c01035d
8001b600
0a2de90d
affe1320
27f24f7b
def7006b
0c805cb3
1035ac08
ffbffc6f
947d8cbf
cb813fff
c980040e
57b1ffed
cca41010
a7c8ff8c
048f7ffb
f705edd0
8e47b001
03902dbd
37fc24e6
974c1ef0
03ee00db
0280bc90
20b7e060
1000277d
00007f00
66c01bec
fe803de0
1f2fd3e7
7ec2a0f0
03ff0780
0613afcc
f1fb21f6
fff08003
7fdf0004
fedfbf7d
0023fff7
03dc4a10
f946e7f5
1c0b603f
b7e001f8
00dbfc70
ffed0703
380071bd
43fe9e69
fe57fe3b
00424e7c
2000aafe
00700800
05ae4400
d93b6000
65be876d
001c2ad0
c6c7ff81
805fd9f2
c37f727f
f03fa02f
20823701
099277c7
20675040
0e841e1f
c00ebfb7
0f7be3ff
caf6d809
0059edf0
4cdfe1f0
ecfe27c0
c5fc4e46
01c7f78f
07fa38fe
f0648138
037fe10f
1d78077b
30000bf0
70680c01
000fa7e0
5f1f8f07
09a16c80
1c0d39e8
c0e801e5
82ff000f
e17bd91f
c6e01f52
a207e01e
007ffb07
85e87838
2fd0fc30
1c0e7f03
4d020df8
f603644f
0070301c
4fc30141
01c7eafe
5e6ffdd2
280371b0
8eb2235e
1ff1c2ff
00f47e28
05fe05f9
fc402ffc
0603e5c2
fa00a6ff
406e7c3f
43ff81fd
f1df8dff
0007c737
f080c93c
e807a387
aa7fd90b
9e83eff8
ffc51c89
f86ffeff
e9a1100f
d800c5c2
5fffffd5
ff1b8580
413e000f
1f04b0e0
db03ee50
6184fdbf
e2d72714
3dbfed87
3f6f1032
b09504ad
ff69793f
1187fdad
a1ffc9a9
f4ac4fef
783f9efb
0bf822c0
c0dfff80
b609487f
1805fbbc
00b67f97
0ff80803
3bd1ffc0
f8fffc54
25f01f9e
fcff6f00
801d4e38
016f058c
902e101d
0069f036
f6fb2802
0037705f
c8418180
4178f90e
fc6dc8d4
93fff63e
219fe000
e8b80008
fcffffe7
503ffc25
e85e3ff0
e6d8003d
86000a4b
2400fb44
3fe7f005
de09fe04
3fff6ed2
f81f8039
dff52bcf
4d7fffa2
c6ff21e9
8a3d686f
026df6f7
3e40ff80
ffe82106
e173cdff
c0e401db
0ff9e5df
f803ffc0
25d37fa0
fdb7fd01
816d4037
98013fc7
6fff00ed
e00fc003
07f014ff
e0b0018e
f281f01c
3df46214
cbbf1b00
fffe00cf
39941fc0
01ff4c12
ffc022fc
fff2f9bf
7f00e2ef
81f8101e
fbfff1ff
33bee09d
00b0c008
7c9fbff8
c1db13eb
1f600002
9ff5ffc0
bff803ff
7fcc35da
5a998000
803d6802
e5b1f7ff
37e000f9
97ff0080
fdb00040
efcc741f
f0971fdb
203fc0e3
4013841b
bbb001f2
03fe76d6
3fe087f8
a43ff27e
2d91ff41
fb02000b
820057c6
f1a2fc13
4fdff626
ac2d288b
2ff3fd2d
7fa001f9
23ff447f
c00fdffc
810587ff
36189ffe
0859c083
2b0c0fce
908003db
4a79ff6f
d9690004
8a170847
000bf800
85497ec0
71030161
03a40443
4001fe5a
0bffef13
d878d708
025c89e7
0badfeb0
1f8228c0
2f847fc0
00029bce
12a8300c
a8484c00
afffe00c
fc015fec
181ff3b4
e000ff00
1fffff03
f7dfa000
b69ff771
437ff7e0
ff3bfbdf
100ce03f
03f9cfe4
205dc1b3
b236b67a
7ef6fd95
85ef8043
f00001d2
086efdff
f9fc0008
bffd6d9f
3e0d60ff
c01acb3f
92c0ffff
9ffbfedf
ffd8863d
37adfe07
26003004
5ebbfe00
7fc3fff0
7f9e11f0
209b84c7
cc40fcff
c27ff883
f90081df
7007dc21
58c67f73
2daf6e38
88400c0c
b00000f7
0b10f23c
dff76c80
e1292078
e7feb736
f000bc01
547fd3ff
dff821ff
9ff7fff7
fc00005d
c04dee0f
de00fff3
fff00043
ff83fc07
f137e401
bfb17e9c
9ed685c5
79fffb77
f47a2080
00f37e8d
88207fff
7ff007fc
06ff893b
0afe9180
fffffffe
2343eeee
e0061d6d
2f83fbfb
fca003fb
1158e5ff
0306c008
c99b863f
706be4ff
7fe03397
a3fcf36f
00000805
005fa448
ffefff3a
7f5f37ff
f343bcec
dfa4dffb
1ffc1fff
00081a7c
003e30ef
19c0a000
000fff40
82e00001
fcba2009
e002fcbe
00002207
8dbf2064
d8002fe5
07f40ad1
7ec01bb0
7fde1000
2fb56fff
ec05b689
e02ffcc3
0002313f
508127e8
7ca2f9e4
477afe34
01c00062
fc208012
00000137
92403cfe
f26bbfef
ffcf8007
0007ec21
047f7f7c
a7fc0030
fbe1e00c
fb81f8a2
001cf0b6
937f0180
c00d0148
20ff9225
d03f3820
583ffffe
d043c800
b22fe14e
943604e7
23000ec6
0080afc0
f94b67db
11ffac3f
7d17fd00
bf80bfe8
3fffbe49
7f3ff840
07d42178
021ffffb
79ff0380
f6fd07b3
297fe037
b67c9aff
fffffeac
3738f833
e820f351
67fffbff
011d7019
70c87ffd
e2f187bc
6737a76f
f26dedf0
24ffc0df
073ffc1f
f23fc171
33a1ee13
c8e00007
bff026cf
ffd178a0
d126a7ef
f237b7de
ab80f8ff
7d642e16
fdc94d03
dffe001e
c0e59001
be001f85
1ffbfffc
f7f4dfd0
4e05dbef
8040b00c
ffe171f7
8023e9ff
005acb03
38039bc7
06000016
3bf00001
cb0fffc0
00780386
90414000
14c0ffff
803dbcf6
018ae0b5
bfe2fff8
0fbdff80
80901e9c
cd240628
5fff53ff
cb300160
cba7ceac
e7d81ff2
0c3e00fd
071b2fd8
c2170008
ddfff8d0
ffefd9ae
06d8208c
d8868101
07b7f416
4766e530
7891ff00
ff1ffb37
ffff007f
8bf20fb7
17a49ffe
23c1269e
0011f6fa
ffc001c7
dec014f0
f801ffff
f782f01c
88a3ffcb
000e006f
0bff5619
0407fcb2
00898ce0
335a5805
f6fe8000
fe6dfb0b
05c00120
0a25080a
1d3fb000
1fc87000
42189b9a
c00f3f90
bb6009c5
cfffffbd
fcb0db4f
22021fef
80271180
ed0b801c
e7fc01fb
b7f8e021
1d79db92
7ac811ff
7a7fa2fd
c497e680
74fbb12c
fedb1dd2
e005b7e6
18d9ffe9
8ffff483
2483efa1
07000122
31fae000
02b80000
040ffe08
8fa4ffa2
ffbbc7c2
121a80ff
c1404981
60001000
0483fe36
ffc24060
9c0025df
393fffd5
800124c8
3e402f06
ff1405c3
bfe49c01
2ccd8169
e7e8e09a
8ca4afa9
0fa000f7
249df406
e1c7fc42
ff90037f
ffb7c1c1
913fb3ff
ffbc7fb0
27fe4bc8
ffdffa59
7dfff83f
d9011000
0448f6ef
13fe4fec
01007f44
fbbbf384
f3800b23
f5b3febf
6bf7f7bf
a97ffffc
80035fbb
13ff0079
19f08334
082df650
817e3d80
ffffdd1a
000593ef
6026defc
9d5ec9fa
c0365810
f0001ba1
e249b197
37ff923f
f9299f11
34ffff7f
549c81c0
f63f5ede
fd66401b
e4e3a005
3e464f9f
6588061b
00206fff
3f3fa3fe
1b803cc0
1697ff6b
7f40c000
c8037fec
001dde48
69ff8fd6
fdccf034
00ff84ff
fff96482
fae9c51f
87fc0000
7ff2a418
fc01a0fc
c6d3fbfd
577ffc81
210e4ac3
fa03a03b
3c0703cd
ff8417e6
c7101e90
44101c0e
b845cb02
5f750007
f01e607f
7666817e
01008409
00078100
2dffdfec
51202038
8c40e00b
e05ffb9a
00a24407
fe3eb780
ff880124
00007ac0
fb7f7c00
2807fff6
67fecda6
b4361f42
017fcf95
77809000
0050ff9a
1fd647fc
ff6c4000
7007fffe
ff800001
3fbefe00
b027fd90
cbfe002f
1a1b7f26
65ff0012
75f097b4
a1c792c0
ff3e8397
ffffffff
696901e3
cda4fdf6
0292147a
7b1ff6c8
d7fed7de
e64ff53f
caffffff
b0816fe5
ecffc01f
4b61fc00
f1b12100
7f05a67e
fdf80101
ff9000c2
1ffffa00
30c4a010
f9b7bfda
0385ef38
440a05db
118010c6
b4d4005c
bfe0a007
c5f8f082
e003580f
0098843e
0ed12400
d0363fe0
0003bf02
48201c90
ebc84200
2fef4007
9a705f80
623ff823
00f87fda
60c7a402
007ffcfa
1ff403fb
174e0058
e821a800
401f7af8
81d93fa1
729fe13d
003fc499
f607e000
40fae79f
1afc93ff
01fffef0
b391ff0c
30cac024
d1fd2400
c00e576f
feff9ec1
0db88013
e0043fe7
f8027f80
083fe09f
80111d90
1019d006
00803702
e58ffbc9
00b7fff7
0d0cd800
e785cded
00438000
0c3fe18a
0781c909
dff48ff8
edffa787
effa3f99
ff1a0027
c6bfe24d
df8ec6da
8e9fe010
01b4b806
330dfcf3
19120da7
063e6c00
91ff17fc
2fbf8038
6ffec900
7f9efd11
afbc6006
e7c0ff60
0207e0ff
fb200200
fe693fdf
e00007bf
0023862f
603a40fe
ff8637be
5fc02019
002c04e3
02727f40
016b7000
fe8ca010
00024f4f
20e7a000
0e48081f
44003fe0
0403df6f
743f6408
d3c81600
3fe09000
fe200074
bffff82f
0096602f
f2100400
007fc00d
98215bfd
0fc4c0ee
bc2047be
801ff006
be410759
920fef0f
fd9609b5
b005ecff
c0ff3217
a7f401ff
0bc2fd81
fc01d87b
da487807
16050003
105fb7fe
07ff80a4
a030035f
3fce3fbf
00004c5f
6986c1b1
bfe9f8eb
80059b4f
0e480026
e4727880
1bfff03f
0fff0024
e3d237e1
0003effc
7fffec0e
17edbe00
62be5fff
79ffa1c1
de7edcd0
fd100fcf
42eefb48
ff90c960
07fa7096
9fc00300
be33ffe2
db1ffe97
d6302dff
e376dfff
1eff8038
ff7c7c90
083dfd7a
07ffffd6
00001ee1
eff57d08
c69dd003
61fd3f7f
e000000d
7f2003ff
4fe10089
8000001e
17c40960
0d867cf3
f5e9ff67
c00a16c9
fffeff8f
1cf40003
fb6d8c3e
f00f3d1f
247fff1f
f803860b
7fbfd10d
3f09de90
001d0400
fed88064
a6d5377f
a0135039
87affc01
007a55ab
f20b70df
fff9b6fd
63fbfbdd
875ffe07
fe008075
7ec63b7b
e01f5ff6
a034cbff
bffba003
b2c7ffdb
8200a00d
9c6cdff6
fc145006
97aafeff
0ef7a7ff
3ffe8680
f510000f
17803e9f
c80001ff
9fc11e83
fe4c10f6
c34018ff
7e00f3a2
0ef86d82
ffc97a00
8ba00036
e900080f
6083fa3f
767dfb7b
bfffa600
3ce1fe0a
13beff7e
1ffec7f3
28fdede0
cfcf6384
0400034f
06da0824
fe437f66
bdc9f1ee
f89fff6f
ffd76cdf
fc87f803
efe804b8
2806dfff
fc103fe2
2693fe81
00001d91
df7e3fd8
db0fff5f
b1ffd67f
0000012f
bf007fe0
0d8de9f1
e0403704
bdfc00cd
d365e00f
01800106
fda24000
b000dc7f
80025fff
fdfdbfc2
03a140df
e9b03f40
01ffffff
404d6912
ff4fd801
ffe2dfff
8080f7ff
e70ff8fd
ff016fc7
f6d801bb
137fff1b
ded70100
7ffff141
02ee0430
e2df0e38
26eeff7f
3ff73000
f429003f
0007fc11
807afd22
1fff93ff
c6401ff6
c000fa03
9ff8193a
da2f000f
c40f7ad3
20ec5e3e
f000fd3f
000146eb
dfbfb232
76bce1dc
440024ff
0fbf4006
25be0879
e59ff000
1ffff065
bfffec00
bfff7e1d
d84b7ffd
06c015cf
3c0007c0
e1fef9be
908887cf
7fefffff
040000c2
ffbffe80
1fef3ef2
606e0100
80b8b00e
b103c0ab
0043c805
f8176ee0
028f5975
412e2ff6
0ffe03c1
7e840241
cefe21d9
eee4846e
b00299de
1d7ffa01
2fd0820d
53783c41
efb70239
dfc00191
f7be1b64
07440063
7dffffd8
c883f3d8
3fe41ff8
09df0804
e0002040
d8007dfe
0ff80001
bc000aa0
00026fe4
02c21670
1c9e4009
3fef7000
07fb0100
222a0048
b453cfb8
f087d023
936fffbb
07dbb7df
803ff372
67ffaf6f
033fa6d0
01ffb907
63e03044
001bf91a
70032400
a1117da1
4c582080
7effc402
03fe6f01
3fe902ab
3627bbf2
280b6ed8
80028083
ff68fb0a
084dffe0
f8cbbf28
003fe18d
09b0ef10
39bee649
217b6820
e18ffbee
2003cff7
00288000
434fc000
90032bff
9649e4e6
03085bff
fffcf12b
fe10968f
018ff8ff
ff581814
30fb3fef
000c221e
f8a435db
02fcf7f2
420f7f01
001ff0b0
00b86f82
9f7e37f4
18e3d962
0ff80320
ff837ee0
921c0000
f827d3ff
83c7eef0
19ff6fff
fe087e80
1dbde84b
00ff2028
f5f6fffe
f6f1c7f7
878c00fc
8dbee17f
0201fafe
2e14f9f8
7fdff9b2
e00b0461
d1d8f1be
0f4003f3
f7813f08
81ffc1c8
ffcfe3e7
037f900b
bc1b5e88
c927fe71
e47cffe3
c05381f9
4ec40350
137b801a
5e346a33
b7f7efc0
fc0027f6
200c0007
81ff2840
b65fb867
cfdcd235
7133fc01
c0b60103
841491ff
8400e003
c0a000f6
fc81cf9e
a2300bec
60011ff9
e11f81e1
5078fff7
7f7b7ffc
10802ebb
6cbfddc0
c19b27db
a4802087
f1c80259
21e700bf
78fc6b3f
efc72131
fffb15bb
789dbfc0
7d39f37f
8bffbb00
07fc0fee
bffa20fd
c80f4eff
678036c2
2e669404
ff780c03
4b004e2e
1504a0fd
9fcbcaf9
00ebfd37
203f5b76
43d614e5
075f9001
ffbf8fa8
5f81f8ff
fff68180
84c00efb
46b7832f
fbffa002
fe01f201
19fff97f
f812700c
6b407ffb
01893f96
fc25e006
01837daf
03e80009
001771a7
f002dc4c
1ff5420f
ffffefc0
d180f399
807fc01b
c83401e5
802bcf73
fc5ee86f
fb201012
70221300
1ffe4001
000bafc4
f5fec000
027df85b
82418bd9
8b3f6070
439a0601
3d3f8ff8
b212fffe
62f5fccc
17204e03
6ff85bfe
c016822d
07bffe00
fbf97ff8
604ac317
c0e10413
ffff5f9e
ffa6b810
00fffe3f
feb89c10
ad41c4e3
f77bfe00
7fe50821
00003f5c
c0feefa2
fe01ffff
edfffa77
0244fb4f
20060056
5977ffe0
e8fc0588
96c019fe
fd7ff3e3
3ff08007
06a8ffbf
ffde9830
006c889b
007ffc10
002f2b20
b7e24448
7fc0eca9
9021f080
00012187
e03501c0
1fdf07f3
25090d80
4fcb7a32
df843200
31015438
fffcff7b
120039f7
00002ec8
25e4837f
e1203ac1
806102fb
3e28084e
2cf94362
aebffa00
fbfdfff3
2301deaa
3f337fff
900b0056
ffff3568
80fbfef7
0bf905e0
2e003ff3
be205b49
8bdfba7d
fe1900ff
7fff63be
63f70050
b5f095b6
ffec4d26
0c8ffcdd
80033d72
f25aa700
803ffff1
0bffef67
bf2c0440
01ef7805
6f901804
7e00735b
30000040
cc167fec
c903be00
76ff9c17
239f2e84
3efc0fbb
2feff208
ff0bb808
2000329f
f60073b4
047fc068
f80116bf
a57f208f
ffc9ff13
baff40cf
005c5068
610fb000
ff27ffc7
00000061
0145011e
d82c45ff
a69a6786
604e00dc
801ff006
42000b86
02627810
d2fe0104
3dfa61ff
005bed00
f82d21ff
89891cff
2687e600
008a73fd
0c30def9
dcf005fd
00bc026a
0021026a
01cffd00
fec033c0
1038012f
bc31a0b0
3fff8ffd
08009480
010ffe98
40dfa02e
f181fedf
20ffc02a
5e3589c8
c37c800f
2180001b
591f0005
93e6f6ce
c9727ffc
ffff92fe
e2c409fd
08343ffb
ffff7e3f
7b55e30f
ff6bb7f4
f7c04fff
be23ffed
e57fdcb7
ff207b8b
9ef803fa
07aef40e
b91f8000
7fc1bfd0
2f20dfe0
b4800b07
b69eb47c
ddfff8e9
7fc0043e
00026c50
1b78f6bc
4697fe3f
b6c01ff8
98042bff
308011ec
ffff0001
e000fc02
ff007efc
f4001c81
ffbd201f
5fac4006
ffecfcf8
dc01eeff
c2e510df
2177097f
ebe3f04d
5fdfb60d
0f2bff8e
b3ffffc1
c01ec1f8
74880fd9
74213640
44ff7f07
11fffff9
7c4df890
00e0b13f
3f46f1ff
ffffc8a1
3923f820
e025a800
e1f17fff
9a0e0647
b84feff9
8003d805
c7016ff4
b21898ff
0034009f
991c783f
8dbc8000
fcf78b25
083ff5d3
7e8ffaa8
9ffb68e7
ff3e803f
1e46db93
ffd43b7f
07777e00
df857ff0
1c3612bf
ecfd8ff8
21fbff84
ffc92203
98000dff
7e072c6d
e93ff99e
0243f5ff
fe440031
1bf21803
00ff6040
7c3f0000
184a078f
2003f0c0
0e011ca1
d8492df0
ffdc3e79
b43f000f
4001fd2f
80400e0f
61ff1c80
2191b965
80ff89b9
81ffa3fe
0bf66fe0
5800bdf8
6effe002
00fffcc0
ff440f80
0e3fffff
7f7e5f96
4803cb43
b12bfd6e
3f81fffd
f8000ff5
89090c01
027fefe0
3f606003
01aaff80
0d81ffec
00e87fc7
8000a000
8064001f
a36f6e00
b2a7f226
0bfb991f
38007820
fe370010
0ca34803
9f1b4dc0
f0bf02ff
0d00c613
c0045007
2ffffe77
dba92202
3f5ffd2c
a82457ae
9f7386fc
40e47e68
0006c3a1
3dffff20
cf83f7b0
e924effb
d60748ff
3ffc079e
f1f8c9a9
1dbf43df
807e0000
b0202009
f7f9e01f
f71fffd9
7df6daff
77ff9000
3ffd0007
f6323c6d
138fffff
937ffe80
008202d8
14003f00
f80383fc
083ffb5f
dd1fd901
19bb6017
08006bfe
27f107fc
49110186
6bfffc02
827fd019
3c826dd9
7ffda400
03813660
70003ff8
31ff1125
ffe9ccf4
d0007fdb
0ffeb20f
c5f03de1
06fbdfff
07c4fff2
02fff6b3
3909b228
79bf0101
c426ce9b
fd1a9676
f084fb7f
9fdfc5c3
d9f95e06
7efba00e
fd500040
f15b7097
61e4137b
e09f22ff
05fe93f8
ffdf6c00
59775017
b8803f00
b6021a6f
7401fc00
3ffb7121
5012a5f0
73dfe87f
00030d00
2fc32c64
004924cb
c41a6a8b
a8fc820e
dc93ff36
00018917
071165a0
81ffc5ff
252b8404
0e7c9082
428ea0e0
b6e47fcf
c8fbfb7d
483081ff
121f9f4c
74070b81
4000076f
c9e00078
20006937
1b8d8804
87fc0500
7c3ffff0
1e91fde4
3fe00f7f
2e5b7ff0
e80c0360
d8006be6
897fff6c
f6fffaff
03600174
ee800240
083637fe
002d0e80
789b0006
e4082763
0002167f
6d67bd91
d84df83b
57cbfe17
feff1d80
03fa530f
991e7196
edbffa2a
e140f8c7
e0fed92f
fff89bfd
3c83c000
20180000
41bfe260
c92e18fe
e8320e00
0e2df7ff
1ffc85fc
38128000
0a7e5bce
0fc807e0
2003ffff
80020000
02612000
00167ffc
b200f780
0a487a43
fc004fc0
009802bb
d948211b
b043ffc5
fe04e00f
204c00fb
001eff78
ee00d024
03b04123
fff87bf0
f03efc71
002df21f
881fffe7
7e507ff0
1bfb80e4
f83ff580
21c8edfd
dff0bafc
80bc0f89
0d3beb01
9ffb7ee0
c24bbe00
ba0b32ce
95290b90
c81f8f6e
403ef07f
010e27b4
90d97000
fe0363fe
97fff98b
e043b1ff
0181fef5
3ce1b7f4
772c4b80
91ff034e
ee01f89f
1d040fff
8004f804
ff703fff
e7f8ae12
ffd8201d
fee7b7ff
c0dafb5f
91c7ff8d
3e030ee1
fdf0827f
f01ff717
ff85f7ec
0ffe7e00
03c7e17e
efcbe812
ef3c81ef
4200bc7b
fffae191
007f35ae
70230c00
3fc9c3f4
c3fcb3c0
81f4e168
2404e31f
d6e791ef
5804fffe
e3318f99
ff807fe7
f87f629d
f86038ff
7fb47fd2
1625ffdd
a022bbe5
34837008
9009ff80
fc008703
071b803f
0407efde
a78b3f79
07f79004
643ff182
279003c2
fbe37600
80166fff
9ff07fe5
bbe47dbf
77f853f1
937f01fc
78c3fe22
042df187
51123ce0
be93f7c1
a1cef7f3
80297a07
ecd87fda
3fbc11f1
ffff80a7
910f603f
4fc12bf2
5bce9bd2
ff3b51f9
fffb9a7f
dfd5cf3f
00bf7e48
7efffdfe
1f883fe4
7dfe0000
1e7e0000
022000f4
55d7ea00
17d8a086
1f80265e
21116ec0
8e1800fe
a1e23fbc
4bd465e7
7235cf82
03b27b00
2fe00500
0dff0000
05fff964
00494008
70382042
547ffffa
011c07ff
0000048f
0001b408
11000f70
ada0dff5
f71ffa4b
18ae0f3d
bfe89ffe
8057441f
b76ed82d
49cbebb9
9eff1b00
39380ffb
93afa478
1ff6432d
db020001
09d0011a
ff8ffbe0
80402dcf
20c00801
2f7f9083
fe210b68
0f220369
3ffff80e
0083c980
fdea9166
f37624cf
c04b21fb
ff87edb2
dffe8f60
005d95fc
0dfffe00
3e2f3163
6e0c8cc1
91c719be
6f82c67f
03fc001b
24c05e00
dcaa0180
0003a803
c10ad074
340fb7fc
000bfd3f
f0fa5ef0
64823dbf
8443de17
fec00031
7fcdc804
c0008001
41003fa8
ef8020c0
ff6c2006
1a27a209
0280001c
b89b79e9
b208ffff
ffe0fffc
3fdadbfe
6ffff07e
f4dc0600
3b7fb03d
7c4b0181
a0dfffe0
bf2c0e48
83de0e4d
4f422f3f
c4fb6f83
b1c02459
2ff9b81e
fff3f605
5fe1fcb5
25cffd3c
ba6b0120
8dc1fe7f
fcfffff0
3e1ffe03
79c4725f
d743c7a0
00ea7bfc
f0073000
448c04e2
9651021d
704fe00f
e3809900
e0e1583f
76400397
174e02f3
c8fc2dd0
53a7c3b8
137c3000
3a400fff
836777f0
9fe4485f
48840c0e
7f9007fd
04800223
67006238
8ec083f1
e008317f
d842ff36
003f373f
9376e0ec
45fc0139
d3c01bfe
c871fcff
11cb5734
904822a0
d07efd2f
f927fe37
1df800f9
e36048fd
05bc81fa
7dd7e83f
e180af03
bf1ff167
01b59adc
0fde87fc
c0fc7fb8
021004ea
20518fc0
fbfff2f8
1ec5adc5
1a7bb9fc
f013bf4b
de813f6d
647400f4
61ec81ff
4ff9fff4
72c0bf04
3ff86f46
11ff507a
e208b64c
800edc3e
817ff088
c6fffced
a7fc00d2
fbfa40b1
f7bf39ff
c69ffffb
91fcff8f
0106fdfd
37777bd8
fed97b86
f784ffe6
049fd602
f3c543f0
fffbb065
fbba7217
17dfb39f
79302101
fd7d859b
70077c01
7801c96b
87bc0000
f8bfe300
002009f2
f6fdf1b8
2b79f7b6
1ae0c045
c0e0001f
deec1e21
f8002cb9
17fffffc
7dbcfffd
1c90edf4
4082c249
9a00ffbc
1c7df800
40000a00
7008cbd8
7f8fc01d
e123dbfb
49bfe38b
220804fb
c0030ff9
3600037b
dff0808c
5f657ee1
64a83c90
9bdde482
b0039b00
60001ef1
0bd97b00
001c17d3
1feafe00
de0104f0
da3ff9c0
ddfdb101
b7f45336
e11c01c9
04001372
50002880
5bfdfd02
be188076
1effffff
00fffbf4
fffedffe
2ffff9fb
2801ffff
17f7e878
fffdf044
d316e1ff
ee0000ff
017d9fff
16ecffc2
f007fe7e
025ff847
f9fd0130
fffaf867
0184f6bf
401f8f68
7e10fefe
fec006ca
dfb4fe46
01f81e01
fd8032c4
47ebf600
ffd41950
f7fe0140
fffb7f47
0ab06fd4
12f00602
ff20049b
0fffb34b
6fec016c
bf23fe10
84391fe0
100180ff
728dffff
071882f1
e2b60641
6dbbd1a7
f1beff01
03f8001b
27fc00ff
dbbe764b
5fec1017
040bf920
9edaffb6
12f00324
ff683230
f20603d3
04f00043
3d944dfd
ff929ad3
a80764ff
00004740
0000c37f
d3f0077f
2a3ffec0
f69818a0
3c6f8a63
9223ff36
ff400ef8
fd1a0013
bea66fff
2f701c4d
7df93008
c2f47808
f005042f
807fc3f6
cf6dc1af
018b1c00
0806025b
7fc00038
21061e50
3a4184fd
c8805fc3
8bcf03ff
005fff09
07c530f9
c3efffeb
072e3f1f
3fe881d0
f0dfe022
c0088803
c08077f4
0ec10970
0b843fe0
4303df7d
0dfc126e
ea045b00
2ff36606
ba8033fb
b97dd37f
511c6fc9
ffc7fc0e
007ff91b
3b7f027f
f7fffde4
83dbb7e4
4012ffff
80ffc800
300ff8a8
f0dfc9ff
2007fc31
dbdc801c
07dbffff
4a3ffff6
faf43f60
fdfc12f8
f29a000f
09bffff8
fe0d04d8
f000d87f
1d6c0012
305c0ac0
273ded05
b6810732
02145207
7f460078
e88f7000
20ffdfc7
8ffe006f
42ffd81c
c0406ffe
327fa04e
3001c000
88ff5b75
be00fbf9
082f7a57
e6004ff4
ff437c4f
00160003
436000ea
92418109
f599ff04
35812417
6e34f4a1
837447fc
35bf803f
0fffa3f0
b9063fe0
079e99f6
8081eeea
038e70b2
dffffbcb
fe5e63ad
00001cb6
ff120e48
f20001b1
13841817
051d0e24
f1001ff1
6341ff09
ffe80087
fe02004b
1cfdfe03
ff025800
f005d36c
7efff4e2
780001ff
89271f06
1b95ebb7
3bfc8000
48000078
c58bb7ec
d97c7637
9ba77ca2
007f791f
fba460d9
7ffdbfff
03de1be7
f69ffe40
ce489f77
81c85c9a
b0beefa6
0feb83ff
ab89b492
7dd35d24
fe3f24fb
7408051c
781ece43
02010fb3
00be20ff
2d5f880b
301003fe
10fc86c1
2001edff
09c92100
9c800000
c05eff6e
fe480007
043d7803
f5003200
81441037
d84836ff
b0007fdf
5fc9fe87
3c11fed0
7de05ff8
d800ffc6
a3fe4e9a
3d2fc30f
3ffe40c1
0009fa60
01bf91fd
fed03ff0
9abffeb7
ffe1601c
ee0b28ff
fff54dd8
01100000
0265b09e
8000e162
a1d3dfff
12001f8f
43488708
c6004ff8
017fff7f
e000bffd
40e47fd7
67a02204
6057c93a
0003ff36
f4cb3eda
ff8d7f03
15e1003f
4e00024d
1cffffe2
c20270c0
753c6c7e
cbd00272
fa007fb7
80339f7f
f8163ffc
3fe4a807
ac070020
f3800035
ff007e07
8d3dffe2
7ddb3be5
2515adef
7f7fbfbb
03de306c
7fbc1ed8
e932f47d
8008daf3
00ffffd0
dffe03de
a6fdbfdf
d303fe20
130b1fff
f4fe2501
40000ffb
80080dfe
c86f9081
05fdcfbf
e2416400
0c86c60a
fb4089d9
40401b03
dc4c0000
bc1fffaf
f9ff4c09
000dc023
ffbfb7c0
00801b4f
1001bb10
0208417f
92c00b00
30005fdf
40feb000
4600fff6
1f0e7ff6
fc6c493d
e3b7006f
0002383f
dffd2074
f1da00e6
02ffda19
b6e0008c
5bf8b974
ff892810
5a003005
011121be
de0080a0
80019e63
7fcde008
61b9809b
00006fff
01fd4008
e2000020
4b804df3
3602c001
1c7f44dc
27ab81ff
7891d880
00b7f0f0
3ff7c008
4dc9fc00
e00f0001
80020931
8bfd4660
6203ffe9
03606000
d3c4dfb0
3c92d200
09fbfe07
1ef71b86
29ffff80
a00b73f8
70077d01
d87ffdfa
8033feff
ffd20dde
60002000
00140f55
217b6cfc
387efb27
809c05be
fff71c01
3d823f2f
3fbc9000
3dffe980
81b5c048
b0f90d67
21ffffc0
200281be
f0ffc030
11fff071
7e27fff4
a0c39ff4
743fe00b
00122f90
99126694
0040ffaa
0e8ff3b0
00a05ff1
b1876000
ff80bbff
4da7fe1f
8bffeb84
22001bff
061ffe3b
3defdfa0
ffffd371
6f162832
893fbe7b
dffc7fdd
c4bc9007
61bcb0f6
032f39fc
0462f998
20b2f240
02f537ff
62ffdd20
bfff8700
fffffeef
07be6080
f4001bf6
00e5c696
c9e10c8c
7fc860ff
f8000723
00672037
c020dffe
1b8fc4df
104b89fe
9fc412d8
fcbdfff6
40190f00
6fdb1d06
3ff07838
d11002fd
fe000404
ff0005ff
b0f3b400
bfc01e63
3df4fc3f
e8fac057
91c4010f
82614ffc
e4d3803f
0007fe69
fef03fa0
fffc17f0
0fc8bbfe
6fbf3c0a
4754019f
3c1b007f
63fe2314
00ffd044
10316000
f7887fef
4b769fc0
f004000d
63c1fc03
bb61afff
0c00c3fe
e001e202
03014dc5
ffb92180
007b7ff3
58025301
002ffffd
14120f38
39a450cb
7840f600
e00087a3
07ff81be
4507fc00
df86bde4
17ff5030
0efb204e
428edb00
fffcf010
f7201f83
87ffdfb9
df198937
8a31cff3
db97e7fc
ffd07e2d
efbdf03f
63fe17fb
e5c25ff9
69fc82fb
c0887fe3
071ffe00
0fff0bfe
ffbff300
6cffd23a
60430bcc
0ba124c8
ffe0fff8
febf227f
ff96d003
185f7bff
f1ffb4ff
dba037ff
113001ef
cf85e102
967e00de
12644030
c4171fc0
e00f27ff
38007980
01fcff4e
fe828cc1
07bffdf7
000863fb
00f60801
c0077fff
0e0cffff
c58ff4e0
fc2e7fc6
76c083d0
fff00340
44dc5e3f
841e006e
2400063f
35fe0f47
01bf4f80
3a403f40
ff1b8001
7ecdfc01
c072c03a
d73c81f8
8f803ff6
e40180ea
46fc9fe1
01ff0166
632e4cfc
f8f2f83e
003ff7ef
de0119e0
07ff2636
e03ffec4
0013b715
111f4600
ffff0800
1e4eefff
00f7f9ff
ffdfe3de
eff77c17
4f7cbe2f
cbc0e04a
0405efff
fe02ff39
bbff007b
000e604f
fb1f0058
b007f1b7
f7e97d07
2203d1a2
6fffc078
3ffdf380
0024d135
d0300200
1268212f
c0def3c0
f0240a81
29ebc09f
1fbe815c
fe3c1bfe
25b4fafb
027fc027
fffd924c
7df84711
ecd00237
f7f8e07f
8f817ae3
0000bfff
6c800004
d50bffe0
c0000007
ffb0e3c9
0077fffc
0001010a
f007fc00
3ffbc39c
28c98093
80001c92
1e8133b7
02098f27
0bfeffea
bc9bfcfc
6ff136fd
b053fe03
ec34800f
38166cbf
61c3e00d
f4200080
ddf7ffff
1e003fdf
bffe2b2e
cfffa2f6
8fffdc0d
21c03ffc
30e7f7ff
0a025fa9
1c01bf60
c01ef404
01f0fc71
0004f004
fffffbe4
9877e9e1
c3be3018
cffead7f
10141ff0
dc0120bb
021bfd68
d210fb80
fff007fd
c1f3961f
e007efd3
ff883fe2
5cd3d003
6de4e08d
240015d0
7f804e88
f9ffffff
fff007ef
fba754bf
b2e897df
ffffefff
b4dffb3e
e23f400f
bffdf3e7
bdbc8013
cfd56470
67fd68ff
d101008b
fffd9c17
fc78005e
fc11de01
efc61ffe
208df64c
c0105003
91cfedff
e4000245
006dffff
fd20a182
ffa03d83
0c101510
80381206
01484003
c0021fc7
05ff12f6
8370021c
4b6580ff
fec00009
90b60062
fa3c7fe4
06100f47
024905fc
3c001038
3780ff8f
62bdf8de
eff7befa
0a2803ec
3fdf101d
7a3c0079
203dfc89
ec016cfb
bcdee07f
de59fbf5
d51b7023
05bcf664
f0017ffe
d369809f
5efe517f
fe8003ff
3ff07f69
cb6bd03b
15a2181f
3ff9fde2
27007640
0e80fe9e
21f00400
dffe4099
8fc373fe
e380243f
bfe48d7f
bf670032
f3fbf8ff
911f800d
fff8ffff
1a7fc1e0
48ddb780
42441700
3ffa0708
69fcae45
abfffc7f
cd006aac
7b503d2e
16c5f491
dbb2c283
fcea6fe6
01c0880d
febe0000
367c01a7
1e9f400b
258ff888
3d0c0ff7
f3d0d2fe
0c00221f
f87cbe3d
fff824bd
33fecb7d
369ff001
b0bf3d2d
07fe40e3
ffc3bc3d
d6c7f501
fd2001f7
dffc0420
703d0dff
ff534010
fff7ea4f
6ffb3b96
d0090324
78fdc135
8ffc9fc9
12ffd221
056d01ff
c83bec91
ec37d893
390190ff
e927fe90
64dfdfe3
804bfbf5
fc020081
105ffb1f
dcc008ff
80101c07
d021ff20
3b206e03
2dbfff80
fc81bcfc
f7002019
1dfbf7fe
c012c002
22ff8080
0d3fe203
e4060790
fec18a00
cd38ffff
2ff06f6d
fb182bc1
012cfedf
b7f63fe0
039ffff7
bce01980
02ff7fa9
ed2bf6e2
a19803de
1bfe79ff
00001fe0
98000bbe
3ff0321f
f09bffc0
fe06f5bf
2ffa216d
3a004f7e
09ffdc7c
000fd200
14e17fd8
e006c9bc
00002000
236c02ce
5e06dff9
921930d4
9813f926
3cbbb021
f82fffb4
84102439
f109ade0
085fc87f
c7400000
a58d20ff
076c0025
065c0002
a000f44e
016e46bc
5864f404
4120400b
83ffdb0a
f7a060cb
85c1f20f
1d63ef9f
3df390b7
905b0910
e10fee83
20fc07c4
08c4bffb
13803b80
0003cfe6
0037bcf0
0a69cd00
ffe344c5
fe07fff3
ec28004a
e0f82fe7
d7024037
007f401f
00296fff
803bfdf0
00001be1
001e7ff8
204f0808
650a76e5
10037fde
7c07fc00
1a7fbb6b
484241ef
3187fed2
f7f3a600
88107407
3f200301
a00dfffc
a09ff6ea
004ffbff
047f3de0
0fff7e10
3affe90e
00173b13
0bfe6000
7137003f
e00b4ffd
10fefffd
0fff607e
40ff5223
66ebffe0
0038a10b
5801c003
edfffbff
237ff6ef
880f6ad8
80091012
7a06232e
ffd3201f
26b46ada
003fe00d
9183faf0
0369d137
fc1b2e60
8fffa7ff
b9f78420
1ffcc821
0f8de002
1bfd4102
dff5eff9
1e7eff2f
877fc017
fe002829
e000039d
7805a83b
95a0007b
ff8009e4
7fa35ac0
fbeefff8
0881ffa7
bff4fffa
69ffc904
f4fdd800
120a7fff
00036d10
dfc43ff8
f803fe5e
1fc4126f
0001dffc
fbff7580
81e4007f
f7b007fd
fffe8006
cfd7ffb7
bffdbbb2
7cbb104b
a43ffff9
83df15ff
df540022
fdbf4837
81a808fc
003fff6e
00010000
3f807eda
4003eeb7
003f6004
13feff00
effb0b78
6e08fa77
00017a12
00005402
728003fe
444016d3
f800df30
7469ed3f
f7ac0f7e
1af496df
49bf0000
e0018001
b6ff80f7
063ccf7d
587fc01c
18022dff
2030010b
13fc104c
fffd9004
1e000f86
000ffef8
f2086db2
fffb207f
0036030c
d8c41201
001f1746
03f41068
a3a09088
14b7fa81
85000788
b9904fc4
092322dc
2f802000
969f6be8
48fdd248
3bcc80d0
3ffffffc
6e0065e9
127fffae
e497f400
6437dd91
22721ff2
130c013f
dbfcf002
127cbf0e
f40fdff8
45ff0209
e10020de
f00069ed
0e580000
a9bfffa0
b7fffbbf
ffc08059
80ebf017
fc0b0278
b0fbfff9
6b5e9950
ff1b4003
e0053b93
ffadf9fa
4e5c1226
8418f006
27febf27
f0041903
3ffff3fe
c307e7b4
c0f2b65d
f007e801
ff920165
07dc0088
cd3fe206
4148fb5f
fce03f22
1000fbf6
1fcff898
01000000
766fd9be
804d84bb
07ffbbde
80bc0490
00752d00
3fbf64d8
ce347c31
19be07bb
001d0910
924c03fe
b7c97e0d
2c9337e4
6497ecc2
03d8078b
7fe376d4
2e10d268
c00ec363
bf9ffec0
b3ff7c21
0072740d
f8024800
7905a47f
fdaa0208
08cff808
36341501
1db136e7
3061ffc0
f401f700
f792b4e3
5efc8541
0007124b
6b931b00
3fff8fea
ee086ced
1ef63803
02fb1030
fffb3e6e
c03fdfff
58480000
4a381ffe
5e81c0f9
fff93e18
6e000009
0001176c
b6ffc980
8ffedc2c
325fd740
07fc2726
a03be410
41b194f7
08208ed8
00070d10
19ffffe0
a0016041
fdbf03fd
ffb3fdad
562091db
00121e07
c3da0000
f7f3f1fa
7ed0ffff
4030049b
00242d34
0fff904a
2c6fc92c
25f42600
7fbfe07d
2a004900
f0210d43
f813bfbf
30064003
d0ff8001
0eec0091
10018000
a7fbfff9
5fda1fb8
09800000
c9feffe8
fe408fff
037fdb7b
10002000
0004c9b2
2426b4fa
a042ffe0
edc0007f
f80600fe
d20001df
2000ff92
abf007e0
4364d00c
e64cdc14
0077fffe
07b3ffb8
41c31ff1
0b08d003
01e3e000
ff85a040
1ff13ffd
00017f40
9cd13490
ff842500
57eeefff
3ec07063
062d4b00
c00faf70
0100e078
fff00614
00ffffff
4f4d63e8
01bfd960
5428201f
ffd01e86
de7bc0ff
d7e16000
3e28093f
040937fc
df40a030
0ff8bc2e
5db0c480
ff639bff
203133ff
03920b00
3f2a0bc2
80a04c7b
1140331c
ff2426fc
7bbe93f7
b37b8f13
24541c7f
003dbe8e
27cae0ec
f7fff03f
fe3fd3cf
e00d970b
e0a78836
4a6fb0bf
0ffa59f0
a10079fd
0dc017f2
ff165464
c57b0fff
7431017d
1dfeb002
fd1e8000
02c803eb
08800000
00bdfea0
4237f9b4
63b1fa00
77fc9d7f
ffff003e
00808eef
f4f30fc0
7ffff7bf
00774ddb
54a113fe
efc00002
f00137cb
ffada4ff
ba1a246f
000fe7c4
e4192920
8ac7d8ce
135080ff
70ec097a
45d90200
ed767f00
75ec0137
cfff600a
6977f05e
20e47c31
47c09bce
98203fe2
f7ffcfcf
1252efd6
03f1df9b
021edbf7
007f6c2c
e80f0014
ffffc1e6
4fdfa101
0009efdf
032bff60
ffc7fff0
f8f6ebfd
a7e08ff8
4dff9f8f
9ff920a1
00120e7f
f0106400
efd9c41e
cfe3f802
9fd0145e
99b1c7ff
00ffe080
05ef002a
4c0646b6
b1fdec12
0017ffff
ffcdbfe1
f9d8004f
003cbc6f
0bffff0c
07e0f0af
01ffd810
4c8e03bc
80fb7fd7
01bf03fe
03f02fd0
50e04fc0
05cfe003
2affff08
ffa90fc0
0038ffdf
0cfff802
00004fd2
ffef2020
9dfe2e5b
7bf0bfe0
04080401
207ffd4c
3f003018
69c8ff80
0d8017a4
80636ff3
80001b00
8804acfe
cfe1320f
82200000
03fe08df
3fe13000
fe10d320
40bfff62
87587db5
f431034e
0004361f
481dd417
57ffd6fe
427a176c
3ec126d8
6fe99e82
c07024fd
c6e07b40
0017eeff
e2f146e0
e603fe08
7bc7e376
82f8868c
fffe0f7e
ffff0d8e
1f9fc09f
10ff0180
f087f43d
02fff81f
f7fc37ff
04074007
fc3600c0
fffff107
45d9839f
e20007fe
14fd853f
0dc7ff5a
0041fa1c
a41ef1f7
0829e009
02d87d00
07431f7f
4e3fff80
def907ea
16207ff7
4e480004
020dc01e
d804498e
84000006
9421fec1
03004b69
91ffec80
fc07a1fc
ffa20033
0ef7ffb7
006fc000
027e81ff
87fcf481
710125bf
c29ff043
0dffae72
fbf80ffe
ff827fcd
0007ffff
7f103c60
07ffde30
fe8cd040
000fe9bd
f38ff000
0127ffbf
1e7e7ffd
09007ff8
fe5b5fde
03be400f
f2dfde08
fa1bfef9
071067ef
f2037ffe
c14f687f
0001916d
0d503ff0
f002efdc
ff890402
04438b36
043fc248
9000f872
791e5007
826e1b81
fe0ff9ee
f7bfefbd
fbfcd901
e07bc31f
c8304802
cdfffef7
5df0c9ef
013a0001
ff480260
0160877f
00001000
01004032
fffffb01
f8fd2000
0e400c0f
eb69fdd0
1ffb7007
2f00f388
00004eff
20ff8181
0ff9b7f8
780fc2c0
8000003d
743f7878
0360a2da
04c00140
b9c0ff80
bbf7ffec
00e008bd
f480a002
933fc6ed
b8235e49
3e800008
08000000
c29f703f
fe40df9f
b47e01b3
000019fd
ffd9f7fe
ddcd048f
f30c91ff
2da52d89
ff810160
f017b1bf
ff2c207f
10b80527
f70e0020
0d8000cf
02803910
00434ddb
7fc31e21
e03400a1
c0802ffe
0e001a7f
1e4078fc
00fff800
fffffc05
fc040ee3
bc43fc00
5bff97fe
ee300058
1616efe7
29ff0001
fd50b320
04c04905
f20ed308
fb7e84fd
06fc0b3f
8dc61f04
21a02adf
1a7fcd37
8019f473
0f422ffd
00f6003d
ff4423f4
60003d7f
6b03fe17
cfc77270
02c8d568
401d0001
003fe87b
e1000240
ff01ff37
c90001a9
038f2001
310be83f
f1c9e190
43f57417
001c11f8
a0159876
fffff7ff
5ae3f201
f03fc392
256bc7ff
ffdc0e52
77d9a07d
e0673bfc
c0407ff8
862cff81
ceafccf0
4f1f96ff
83c6d3ce
fc8007c4
85b7dc00
fd005371
7c000fa7
3ce00077
f000ac7c
0bc09602
ff3087db
0ecfc3f1
b471d97c
452d5c00
87400970
ac0000eb
803ffe07
3dd2fd0c
9f06382d
ffeee03f
f02ffc01
7c7fc5bf
078001f9
7805fbf8
77cb9ff3
06258fa7
f20ffe00
3f4d8716
6f4011c3
f17fe797
e389feff
47fff7ef
ff90e3e1
8bcbb7d3
c003f67f
57ff6fe9
bf0000fc
097e80ff
4ed41d83
fefbff00
3367f1f0
7003fef9
6c501f18
bdac7258
a00013cf
2439000b
c303f3ff
f03801bf
a4f94fff
593fb1ff
7e184f05
18832103
00e3f037
0ed71ffd
dff28e30
7fedfebf
9fffff8e
0131c9f3
fe9dbe00
13bfe269
cf7e000b
7ff46f5c
dbf4124e
dfa103f9
051648b6
e0479a21
32cdf43f
27fc6dd0
c8298081
bdc9e9ed
8b3ef7b8
91b3a609
00524f6f
30126fc0
008e43b2
63b67b60
8b03c896
3236e015
21bbb71a
6ee12fd8
03b66cb2
1f9df355
61cb4dbc
b04923ff
e18b1bed
c7ec5608
e9fffb76
c896fbfb
e7fc003c
15f6f27e
f2702ffb
040002fb
bec4d812
ffbec4c9
3f7ffffa
88600409
6befa6cf
00dfb007
b5effd80
16cbfed7
5b0ff91d
c00003ee
1169dff6
02c24e08
edbfd280
ea01db86
5e4100a5
2810dd89
1db0d803
e3fc7fc3
46db2f7d
040d8f60
7963f309
90a6d276
da61240c
00191006
21363288
9d548108
df7f7f84
0bd9fe01
0040200d
d7c24c89
06fff8a8
dc025a28
1a12a426
fd48f3fa
24f93027
30f440bb
9f93ff20
3f7ffb0c
6d394020
e1c7e3fe
1f08359f
c48f81f8
b64fe473
f6dd0783
30fff307
2ffb0967
98423ff9
df42de34
11d6e663
e2498b00
05ed8c02
8ff0fc6f
fdfe026e
781c7003
cfc7ff80
805ff916
c11c443f
e3afe9be
03ee3f27
381ff1d7
be0fe870
08026e1f
e000bdf6
0005a39f
3b10d0d0
58e03c5f
2000e3f7
fd7e3fd5
c1fe0fc1
e1c20387
007b7eff
07409039
f007c05f
00fa0529
78000087
78a4a120
f5810740
c31c8e07
2fbf007f
fc882e40
c0fe81c7
01ff0154
f3ffe01a
47c01fff
50cffff1
944bf840
c1fb5c3f
16f8e56d
1d8bee82
004303e8
7ddcbdae
c0787001
c2c381c1
f0413c3c
ffa67f1e
3eaf71b4
ce104883
8470c1f3
80affe3c
003a94bc
947007f8
001baffb
f01006ff
4c8ec807
0bfff32d
7adf53e1
1c09df1c
37e0003b
401f0181
c02c1a1f
d7fc0680
10200105
fd7e0004
c08691e7
fcd8feff
a0000203
009c81ff
afd6bfff
d213fb1f
504a81f7
5003e8a8
03c05200
02000007
fed9ff80
897c1323
10f75fc1
42404000
00378010
f8dc01c5
8c00000a
f421ff15
013bfb49
01fffb80
fd8379fc
fd280001
4a08bfff
081bc003
b84081ff
0e80f6c1
ac51aeff
59de7011
01ffe5f1
1ff1bffd
ff97ffff
04dfffff
efc03fe0
07bf487f
ac311982
42bff99d
02e09031
2fcfa010
9bfa7ffd
8881fbfc
ff7a58fa
10bfc01d
436bbe00
ffbfff9f
6277ef6b
f8000fff
31ff006b
00088101
ed0e06c0
70071bcf
ff8a0009
06c20fd8
89fff21c
fd99d7fb
081ffd07
ee150f9a
234ff806
74fe88bf
fad8ddb1
00667b3f
c2d0b203
89393cda
ed2613ff
021ee003
80ee6950
000fc3f6
c2044028
21304000
bdfc9000
e7fc7004
87d2dd27
e87e22c8
43cc3003
f1c3f5b1
9e0020ff
27502e3f
0338e57e
5f81fc00
008bf1fd
700013f3
03901000
38020108
ff40037a
bb154563
008a69e1
fdd80021
007f0450
c5dc0bd9
8438002f
0825da1f
05ff7219
fdff0180
600e00db
3ffb808f
d1f993ff
d862e06b
32a241f8
0d0bf40b
eb83e001
fffc8c9f
babf13ff
1e76dfee
d81f9000
00b81fef
2481fad4
005a7e59
7c01099b
0131f6f1
8fe027fb
0fa5010c
0e4fff90
20ec7ff8
7f7fa072
5ef78007
f0152e03
bfd8cd0e
ef914a0f
f80470bf
3def0000
030fc000
0f1fccc1
76070280
c5820504
272430bf
0ff88073
25ff9700
da1a6cc7
0e1c1fe7
65ff853c
18f908d9
fa5f6514
600df843
87fff3d4
8000bf80
03f012e4
001c0016
01ec3336
00440800
fd0c0000
71b8080b
bf81c612
67dfee00
f27fedff
8381ff0f
0455cfdf
fe3efff4
1cff6f00
8d7ff000
701123ff
008067ba
f8017eb0
ffffa06f
00772fde
e9fc4e80
7dfc0074
fbe4212e
df00f01a
8e3ffdf8
0036c00c
f403b838
ffc81cf5
5bde7bff
38018180
6d260000
4182ccff
40007bff
31d843fe
f705ffe0
34035e00
ffc304df
ff9e31f3
c0030ebf
3f2dd5ee
befa06dd
26008e37
f083fe7e
65df87ff
9000004f
fa502180
4fc1c02f
ff600f27
c0c21fff
04a0e023
ffd20e40
8ff81021
d000059c
67fc75e0
70b41fdd
fe77f624
00fff127
1380fb00
368eee52
0024f901
7e80006e
24805402
59bc01ea
fec11df1
ee51c806
c7e1f0ef
fe2de077
ebf1c003
8d000413
0040e432
1b8df9e0
7580ffe0
1a3b0581
7c6c3f02
fbcc9fe9
0177405f
000e20fc
ff080802
3607ebd1
bfae4000
4e1c0800
ff7ebff2
0c0004f7
021afff8
095f0872
5cf007f4
7f405f2d
f5bcfefc
e2ffc21e
fbff61b4
9da0082f
0006a10e
40043ff8
01c02017
108c0654
0f21a600
8bf813fe
ff803d5b
ff4c0000
8000e49f
27fe5f13
7fff9487
de37f7fa
438004bb
9bcefffb
07c803ff
18864003
49050602
cbc3e002
1c7e0709
d1e08ed9
8080ffff
1ff08a00
41000100
0f8003fc
8fefc000
077c2df7
39001480
43fedf02
3ff3cff9
ffff6f70
1df18f2f
f2400000
861697fe
200ecf3f
df084a39
fd800e0f
821209f3
31b80005
3200134c
80000002
97fe9fc8
00064089
207c1900
192f9fe2
1f9b6ffb
2ffe1818
fe97b130
ff7fe17e
5f902a41
87007fc0
0043d2fe
f4b01fe5
7303eeff
7fdfe98b
13d93f19
00dff068
2087dc80
1ffffdf0
f4ffa400
57cfbd01
097fe87b
4d002024
8400000e
197e21fc
c0101030
852001af
0001c7ff
b0e58f40
39f8bf76
f7780000
07ff8566
481fdfc2
0b841b00
800003fa
2236fffb
fe3ffb58
201ffee7
d5b003f9
fff22706
3d3821cf
0010418e
04000010
3ffff01f
fe00bff6
3afcbe8f
65030082
f7d9ffde
0f90061e
f7bf81c5
60000d83
fc0c0000
c92ebfc7
f03a0061
10f19127
5f5e8003
05d8007e
03ec0820
07f8bc0b
7fbe9930
21f3bfa0
effb4ff0
ffee0077
f67edfff
00fe4003
ffbfe7fe
edfabff3
d7801ffe
6fc6d5ef
fd805fc8
f94b0057
4dff02c7
c0880306
081f8a5b
76469c01
ff99bbff
82005e7e
cfc18805
2ee804cf
d0e1f381
801f180b
012e25ff
00007e41
f4c792a0
fc00003f
2faf937f
7fc3fefe
43de4f19
041e7005
a1df3500
7ff082dc
cffea03f
4ffd8031
c0001980
14fc1292
053fc4b7
ec9fe8f4
7cda0fa8
6ff0a8be
e0004938
c6186dbf
8c37fc9a
ffadeccd
07fc0000
fd990020
1f59edfd
853eeff8
edf4f209
896efd03
009301a4
6e4803d8
ff8400eb
076ffe14
30c003f0
d801e09b
6cfc00cf
b7bc6880
3edc21e5
cfff80ae
00d9d001
5cb50be0
fff89230
9febe12f
11d610f7
0f87402e
91ffe789
f6d2c37d
20e5b637
9f7f9200
fa79fec4
07dfb6db
fea4d06a
fbffe0e6
d841b091
8528efa9
1ecbfb0e
4904823b
493023c8
db05a4a2
07b701c3
d976f40d
87ed9b3f
c013eedb
f7f70049
0cf103da
ffd5ffc4
447abd21
f7e1cb7b
280e4649
87a5dcf1
6ffe1bc9
401e4002
d380f6f5
25f587fc
bafa5d00
fc01a401
0df5891f
14d8097c
647d2871
9461e556
ec8000c6
48087b7f
feff7c2f
247ce001
dffffffc
9b3fc512
f8ff3e02
d3fd6000
4301c0ff
02144f50
00780d36
5ffdbcfc
27fa723f
4f800392
6f040020
dffc4c58
f245e0f2
59fa073f
bff27bf8
01fc027e
1f4ffb24
4390ad28
b37803ff
ff847ff7
6df8a120
002017b6
002dbf20
feec803a
19ec5900
00f9826f
4038523b
600cc3fe
92127feb
cff03e00
7fc24126
03dfb20b
3fe30b7a
b1ffc100
e5604801
00000007
2a481f80
407fdb07
c0017604
bc64032a
67baff08
3fe008bf
01ff05fa
21045058
30ff8403
d8b92400
104fc6db
093465cd
a1801ff6
f788052f
02f50087
05c50000
7fc9bc90
b805c00b
3fa1e372
6ce9a6a7
301c76c9
393ed811
e0420f01
0601aa4c
0137f240
08b187bc
38407346
00052b6a
06acb8b8
fbe1f7ff
35f9e208
9a90337a
3e808ffe
0081b080
1ffff858
ffff8008
02cffffd
13ffd723
2b430033
01ff0400
83fbf700
c8291005
fe00fc01
1f9fffe3
e1577a00
800003bf
d60004a8
08000800
7a34b7d0
fc30dc00
3ff5a005
fe000076
eb8eb903
4015f82b
c1efec00
005bc81c
05b7ffed
ffc01cd0
5a60196e
080001f8
ec500060
62c0fee7
c1be7a18
f7f9d80f
ff8dbf3f
07917c07
fd005ffe
ffff32b6
08080007
c1ff0420
800a427c
3fff843d
5002ec02
ffc77fff
80000017
70ff888e
f7c00818
ad044fff
f1c80008
e0107897
03fb89bd
8df92021
fa6e07fc
38e035ff
7f3fe5c1
5041ff24
001fd56e
37efff80
bdffde13
dfe4c006
0e261806
6f912a20
37fc4e27
f4001060
fd13cfff
c48cf177
6a3fe97f
e1f1cf55
27018007
71f99000
1325fbf2
dfdc93d8
96a967f9
76be3f16
c4018d12
0193920b
e0000439
ff203a37
0f4003fd
0080009f
07ffe9a2
02020130
3e18cf00
c60000b7
de20ffff
1cdfffff
2c007fc0
fd36ffdb
5f803fbf
fe000c07
802084bf
03b6faef
80020f94
fe04ffff
f2000403
49fcfe46
8ff80210
00124205
27fe7c37
dbca012d
e03022ff
e0e04fef
ee401f8f
bfb7dfe3
6fffb7f7
bef8bfff
037b933f
b85bedff
92027ff9
ec4133ff
d21fb0af
0160089e
fff784fc
fffeeb64
f0dfec35
ff90065f
483c004f
80b63ffe
035fc0a7
0047ff72
9ec00200
fef1b824
7ff87e3c
8ff383fb
ff7a3ff4
781b81e0
5f44000f
01f7f700
071ffff8
fbb7ffff
f8780003
ffe4dafc
0f2e8885
20fbdf20
0013cf15
10492009
fffe0000
ffa05e4f
87d50037
23c10043
2988003d
f19e019f
182b47ff
5fe09fff
fdc11d96
7f6c1c10
c21fd103
0135003f
e00103fe
ff0049db
bb9c8137
bc002f8d
c9d90fb4
f00037f0
fdc100fc
7e03efff
0a6efefb
1ffd00a0
c72a2eff
7fc69f81
d8dfc73e
3e400005
873107cd
9fe001ff
c0041001
01c06024
1fc40253
04ffbe40
8b301c01
4005d366
b8c30179
47c5e0bd
fcff731f
0887fbdf
4ecfbfb0
9f2f585f
808dfbed
4e7ee37e
23f900e1
a8000e13
74a6e00c
40023701
d7232207
34c0f783
3ffd36f1
0fe879d9
7fff608a
03febfc0
3c01014f
89481790
e7f1feeb
0319993b
0e80ff9e
13f05f60
ff0031d4
a38003d2
fc2a392d
bf400006
207dde4b
8b6df840
07e80c1a
3d903fb2
c9f02960
35e357f7
00316ef1
6000fa3b
ded3fe06
22fb4fbb
7e4010e0
fdfe4c38
89fbc83f
21092642
47fc660d
0e46be03
97f6c5bc
26005e18
01661cd1
6d7feb78
ff90c1fa
7087fdff
0781b93e
8013dff8
2101f900
fdfef297
0fe02e30
81bfe278
4c800003
fc13dff8
7e6f7f8f
e0fc0000
900472f7
fec3df80
b57fc083
fbfc6ec0
9fd80000
146fb6ff
761b8020
c000000f
eb8e001f
1f047080
09a83ffe
eda00ff1
aa46c192
0996ebfb
f3ffffb0
086d8f87
1aa72d14
00060224
000f7fe8
0819b3de
07f800c4
d8000e00
f03fc00f
106e84b5
efe0ef00
2e00ffdf
c3f43e2c
00244959
ffe7ab20
03fe0053
2f01806f
89d207e0
77f80717
7d0c0208
fec8ff87
07780723
ff00720a
f2c003e1
1fee8005
38fa01c8
003f8db1
fbfed8b0
39f01f82
6e001f96
9df004a0
1127dfc1
7683603e
0033f908
cb610b3f
f01f6ff3
7dd10007
f7fed0fc
21177e8b
bff80003
0fbf7f41
0003250e
90a7c7bf
19c12693
3119020e
c5ffe1fb
dfe290ff
f427fefb
1ef9ffff
12c06ffa
3c07d780
feffef13
f1fec051
6ffffedb
0893f8fe
3ff6ef48
7dfb0106
ec08c000
03fef6bf
021b2496
20ffe640
04bc1148
fffef300
043ff4ff
7bff67f8
813f0007
033f7fad
00c28900
7e0727be
ffdd7ffe
8143f710
94160270
d3efdef4
08040038
01ee1008
7f1da6f0
2401f93f
d1a10020
ff88ffe1
077ce610
f93fe200
dbfea8bf
2ec20178
fc3ffffd
5e00c903
00000006
ddbc9196
ed4129bf
14c3ffd8
beff8064
afb7e1ff
ff21f2ca
9000ffff
09b7f083
901001d8
e0084001
1b0640df
9b8481db
803ffbef
ff8c00bf
80000137
02000200
77f4c450
22836d07
bdf38079
062914df
c84c11f9
2c4ffbf7
009305e0
063ff248
413eff40
9ffd17ac
bf26ff40
0dfbe200
2ddcffe2
049c08c0
06e1626f
c801a780
d9ec0fea
ef7bf06f
9ff76fa3
00ff8004
086f7ffa
bfffc560
fffc3e24
f3cfffdd
3f6e003e
c1effff8
604f080b
89884043
fc9efe08
8f14db43
8985f7fe
fecbffe7
84bfa36f
02c9f100
f927f180
8200117f
a0ed00bc
ff0fffc1
fff88de7
927bc217
b01021ff
867dfcfe
43fff7ff
f7c3fffa
11ff0386
f800015c
fa81dfe4
049603ff
01a10060
0103dffd
8e4afff6
7bb23609
d9e03bf8
9e071f13
03ff789b
ed0f4c09
249090ff
20fe0000
1ffc3600
6ac06450
3f113a00
ff1fe340
bfff007e
81be27e3
24607ff4
c3be03fe
0173511f
58007fef
90df5cb3
fd81d0df
fff23139
8280e05b
000e7e6f
40023fc8
fa173cbf
00020009
60401173
19d7602b
fcfccf10
24a24834
fe985e00
1d76c04a
9f02ffa1
0227d79c
f90c0400
c89cc1e9
a00dbc1e
c3c2c0f3
27fff2ff
be9f0f80
1f49d81d
a49b0bc8
82868101
0a1c3a89
9003dcd2
798a07b0
c9f7dcfb
3fed5ffa
5c084044
13cdb801
80f28140
1ffba7e1
ffdfc260
01003e7e
e2821e70
5002fffe
2fe82c83
017b0000
156f0794
00422028
f107fc6b
db49bfff
07ffff7f
00021800
00760000
c82175f8
6e41ef9f
000d4026
00dffdcf
9ffffc4c
6fcdbffc
21394c00
7dbffd0d
fedf2600
306009bb
f010bfcf
12f00104
00f40013
0b7f0010
f8603840
ba43ff88
007f0001
c11e0802
407bffb8
6c10fe80
090145ff
0059e5a8
80001020
000437ec
268000f2
10450d0d
169ec8e0
2f5eb0fe
afe9df82
dff547fc
3ffa019b
a9f842fd
4134b7ff
9dfc07ae
013517f2
02fe00e0
07a08d00
4d80e010
f34d27fd
000c0002
0ff1a500
9f84fffb
dc404e17
7fc0f340
4a4d3610
40000f68
f1f90063
e00003f3
00af9a3f
fdb027fe
001fc49f
711c7e6a
91c2d84a
280e00ff
c0ffb200
6fff1b85
e26030df
2cf78f7f
1e86900e
00a03854
4bffd187
7eff703f
02f20300
c25bf1e8
0e0efe7f
f4a145ec
79cfc5c7
08001b61
fffe8020
a9004e48
80bfa00f
2fc9bf87
f7e69017
41ff967a
e09bfff0
3f030122
80001880
f17044df
e7f801f9
8d0be026
a4edfc0b
8ffdbffc
fc0722ff
4c0fff9b
9103d000
801a238d
1001105f
cdd5b632
2e09fffc
003e3ce4
ef0000df
87ff017f
059eb7ff
00ff0fd7
fc77ffdc
dffe3843
f6df7e03
97d06572
5f8c001b
bf007035
0027927f
022ffee0
00120c20
f037f869
1b2c468f
700061e7
0fd2e076
fa444613
2b3fddd9
4e381f80
9df6b65f
03fdfbc0
7614cf8a
edb9e882
47ffcd25
7e04c3d2
03dbd801
3f3f8307
ff7a3b80
1ff0c313
c8ff8000
8d35f005
00002f0c
40f80604
0138fff0
4d85c0e0
f84c1ffa
03fd138c
a008380c
d8e60dff
0e43aa01
64fe1524
01fc27e2
ffc4a200
1cecccfb
fa401038
59f80307
1c0f7a57
04d78006
7838004c
1a01bf1e
3e61b1f8
800002f2
c009f97f
d86002b8
4bfc7f81
c3f180f4
105fe85a
8d25fbfc
668c07e0
181c0220
f0bfc061
03feb508
efe06813
0807fc70
ffb12fb0
074045c1
7fcc1ff2
fbf23fc0
780bffc8
87c00009
3ff4ff9f
7e06e120
5e00fe82
f3fff803
06007407
078803f8
0207c0e0
79c308e6
05bda2b2
4bfe40da
c4fe40df
00020382
e4f0380f
ff1377c7
41f97675
0002001d
59087e27
5cdfff92
dbe200c0
c6ff8000
01e7897f
df8ea7f8
04007f03
0db97220
ace43a04
38400003
13db1a0d
de43e0fc
ffe007f0
00002797
0df2b81c
021fa9c0
f02ff646
1ffe051b
0003ffff
7fffc001
c131fff0
afc18000
df168d7f
fff2fffc
00007386
002f2278
3fa7f7c0
bd143800
b3c43bdd
037f2ea5
01bf6fef
09e5f1fe
e007fcdc
fb0f803f
3597fff9
ffbe95ed
65fffe02
7fc21e65
370020f8
fd010007
ede82dfb
e27dff8b
c9f689ff
f1d03401
00843fd7
27483e10
34002109
ff2000a0
161e5f2f
0ffb81e0
d846800a
ffbd8004
b0188fe5
147f7dec
b00820df
913ffbfc
fc83e05f
25a01f8f
0c401f80
33e50003
edfb0c00
dd87fc01
ffe027fe
f9b6e5ff
6dc0e21e
40060090
001efefc
dfed006e
fbf047df
fb67ec38
f26c1400
fffffdff
000e0fdf
8036da40
0ffbd7fd
fff4025b
6dc0fe7f
e2009cfc
8003d05f
f16fa8e0
00fb74ff
fbff1787
6f5213ee
c37db402
c8ac8dcf
1e7bed87
f47e0082
ff78f017
9fff17ff
7f6afc1b
17fc1073
123f7b8a
9df6ff41
7fe6cf24
05df9308
e0000060
589b0925
0fdc101a
fa7b0020
01000174
000205b0
ff168804
3d309d07
7fff5f80
e36ec00a
b016c7ff
e0010081
087ffbe4
d9d083cf
a0121ba2
58017fff
192c0fb8
b1676d80
670bf800
00021c3f
5987bcb0
b0348002
16fc01c8
5dbfe482
2d9f8700
fde00510
c7fffffe
3fffbb7f
96002d49
0e28f17e
9e403fe0
027f7f90
3736a021
00917f18
38ad66c4
0126681a
e03ff878
0003cde5
8d7c903c
ff898407
f803ce30
920ff0ed
23fe1bff
a7ddfeea
8bff9209
840f7923
b5126bc2
c003defd
8286031c
37200077
483efff1
a1ef7bf4
00137020
0028e800
584ffffc
80ffabff
fb7926b0
3d857d1f
08000000
c93c3ff9
47ffc0b7
0dfb0207
7e00fd0c
0901b000
b07d8400
f048037a
ffffd11f
43dffb10
8ffffefc
0e83ffef
001a4ffa
55ffe790
9ffc8000
084ef07e
f3802d49
c517f7fb
e803fab6
f3faf00f
d233e7df
4bef6000
fe070072
978103f3
d9eb883f
0faff416
007f0053
f001a0c0
ff7ffe2b
53ff7ff6
82698e04
6eff000d
6bfec827
00d5ff28
f0ba73fe
8a8df486
8003ffeb
8437e5c2
fbfff477
eee10e4f
fc00ffff
057807d8
37008000
f48243ff
7ff3bf3f
480000ff
adc10c02
26080001
bee007e9
f0100fbd
05a1f267
3feebfc0
0fc8001d
00710004
fbcbf5e8
363f077f
1ffd2010
3ff67194
0400e000
03466ef0
1bdadf84
fe9003dc
002a801f
cb6d307d
bdd242fe
e819b807
f7c2cadf
513706ff
e732f803
090000bf
0240602c
fc8c7800
fff3fa00
00401c8f
da9616d0
ff3bf7f8
00b7007f
000e1be5
ff415e00
40805421
307406c1
3ffc0a20
ffff6db1
4347fff4
801fb087
fe06fffb
1ffffffd
afff7fc2
69b823de
43103b80
780103ff
f4178b38
9a50161f
3fec8fe0
ef4c0070
fbc0a127
db087c3f
a7fbfe7e
007efe51
fc2d8880
bfff1ff7
13fe01f7
f01c8e48
ff420807
72c08cdf
7fc0ff7b
0ffc03ff
8b327f00
7d1bfe00
bfc81ef2
9ede02f7
28000f57
995f0cca
deee66dc
000ff02f
f08006f6
03edc747
400020df
c9e92187
fe89b26f
c7f92fb7
25eb0077
0caff000
fffff200
dfb04065
007ca082
f83c0ddb
97c00c5f
dc33ee0c
0334d0f9
09edf780
17ff4812
051f8018
6d7e6bfc
24db4923
e01c00ff
df003f6d
9761fa32
d32ff49f
1e37c4ff
edbc3fe1
1040002d
0203066e
1901ff80
f9539f20
482c0c0f
fc09ee10
a200ae4f
0166fc04
e00fb8c8
ff000003
06476391
e015801a
e81dfe24
a9bfeda9
effc000b
55627e47
71b2000f
1d20309d
ff50cc00
0003f3df
ade7c00e
7ffd21ff
4c2cde81
e40ae4bc
ff44b1f8
f00043d3
13408700
07a0ffc2
7bf8c16c
13b47802
4a58b0c0
89efe900
0fffdbfd
3ffdfe78
edbeff80
e0393493
0f207ac0
e35c03de
fc0dc03f
9ffdf60a
f3ff1ff0
028048b3
3ce78258
308700fa
cff00e92
036fa8ad
2e00dc00
c800c000
07ffff3c
e0801098
1fc40fb5
8ffe5ff9
9bff9f5c
00df7863
7f001200
c0307ffe
0831c094
42cc41fc
e19007a9
a011e4ef
c20100fc
4200a471
230dc0a7
4becfdc1
06000980
00090480
03207c38
16c00fc0
3181e700
c6800d27
12bf0d9c
5c8ff800
bf0037c2
56d098e6
800ca092
3e7c4845
1abde501
05320bc4
300079a0
80241200
04f039eb
b6f36e80
7f5a7a49
000bf26a
9260f9fc
82c0e004
292280f7
d20b70ff
b1f7007f
f2dec051
7f15083f
f0f89fe1
03069007
f89ffd88
cbe11d9e
ed00741f
d004f07f
1027e6c1
5d394e1b
d7e389cf
8dbb007e
1ff004ff
3a1521c0
0c38e109
e46fff00
04d78eaf
622cc27e
bffec368
0db77043
700002ce
b7087403
90cf97ff
72848c03
8089ff02
48e1b1ff
0ed8df49
0fc41f23
651c7bde
814b9ff5
eeb3f91e
cfff1606
bf9b17fe
a03e373f
c4ede190
b3271bff
e3f187fd
1bfcf03f
ffc7f48e
26fdcbe6
869ffe00
3238027f
e2ffd001
ffe00cc5
9f18617d
ff0fbf2f
99cc81ce
0e02c7b4
deae00b0
6f279e1a
01ba800f
606cc8fd
3b738daf
f17f6970
038eb043
ff1109e0
fe46d0df
0f85800f
3e03f020
4df6cd08
82f607ff
397f7035
ffe0f44e
17f7ffe2
0003fffe
f0009c01
7fcee7f2
ff200083
c27ff21f
f213feff
801f7f3f
05ff53ff
f80f87e0
c7fff17f
4028ddb3
25022013
dc1ff1fc
83fff97f
4213381b
791f7feb
f601e07e
bff0039b
c9cbb3e7
0f4003df
9ff60019
38110d22
efbffd8e
03ffffff
341d8ecc
edb79804
