801da1b0
ffff7cb0
40b7c103
26082efb
4f486590
d490b526
0012d7d8
793e4030
dfa42401
ff03db67
3e00d362
b76e4f1f
80008000
aef72004
3ff23803
27f80009
09f80c0f
ff003b2c
4b2a4934
fd80ffbe
97f60090
cde49d05
9ffcdc69
fdc2f89c
f89f0000
0ff80608
2f96e4f0
19fecbfa
60269272
9b7c87e0
c48f22d0
7c19dff7
e5b9a0c2
00fbfdc4
86d81ff6
d2edbdef
84dc1e92
50052208
3f6df083
377d96d8
ce36209c
bef0077a
268741f0
793003b0
8384871b
b8905f79
9a401f90
000dfff7
ffefa034
26b65861
5f913760
06ff8837
8000584c
21b2564c
dbe24e48
f0343ff1
bc921401
fe9b0049
0ca0ec23
e3dffc98
d924c03f
0ffe8049
26d224d0
301a9ff4
0e593100
0ede169b
eeffd090
1ef8dbf5
e41a7b60
c99309c5
89f92c83
006dfb86
34e44fc0
003fff81
0458981c
8283ffd8
f7eb1713
f3edb56f
db67102d
8e4ffc6b
03e9b804
01217e36
79d31b66
2d81b664
786067df
bf04fbf6
9efe47fd
4d066c84
8ffe0396
fff10040
fcd801f7
efecec9f
fc017fd3
e4800dfc
83c4ed81
fe681901
361376ee
fff8006c
ec1045e5
dfff8d06
b5f5de0d
0058d0fd
c14085df
89a6fcf6
004fbe10
b79dfffe
49dfff49
ff9f875a
7b7f6780
82fbe5b2
259ec911
e00ce0a3
aed9ffe1
e2dda767
49124d99
41872460
d06de41b
23fdb3a4
e9099a69
64485fa7
3b2ff2ce
f3b63202
d8000e03
1cf77d80
6fffc406
086d0b60
16d801b4
7df6807c
7e494ddb
000007b3
ec80ec99
fb4d86db
00db10f6
b8216cff
2c867605
7b6f69db
90796342
83fdc7ef
015c87e4
b3e0d828
3b26a6d9
ff4b3fc0
20033f48
d9020849
4001ffbf
80091b82
0c10209f
3660b004
eff0d06d
7fff80b3
e9001174
0207fd93
dff3a692
67ef80db
a0608016
040f3f03
7f1fce78
ff346712
82bcbcef
10bf801a
0024a146
2df6d312
06e3ffd9
b6596d80
7c404c03
f25a4eff
49bf0220
824a3816
0900ca4d
505e9901
fd169bf4
bffe29b7
7641200d
dfa7f636
fdbb7427
e049ef1d
f0dcfca3
1984e3c4
02067c21
b59e005a
0c82c1cf
b7cf3ff8
5b49f65f
c48db71a
080517c6
8ff2541c
3477b664
71a00069
00281ba3
20000200
6d0fec89
904db6fa
29fa1007
7f4ffc21
63f2c85c
00da5ff9
f004be40
e049b07f
cb268024
82ce9269
2fd1b425
092df0fc
6c009a7e
1fc2d6d3
f87fffc4
4080dc01
ffb3f223
8cfc4616
4803e5f9
4a641f9a
d8134cb2
00491a32
407fdc3c
5b0033cb
f0016ff0
ad883a25
bf5e1200
7ffffeb1
217fdf08
e40f41b9
be3fffdb
e05dd42d
0fdfeddf
f00003fe
036d832f
59fc00b4
b9067e40
18014b00
033fbfc0
61dbf784
f2470703
05fe05af
efff7c00
005d8bff
078300d4
ffdbffff
1fee0000
001a4d02
fe1f3dcb
c06fa0df
e49b303f
67a76d7e
05fd00c3
da03f338
f90489f2
ce12bbed
40048da0
53f881ea
bffffffe
d0ff90b7
9c1fffa5
a004bfe4
a5d397e4
69ff000d
e449bf40
f9fb7173
0000dc81
122cd7d0
49002404
064903c2
0003c6c4
c30469bf
09f4827a
5c800101
2b7662da
93fbb7fa
ec90a200
f0ecb7f7
40070407
03ffc0c0
d7ffff3f
cffcc1f2
e09000e5
76fb0dce
00249a7d
1a7e4f64
a7ffefc2
401fe248
0041df7e
8301653f
ffffe003
4380d8af
f9bff820
01ff2cfe
1fde406c
34da003b
f014bfd1
63e9b6df
3b677c04
0009fa26
4bffe800
11ff4d86
b72f17ec
7f31fe47
db004fc0
e24bfffe
486ff61f
083c056d
818be340
0010fe64
7ffcffc3
78d0f3c2
1f60017d
80a86db6
000101b0
fe13021b
f6f13e4f
3fc98c0d
fc9fe813
801a6d3e
2018b780
85fe7b24
f6016e2d
1fffec01
fde11606
4003403a
93c74326
08bfbf7f
092488a0
042c259a
3b701800
f6ff8000
7004f07f
df003801
21fffe1f
0fc0e590
63cad892
e7ff01b6
ded8199f
fff90490
e7d693b6
8d3903e5
4a1144dc
c491fc06
8641b33b
0e177cff
841dbfc7
8e07d9cf
404ff811
9d0c3e37
f2220fd2
0df8120f
47e3e576
82764c06
65befb66
c4f3b1d9
3627f62e
a3f9221e
335bba0c
448f2416
0332db18
66809400
49a49bf1
2ebf3f10
7f7b62d8
1e049248
9bf806c4
de08a900
2ff93cae
03371b3b
bfe1bfeb
2dff5888
9c45c0b0
005372cc
6b74d761
4001a692
c002310a
86c3bac3
7f6b44c4
41212c57
d5e81376
6dfff441
ecfb7e0f
3ee4ff37
d0b2c5df
40db6236
47fffc00
6dcffe00
06926fb7
eee6f002
fde9b3d7
c8500db4
00cc6c12
ed925920
b302805b
99ce800f
caff80dd
857c4136
0040e18b
31ffb080
06601273
fe5f6049
d0f0381f
bf0c81bf
f6d96d7f
ec9fc006
b0d081e6
43fc000d
1001ff24
a4ff7db0
d3a4d809
f7f00382
0000083f
00000000
6c83c942
47772db7
fbd21bf9
2d93db7d
66de6100
ec40f3b6
5dfc075c
00ff8d82
07c80001
f7ffc9f0
212c0dff
7a56e5f7
66401dfa
c4124d36
20006cfb
4cf97800
27db77c9
ff7e8025
606dc4c0
c7edb1ff
fffde906
cae01060
193df8b9
ffff6404
3b66c803
a3ffc19b
a0313f4d
77fff70d
d803e000
80381e01
03f1260f
49776ff8
ffe0fc53
3df03902
00b7701b
f007fc00
fffed91d
781fefdf
8043f4da
48bf0003
c012f002
f1ffd001
1f00393f
9f007420
def80c00
ffc1341f
06d01e00
7001f80e
01e01fc0
c0e00fbe
ffbf6713
60551807
693f9219
ffb0008b
e04d8b60
c09ffdff
16ece274
fc2e005f
00e0727f
ffbf1ca4
1e00f81b
004077c0
0fff60de
604fcfa0
4035bf82
b056008b
e6e1fedf
0d05f5ff
1e30179f
e00ff560
3841a5b0
ff6fd300
e7b67f58
fedbd237
3a942876
039fff1b
ef5901f8
6eb50007
392237c2
0f3ff7d3
9007dfde
29c8361f
0a2bb600
80bef192
3401002f
ffbff068
04d0c003
7a6cbffc
c9e7fa40
f2dffe6b
b39669f4
3bee0016
6ca88879
3f6e4f93
f7ff4258
41ce06d9
cdfda102
4bffdfe4
05ff9f2e
db761b2c
3edc9187
30401ff0
bc0980d8
fd3fcff1
fb072077
3effc267
ff040431
e105ff6d
00099b7b
b9240078
fe77fb61
a0416424
41ed79ba
6e00db02
5fac07ff
81f7efc2
90052261
007fc374
c51b65e9
7277eb6d
fa01ffe8
401a6f2f
f20200fa
0204c480
60e43642
6db7ff91
ffee8013
2ffc00ff
7efb7b64
7ede101c
3d1cd008
f7e8924d
c40ffc23
d8fe803f
4000d005
99000002
552f6000
e83b12db
003fe8ef
e01b4ff8
48dfff83
9ff97a00
b4053664
f604dfef
002cf6df
3c10f1b6
c93f7b00
1b014f07
9b1f0000
a05fafaf
20007ee8
1366fe0f
e488000c
59cd8bff
a4ffff27
003c000f
43b281d8
7ffef022
72008074
0dbc4700
d9f801da
00a7fffe
db14111d
f800bc02
cdb4dfff
07fa0bfb
3ff84078
b530419c
be0406e9
b4ff8884
fe0b6bff
007effff
208a5e37
78249000
b0031ec8
456c9b06
90206cf2
2026de90
20f6ed03
65b52560
db00dec9
b1e408cb
9246cdbd
6f68cbfd
301a7123
01ff1a4c
ec0595a7
c4e40fe7
96ffd40c
6f97e584
276d6c5b
12427a40
2369177c
427a4649
ff862052
49320a5b
c97dcffb
0640007f
006a9001
24044c4b
12593961
fcb72600
00adbdba
ee4f7d6d
fe060367
49002019
96de27ec
258c369e
76d9fafd
ffd6e96f
b00bbd21
bf920906
7fa09000
bff242d8
d82dbf87
12480780
6b1449e4
99236d24
6c23f286
2595496c
c21e4801
ce5ff71f
800ff803
b6da091b
b2d80193
ff4075e0
212fe958
6f79608d
937dff12
897fbda4
fc4025ed
2cf3db6f
29765241
9907e149
6fdfe113
dc01f40b
99c005f2
5b2cff09
f924bdb1
ed812534
f366406f
209001db
effb6fff
00f8b6b3
00000693
640bcf46
3c21b6fb
913f3320
12fefcb7
008ed1ff
24b01ef4
4da3674e
ef80dde7
1e80490b
f832de08
c043f91f
d000bda6
fd086d80
7f515fff
18edb80b
c00ffc80
80ff7b5f
b464b7e0
b6ff0de7
42ee1fed
e00ffedf
3f811372
18084cc0
e0fe7f80
0c03fc11
05e94758
7bf8fedf
6c34026f
6e78ff22
cdba01c9
bbcb001f
fed15fe3
f8f07e7f
80000417
6b7c865f
1bc0052f
7201249b
258a6b92
c28df251
6c4b2cb2
8fbe072f
305f2c04
7d200328
93458532
24d1fe90
7eaefa49
9249efda
3ffdb684
bff9096d
3b7e28c8
fc7c82e9
f9a28649
0139892f
df6c2400
95b40df3
f8b600fd
e015ce57
93b4ed93
936db491
fbdfb6f6
44b16448
6708e4db
4b241224
bd3c5a53
50de3396
468f6da6
48b69267
0db807be
c6bb93c0
d98cd825
8bc93b7f
85a5b3ff
624524ff
e3ffff9b
045c00ff
04006411
80998696
f05c3f7c
cc00903f
206be680
4e83bcf6
b6f7e928
030004db
a499ce00
f9b005ed
fb23fc93
f9e01fc9
91dfec01
0dcdcd2f
f80df7a4
923225b1
041ff9fe
ffe3f20f
5e01c19e
8139b603
30fdd800
3009fffb
9386d91c
f3645e04
cd80cdff
03e1fe17
f79f6941
40bf809f
dff1b1ee
daefff27
f3f8fd7e
07c8bb0f
c69c03ef
deff6fbf
3400846f
2df24db9
68087f1e
89c5b192
c0427fc6
047a6fd2
0006400c
00105f30
efd93240
5bfe804f
881fd648
d040f680
60121841
0000815f
6e8fb702
806dbb0c
d8fe6b36
eef7f003
fc06209f
3ffd8df4
be804c49
1f4ff900
a0f27f50
0907fcff
405df009
d8a3ff9f
edb407ae
26d049ff
59a043e0
013617ff
1fffcec1
b68209bf
f93c9fc9
e8c02fff
d881fc32
491b3900
d9f03761
8ba36368
da7f7fb7
9a2f475f
b6ec7640
c8030401
5ff81b67
c8006e1b
fb3e7410
0400c0fc
ffe081bf
07047483
5a79c3fc
267f043b
4c01d7e8
0a93069b
03024e11
00382d2c
f9b21bb4
5040fe57
ffdfdb1e
67bffe83
effc25bf
702b025f
1fbec2f2
06db80df
48049ff0
fc13b6fb
e480013f
ffab00e5
1ffedff2
f692137e
8ecf23b3
696984fe
07fc01d9
1fd0c06c
fc0ff9e4
ffb80131
2b371201
40001bd4
4048578b
820703f3
003206fc
26c3b1e8
6fccffd1
0c88e060
00df4fe9
018cd39c
500fc913
f91ff400
e5f7ffc1
034de1a3
48fff933
4ffb9868
884ddffd
390ff920
6d904ef6
f1bac378
3f2c3bc0
8907fea0
03623e1c
3801686f
d9007bf0
13a1ffec
2fe7f9cb
7fd8bc99
02f6001a
b6903cfb
9db364f5
e800011f
5015b747
802a5ffe
2f8047ff
87bb49f8
48425800
b5ec0000
cf097f00
7bf802d2
0816c226
381d9000
8ffc1bf2
fdffe41f
081f827f
00000030
2dbff800
e900305f
7180100f
1d8018fb
b89f9030
027d22f3
9a004048
3ffff006
08780d70
f24fa7a4
ab6c6bf7
bdffffb1
c0335b24
fb7c60bf
80f0420d
63c041b7
36f87f4b
01f01ef8
1b0fe880
b0ffee08
89e05a41
2cf0360f
041bfeff
ffdac26b
03fdffdb
3f780001
6febc800
37d0011e
db5913db
93ffc393
ffd8326c
fa03fe34
fe3ff202
3c9f8013
c00d824f
0000003b
f84f7800
ff00002e
0ffd03ff
90643fbd
16d3ffbb
5d3dbed0
9625e903
3ffff1a6
01fffffe
1ec007fc
385a7204
ed07fff7
fb903dfe
ff8409c6
743ec07e
1df80123
c6793078
6ffc1397
8007e000
b4f280ec
fff9017f
1e7ffdfd
061c01b2
8027ff7c
6fdfdfff
c01dfdb8
cd797d72
0106c4e6
e0e7fbf2
6926fc01
5b323902
37fe41ef
041f26f0
f66df7e4
400b0f57
6e00f80c
0ffff882
6f000020
a966efff
7800023f
006c0040
d044e678
a0000097
37e10fff
f5340001
f05ea09b
3c0074ff
7ff80000
da83fcfb
0ffdb7db
b01fc079
5000cb82
ffec00c2
0000f3ed
e981bf82
fb37ffff
8feed841
47c0105e
ff2057c0
dbf63f4f
67ff3fff
0bfffd83
01776301
14800364
00000982
20027fa0
1dd9c01c
a003f7bf
41a8faf9
004df900
fdfe76c8
3aedd207
0000a3fc
ef537960
f0267421
9b65c004
8703efcb
8038800f
239fb0ff
92fffdff
00170bf1
8171c000
27ff0402
c166ff91
08490061
00412400
2006ddf1
6f6e4800
3b2faf6f
3dd70004
0db40114
f7907ffd
f9fcda0f
0b7fffff
3eddb604
7ff7e251
838f2500
d28fc0fe
b0fbafdf
c2700565
d0ffcdd9
0007d9ed
387fe331
0811b1ee
1d828240
000041fc
3ffbffc0
ffdff2b6
ff401e43
66ffa3ef
ffb83a00
327f89ef
201e0094
ffcf77f2
fe7e1822
c0120fc5
fe0025cf
c8e40463
b49b58fe
69258410
e832c012
da03f7fa
bfa69db2
443e49e7
74084d80
f4040052
13f101ff
e4b796f8
f1093c37
965028e0
5fbd6fff
10c3f5f6
6ed3cbe0
c6cd8121
01230581
420ffe9c
275f9252
093001ab
d266b6e0
fbfec1fd
8c073f00
fc6cc3ff
3fe4beff
4202581c
f6082ad8
e7fe7fcd
10313849
000004e4
007c01b8
6d3f1ed0
fc1fa6da
1fac1f47
0a205fd0
c106c4d8
f8ac813f
0f7a477f
007e7fdf
fffb4bb6
80001941
51ff06db
df048694
21f8db21
8591a36c
c0e7bbe4
00280000
9a6c9800
0c8481b6
0200010f
83be079c
f79e8ff0
4de06c53
fe564ee2
002f8cf6
6930492e
0024dbfb
bede41f9
a1dbb7f9
ff6fe0ff
000bfc07
406e9326
2009cf5e
27607dd9
f4d9a66d
23ffefff
801f7fc0
7673217d
f9013c98
34e00fff
ffbf0f80
33f004c3
d9f51242
393fd3d3
e02a7910
06da31db
f186a05b
f848311b
2fe4f73e
25d0938c
9a01bfff
59f69e00
4848437f
0c4dc932
8504bfbf
80009fad
bfd01524
40dc9678
f6491b97
e00fccc3
db068900
97dff80a
2dffff24
405efe03
3fcf1cfe
3c9248fd
7ec04249
7c20e789
2df2d921
fff04ff9
c901f7bf
dba485c6
7ff89386
20882079
fc01fafe
99e49f4f
ee491900
80603925
ff179fe0
fff821b7
1053c92c
07fd6000
85c6de89
2c05ff41
f6e16f4f
2000f4fe
e8f5b890
f9b39357
40061269
0dc96802
39436dff
7bbde00d
03bffffc
9ffff002
417d507d
fff0b3c0
08e97fe7
02c8015a
c801f653
404944cd
0d81fff0
00509800
37fff980
000624fe
ffda7bfc
ff007ff0
6f800001
6f802cf2
033c3e0b
0ec17e95
800fd060
b7fefff8
013f1fa6
fefbfa60
ef1be83f
f6480001
00103654
dd8141bf
8110dcdf
03fff7ff
1360b9f0
00076d8e
324ffbfe
f9ffffff
7ffc802f
247fe400
2feb81ef
00bf844e
03fdf890
205a3006
0440dbe0
8037a750
faa00fbf
f03ff07f
00fa43e3
a70381c9
89c7e371
fc07ff03
e01f4fe0
81ffa5f7
ddfbdf13
c1e07a07
67a7f800
fd8eff1d
601c7f37
f200bf81
6decc01f
07e27fff
603ff852
e3b808ff
87e2f833
91e7f7f0
3ff640be
d403c802
7804c0ff
5c79f8fc
47f681a1
49e91fbf
ffc1f80f
3fbdf827
f038a47e
def03403
46dffa00
b6ff2d9e
bb833d04
e4c3f7fa
49b67fef
802cf983
b4ff9078
4026c24d
ff81b760
031b6dff
699d64f0
0002d900
24cccba0
69db67e8
3ff24896
b6920bfb
f007fa49
6fe53bff
05246c26
b200fa69
9d36006c
c3edbebc
ecff764d
0dfffc83
9f037e00
6b7880fd
6037c102
04021100
69ac9b72
0049fee4
0be0f7b0
485b3380
7ff25ab6
ff07fffb
901f649f
ed81982d
4ce637fb
26ff0c88
2c80d0c8
01137640
db891f31
f9e92723
c9267208
8ece4760
264fc89c
41152637
4ffc827e
13b3e602
7b1fb248
e7c4dd93
1bfa27ef
34f3567e
03680c13
df89efe8
cc980c23
efe53bbe
d9801bb8
f40909b0
8840e4c9
249d7b61
279b97fb
b9b4836f
717ed337
706c81bf
81e4fd46
3148ccec
09207673
7727e678
dd91b37a
3611a00f
fda5fff1
dd84481b
7ffdb7f6
7fc7fb77
04cfec90
817e0800
53df1381
1e75932f
5f182d80
6b48c39e
403f3a2e
8017f278
91defb64
0060fa7f
fbecb2f8
01fd0037
fffffffc
497f8006
f0016e61
7f8000ff
0243fec1
07ff1260
bebe49dc
3ffffdff
00070786
dfe907e4
f7dfb7f6
7ffdb791
ad85241e
0083601f
93ff7f61
4fe443fe
0b84b01b
4dc1834c
e019f09c
a0ff803f
7ffec32d
fc7fffb0
ffe671bc
36c8040d
649e34c2
e37bf033
4c4989ce
c0090f60
00ffb036
4021266d
8059c000
24dd9617
66fdf379
924804fb
013fbecc
93a7781f
20fdb019
f3ed901b
f137ff69
05c9497b
449bff22
0ff64930
d820d8a4
e4ffa4db
f732f6ef
02698681
13dffa48
6cdfe267
0a320803
23f69366
4de6edc1
4be7d976
7bd37326
7fb69332
99bf27ff
db03fe48
fede4001
824d177b
389f81fa
ffe6fbb0
9827c96d
e681e9fc
1204dbc3
e0503f44
3703fff6
1204900c
fc73c4e0
079c1004
2d9925ff
2ff0107c
049f51a0
4c9327b6
6ff6de92
10d20981
f90db010
7a0d9be3
030c003f
82c1fff3
000fe809
8b7ff5b0
6019fb85
7d6d3043
2613fd39
f021667e
d9dfc14e
4fa3e628
89bf12ff
8277cbe8
3fc36b07
4074ecda
637fc81f
03079bfb
1207627e
f476c020
16c01e46
02449fff
fc6000e0
41f02960
400741fe
7ff12092
01781100
d1907e2e
000e41c1
f8fc1f90
ebfe5f8f
ffc40037
84eec079
09f87f81
c00000a0
02e06fdb
3e81207e
04efd013
c7fc91ff
0fc4492e
0261fc01
40740d88
461f03f6
2c020002
48ec9fc9
6007cb80
db3bc00f
f0104e1f
c9e5ad0b
d7c4c81f
3f83bf23
4f3fe808
007fec2c
11001490
e000ffc1
0f90bd1f
7f17d006
04989240
24402680
0903bff3
89f00049
1ff6487c
09fd0088
027f67fe
ffff40df
24fd81b7
48228df0
21f79113
40202068
fec8ff12
df81b803
03ffd006
eff80008
2effc4fb
fedc00d9
7fc0db7f
ec401770
604001a4
703003ff
eb200020
1bec819b
c0b80036
810001a2
b4ffcdbf
fffffd6d
63f4cfff
f80996eb
7fff281f
ce8fcf6f
1b000031
90079d00
ddb01a0d
f927b632
6dc0e2fe
81de4842
d11ff069
eec813cd
0f68276f
001bc980
09806580
087fc030
9ff892dc
9276f649
ca49d8fd
793d36ce
b7601376
d243a483
35242fc0
6db4277c
b832449e
0e8a501c
7d80864e
ec00d8dc
848261fb
41b0e999
124d4040
60fb923e
4fe00034
ff8bb7c9
bbac0188
903aa972
01b727d0
f68c03cc
0680107c
3a64877e
d96f8b80
f6409809
1ac03f64
5a83c000
51cbe07e
ecdfcfef
891e0ff1
001d8c65
1c7005fc
3cc0275f
a8001f70
680e92d9
bff100dc
0003ff81
c801c400
dbf656c6
0ffc9837
c40bb87c
0dfff640
c0220c48
7c7f8eff
04d000e8
80c00501
fbfe075d
3ffbf007
163067b6
37f84600
f0e07dbf
c686dc01
efe8031d
780ad6ff
ac3fe1f1
fd9e05b3
af1c003b
0fff9981
1f818680
e0e41bf4
dffee373
c017f47f
79cdb2e7
ffc6e3ff
f00fff8d
dc1fef33
f8279301
9b811e2f
480085a8
1f8003e8
e0351b21
83f007e6
3b00ff44
03e1e16e
1ff372c0
95bb13be
66cdf808
cae45ee0
d8065b08
fe7fe0df
159301cc
ffdede60
97fe4013
2ff3f93f
0000fcff
c040f7e0
e4ffdfd3
6e248002
7d85b756
1803123e
ff3fe130
03921383
dd1e8080
91f8c04e
1ffd256c
fff600f0
f007b3ff
964d24ff
4893f1ff
3ff37ff0
f7256792
199fe107
f224db69
e20db327
4bdbfffd
0fc16048
48021fc2
4fffc950
7feb67ca
8bd0a4fa
06f3f960
00169bb6
43449fba
ff000f1b
64027100
69503efb
6cfce16f
36449361
0401e04f
fefff121
6d3764fd
7b720707
04108a43
46d8a424
24cf9b70
df6c2000
315b258a
05d39082
3f7c6040
00670004
2ffff968
fe6dff84
7027fffe
11001b69
b73c00be
83d4049e
fc9a056c
6616df3f
81ed2473
328c01e4
ff000439
9bf81001
6480d7c4
5cdbf3b6
cec31376
fc93c31f
e7408ffb
fe00da3b
da6ef8f3
cdff2c3a
004002df
81c030e0
480041b4
efff1ffa
9c01ffff
bc8fff27
be690ced
d86007b4
b70029f2
ff7b7c01
64677ffe
0ffc0007
6d805f86
35017b5d
4369fe59
f600b492
01000103
00eff671
02404440
4b524000
c6c8dff0
500374fd
6e81c402
c31fffb0
fa00eeff
600ffdb7
09fa0212
00900000
4b8c2480
b0ec83f7
16001909
fe2c27fd
c93372fa
0337007f
e00db720
fbe42fe4
9dfbdc09
3df24005
bd9a2058
81101f51
6092cf53
66e80fd7
4e342cb2
fb2fc04c
d0ec7fe7
2ed001ff
24ed12ea
301c0e02
967ff30b
03d306db
c28c8fc2
61bf486d
fe9c07ed
f8edeffc
813cdb41
9fec3ff2
db4067ef
9b7013f5
fc12a73f
40e18ff1
ec108182
f00f7f81
00ffa01b
7e01027e
24d3f8fb
ff0c2a18
f1f12d9d
07e840bc
3f4002cf
0180cbfc
c4001f75
ff1e7d83
8c02bbfe
007fc30d
17fc033f
4fff8005
0f013424
7ffe71f8
01ebff4a
1c0a9f00
0bfff948
9006c006
f392033f
f16fe9ff
f0ff2449
bf6801df
11f700e0
01db83fc
978ff800
0b003600
d107f300
e0734ff6
8013fe47
000005fa
015dc000
ff7c0a4d
81ffe07f
a0083817
0000493f
48388048
036dbbdb
ffefdfd3
b3641809
0041ffbf
3ff4f000
ffb79274
780ffee7
80ff9003
5007fc00
e77ffbfe
edbc0449
b648978d
7fcfb7d3
400386df
ec00ff93
100fb093
54e4f200
0807fd85
604d801b
fc40fec8
b659300f
dbff24a4
437ffd26
9adfc007
7ff495d2
c0202900
0df93f6d
e90c00ec
9fde4320
4d8bebfd
25fe5892
8b3a46e1
96dbffff
2109b36e
c900111b
f93b6c0d
94f4581f
df6e90de
9316fb43
9043b724
fffef64e
1006623e
d00fbbbd
6be8cdde
497fde49
3fb259d8
4fd048dd
92400400
dc48db9f
26936e67
b7fe2dfb
ffc90c91
b412343f
4d202c01
ffc10099
5fe59249
b232f84a
2ffe407c
24dbb319
f224bdc8
cfffc49b
beff803e
7ffbf409
fe090ff2
cf62b2ff
c1fffa62
d006406e
76c1af7f
000301f9
6fb0ffff
f625ffcb
f2defc90
65ff8b8f
23fc7b36
a25be4bf
23fec1ff
c0ffef61
ba5b2407
0106097f
07f23ff6
16d809be
91803380
07f00a0a
90017994
0bfbff05
0bfbfd20
efc7ee89
6090016f
5f05b3fb
e1901b90
f86f0924
6c875a01
96f0c0fe
918a0065
c9c03f27
fa0bfe72
e1e9903f
0b01805f
1ff9fc9e
2c93f400
58036fb2
f0792903
7fffeb6f
bfffff01
4009bd97
20225036
00007a40
0c07ff80
ff8f7e9f
48013e3f
7ecb3fb0
f7815d00
d81fb007
69446841
bf60c37d
ef00c03f
09ff7db1
003fc814
07e3010b
a0340008
03fe01bf
fffcf1fb
bfff8001
7c9f3fc3
1ffb7221
9e020600
10bebff2
81f1bfff
003446de
3f7e0000
3c9c004e
3fbf1fec
e49297d8
ffd87fff
67fc03ff
600ffd7f
7847f6ff
73f883f2
e47fffe4
8f4bf10f
313f1301
0009b77c
130169b9
9e07a3ba
e41db4bf
2c201e3f
3200dccf
03d9d994
e73c81f8
8143007d
9fc87fd3
061f8bc5
d607dd8e
77b6297e
ffffd0dc
b7fb199f
7b6fd96b
3f9e7030
0000e0f0
fc498720
3cc0184b
113ef490
9f9e66e4
440381ff
9139601a
03f637e0
ee1f8120
85c003f7
1e1ec400
1f7f00c0
fca716ea
c3640f9d
5a9c01ef
ffff0408
7c6fff24
80c102ff
4bf2e800
e0400102
7f9876cf
f26fca5f
001f9046
db7fa130
001de046
0cbe0000
3f148000
f4d0fef0
fb0fff03
27ffe17f
f0819502
096c39e3
031c0036
7fc1bff0
db7049fc
67fc9f86
7f4807ef
0065f904
fef017d4
fcbb7c01
27fcc117
dffc21ff
7fe3e9f9
fd6fff00
003ff0df
81a4bf94
ff8fff68
00ffdfbf
900023fe
307bfd3d
7ee30000
8807e5fa
7dbcd417
c03a0fb8
f8013fb7
c31ff8bf
00ff4ff6
ed000380
f949be9b
5fa06fe0
b926fe00
d740d77d
0322f003
61f625e4
7c054e67
3624f017
49bffc01
d836035f
a1ba00c0
7e02080d
87fe21c2
f3f27f7d
fe4dff82
ff8ffc91
c0fa007f
0c00bb5f
2fb6a67b
78009ec0
b03e1bc2
67fe18ff
809e8116
83dec4c1
f7f05ff3
f6fb7bb7
f0f91bf9
904c01bd
26802fff
ac0bffb1
03ccee00
07f40786
f3c8dff4
c60f81ff
001fbf76
71ba006e
5ff208ad
cbd3d3e0
6fd7e064
fc3e8621
c0e0d000
0e06b025
0479787c
efe07f3f
01fef7ab
52fe7d1a
07fc91e4
e02c9600
e4bf40c3
07e07fc7
643fac5a
e3e178fe
2fdff580
5f3b61fe
fffa64f8
b60d8000
f804fd2f
7fe1f01f
c5c36ddb
3a3f5f83
fbf1f8dd
0483f947
f03ed779
008c3013
3bc00c30
7f44dfe1
3c3abf1b
00fbf000
92077492
6088077f
03e40100
2d87f826
d0493b80
0300fe28
f0769ff0
3fec40e6
c0a0303e
7f00282f
1ff0017f
00240006
8f7cec00
fcb7df1c
bf63414f
7a220005
023e5b90
c6507ff9
a5bfe08c
1d8d3801
0f003e60
3fc0007f
ffe784c0
02df93c9
00ff3880
bc49f86c
01ee813c
fff5dbcd
67fedc03
7f107783
70e7e3d1
fc6e69b2
37e86ffa
91801b70
1c0796d0
3ee09c20
ffffc348
7ffc0412
ff001143
6178839f
00ba0133
aafd00fa
66fff01f
343bb310
03f607f9
36d96109
048f44d0
02fc849c
04000169
05764570
0fffed8b
2f890fd7
250c04e0
b87a5699
69d91300
df8fe003
4b014c04
d2fffc02
93368904
b83740ff
66c13c0d
dfe5dffb
29f3b78f
0049fbf8
1b7f0008
80fbc4fc
0dbcc1ad
e803c09c
1002d90f
0de41b62
fc041ffa
09e91801
1764c81f
2db80600
04081000
9807fc36
092c26df
b03c0c1b
f6fca40f
59a0005b
26fe81b8
ed40fddb
0a2085bd
33cc8000
01740820
10ffdff8
07e3ffff
00f6e1b6
03e50760
c0df6088
e0441cf7
0c8eec03
dbe0ff54
f007fe0c
dfbd03e0
f01be03f
7fe37907
fb00f43c
24fbbff7
5f5b0148
5f8e7e82
9a00a500
8203e3f2
f00025ff
f003df67
7ff40528
07d1fff9
003ff450
00306000
121007dc
00006813
2fd81802
01410b6b
0000feff
92fa1ff9
ff6dfefc
e4db0021
4fc0006b
adfa6604
33887fbf
8d27502e
ff925f9f
ff7f9009
7dc003f9
03804ffb
7ff20000
001b0012
1ffc4f40
efe07fe0
b3fac881
4043c0c9
805c09ff
80dde009
ec90be1f
893f9d87
00ff4069
1affc800
7ffb648d
50981ff0
f7803b14
d88f9240
8bdfaffd
0365216f
e01a49b8
0fc9df8e
e402c11c
8503ff3f
b43803ef
002a189f
c8f9b2b7
c9b31b69
de6d4b3f
001e0e0f
e1939b60
a04df003
3d1c2807
64fffc2e
b6ffd75b
61e349fe
3ffec40d
ffe800dc
864031c3
5e07e49d
7a02281c
468fc9f8
031daffe
ee197808
d00c0e48
cdb80300
28b03b35
7fe841f0
1ece2f90
fa503eed
dc5109c0
b0184fe8
04a83ffd
18820c20
fff9e000
1c01ffef
3bfe8900
fa073ef0
8860821f
07fffec1
00000248
000f0060
0003ff7f
5e27f200
006f4112
c0fef5b8
165fde11
ed9ff97c
b4e20007
ffdf9c41
fe044017
ec83fe0b
7fc04b61
cbfe02ec
021ffffe
9a0074b2
6f9ff80b
ecfcff8b
cfc09821
67fb1bfc
04d3edff
8037ec30
1e48bfff
d2201fb8
fffffdef
9fcec17f
f8fff77f
fff8e3b3
647ffffc
0f366f3e
05c22039
ac97c6e4
cf56cfcd
900ee47f
0229dcd7
80df0038
0d846761
fbf57ff3
8f205bfa
f000e585
ff64c0fe
40203607
7322600c
cfc02004
05647fd0
f9cfdf7c
93fa58ff
07fc01fb
41244001
01360018
c6e27ed9
0215f0b7
3f7584d8
fc121200
422303e7
006e809b
6901f204
003f417e
0796c61b
2ecc9020
f3ffe084
e7fc013b
df8236f7
f2f8cb37
dd6dc0a6
2720217f
00003ff0
e087ff00
151b8007
f2010061
0004074b
f0181100
ffefa3ff
0801e0cf
b80c0000
7006f02b
c2709034
3fe01fc7
ae007f90
338ffedf
8f007fdf
40079ff0
003e4169
019cf1d5
7efd9ff0
f801f84d
24e06fe7
01f0b7ac
029bff81
f8007802
8cc7fc01
eef8ff1f
7ffc2806
ffc4dbf3
03ffb0bf
56407798
00affffb
410ff890
80ff8004
6017fc2e
9c0000c0
4ff80c00
ffb00166
3431f8e7
3ddc999b
6e00681f
01001016
00fbc03d
7038003f
fb7016c0
f86683f6
86571d99
7f6c3b1f
c01ece10
01d78205
801df002
f6f0703f
0ffffc0d
978ffdbe
386f7f80
69201ec0
2009f7c0
5f600e47
debfc476
1d801011
03447c38
9e4803fe
014fbb14
e4a7fbf8
8243f00f
1fb13820
0047bbf2
ff806bc0
e0001f43
4be07023
9ffb7248
652200e4
1b7c9e20
7fc4fa73
2b882e00
007f0271
9e7f93cc
f3b2fe07
1f5381c1
7258001e
7fda6c00
787c0148
31289e8a
4ffec8ff
0903624f
01ff1be9
9ff0a7e4
09240264
9905e480
d201140c
dec39606
49009ff6
3dfe0200
c50cb141
01ffdf85
1204392e
e8ffec38
6ff800aa
bfdf0b60
000041e0
09f7dc40
7c0fff01
7fcb6bff
405804fe
fffdb2bc
c82fa537
4002001e
086f7de2
610013b6
1fc1ef6e
7db3a5db
9a2dd083
22d064b6
200ff483
809096c1
4da47608
df96faff
bc91b049
c19dfdb9
936fff3d
748dbe06
6f202440
7afe06ff
d67c7819
405fffe1
0d12403f
006db649
0264c200
20464222
e097e6df
f7259213
658976db
c89ff603
26d7fdbd
d3126cfa
373f6c1b
00249fed
7aecdbd2
b91241ff
78379049
dff9b613
ddf435b4
d6689013
9a4d89be
9843fbff
7fc6f016
c000d0c0
f784fec4
90e901ff
1ffbfffd
48f74fd8
bff6e38a
1b48379f
0720fcd2
090067ff
e36050e8
77f0764e
f10607f0
e641dbfc
5bb7ffe9
1b580270
0fb675e4
25dc1a08
d21b16c0
fffc095f
ff404041
0680bc91
384d82e0
ff7ff820
02f80005
258f86df
003fd9f7
b03f0000
2ffe26e4
c00c91bc
fffff84f
c3ffc1ff
d6058d32
bffffe6e
ffe0000f
05a3f007
fee90800
43c1ffb2
fa1cf007
71f90801
0d090090
c0004832
0fe01bf0
dc05c0be
1003900f
0610c7f0
006dcf00
9fec0fc5
0f3c34b4
ecbe78c4
3c187fef
60317801
ff8020ff
803ffe90
be89045f
f3e1e06f
ffffd9a4
4024f902
fefbcf40
d9087dbf
0ffb2c01
8803ffec
282b6817
8412f6f0
80b130af
d201fb90
2067683f
01804a18
ffeecfc2
4ff83c09
4ff03788
317f655f
6dbffe7b
020f7f00
03240f06
36dff778
3fd5237c
00006bd0
f0fb6c82
067fbc1f
fcdd23bc
022fffcb
0097b600
fff06003
1264ac7f
c94db17c
4bed5fbe
007901fa
f4003680
ffd2ba49
7f001c86
476fd9bf
02c24bb6
a2766fa8
ede04802
8800603f
efc83a03
ffc00127
5b2080c0
0037cc96
9c0e462c
8400909b
16a44d99
d776f920
f4ff8006
7ff893c9
7a1227f3
c7bc0084
ebbfe206
a48fe7fd
bf1efff8
b7fd7bff
f005c1f7
00b5fdc9
f2588176
248ac73f
c8189096
0f021fff
f4b30794
06ff4b78
9e01338e
6cffafe1
69fe57c1
fffffcde
49ed08fb
3c9800ba
97c1fbf1
7765e0a6
c41f0f05
fe292c05
fc6cd03f
ff006dff
d9bdfc13
0841196c
1ffdb2db
8500149a
2600fbe0
d2000fc1
f1beec80
3bfa3b43
48fff27b
8ff9bf75
6b922020
2f207fc7
9fc0e302
fc0fff23
ef139120
7fff1109
c00601db
050f1100
426013b2
0c000644
0817db95
6bbed301
008000d0
c0e6efb0
0fa6ec17
004fc014
6fdae1a3
66879f81
8a4e60a3
44e391d9
05fb30fb
826ff0c0
bbff9f9e
6df80663
fb83e912
2e030fc0
d807e7ce
07741dbc
384d8027
c1c03fb2
5b95f6b4
6733ff41
76d9fc74
827e009f
fbf88db9
2dd72625
e07fc0fb
47fc37f0
a5c0404e
000007f7
0704b9f8
0dfb0324
bfff82e0
c000010b
ffff809d
2590753a
288ff07f
241045f0
839fff00
201f0f7c
c3c905ba
941ffc83
f9fffec6
30b002bf
09040572
781ffc40
b7c8a00a
f760d0e7
ee13feff
7e68073b
7ff9ed27
590045c0
d2ffffd0
0a3ecffc
793475ff
ac0dfef1
a7ee4fa7
603bd55d
f84827ff
c12ff803
d9e36eff
83c03d77
fff01019
e7e1802f
3227180f
e7f77f20
f807b19f
a7d8407f
20418811
40034001
0e86ffc1
fffeff9f
380003bf
40ff9fb8
0380ffaa
bb13eb47
f3ff2405
0b000bcf
27a07fff
ffdefe91
dfcdc7ff
061fffb0
01e013f6
03e1f700
cfe08fc7
e1c11001
e3740763
e9ec81ff
be9fe401
13006800
f82f6c9f
80c6fec1
21ff7fb7
3d207403
3e078033
c28ebfe1
08bcb2c0
0e481fb0
01ffc019
38836de7
027b1659
f00adf03
f01402d6
0136ec37
000fd602
a0fdf220
0d075a41
00499fe0
f003e130
c006e0b1
2c001b57
bed05d80
20fcec7d
2d96be9d
b6db3ff9
f0035791
7f89bbff
000fed20
3ef41c10
8001b608
9fedfd04
f84fe4ec
32f2c743
5b98f8ff
10001008
fc36d312
f7bdb207
e800efc3
6c69e05a
096179b3
480781fc
000edb7e
200016e0
f07b7ff0
2d803503
841b77f8
800370b9
db83f413
c60442fa
8017a4fa
10a6ffe4
b6eeb078
a926c829
9df41f23
07d80be2
6c026f8c
b16c8404
3fd33130
ffc8efff
3f49c3fd
070076e8
144e8e4d
fc0fb4dc
fb270014
85c0df71
1c90df0c
1b2b4abe
dbb81b70
cf87fcdb
f4247dff
4fe087af
837704e3
189c7e1b
810fdcff
1c83d7ff
e6d80e0c
71785b6f
97afe4f7
78907236
000b2191
fc6c0060
f80ff600
cf3ffff3
6d5fc613
7b5a4dff
ffe8ffc9
e1200126
ff07e5bf
108463ed
ff819a1b
0d140136
fb841a48
a26dffff
001b2059
ffafdb92
ec0ff803
00000034
bffbfc7e
e07fa3e7
bc9c007e
ffc6ffff
1f41fb9a
80120000
ffdcecb3
f24fb0ff
00327ffd
ec26dbfe
ff840dbf
fffd11fb
ff3b2a7b
64200327
fffe0dd4
00d00376
f40fffe2
6ffb80ff
d986dd01
b2002de4
212e6a7f
f96cd361
936c5f24
853f70ec
011b0005
1ef2781c
00107fc9
b6dccdb9
65edff2d
fb6e4fb7
b6086c83
6dfbd2f7
db7b48c3
fe01f6a6
8d920766
bf9ccfe7
26d890b7
d2308482
07dbffb8
411d3776
dbdbfd21
092df12c
00d85b89
048fcb64
cc200130
3fb97d01
64fbfd2c
0df87700
32485260
642d2420
b44c9da9
ac4b2cb5
0043d090
ec0f819a
02c913db
253f24c0
e8bfc169
d3fffbf6
f85f7cbf
b81bf00f
01ddff8d
1ffff97c
bf9bcfc0
2e00820d
481304c0
d1ff813c
3009ff46
02604900
3a467bff
01088f77
7ffd3ffc
400befc7
703800c0
f8003ef0
2f174042
afe49c66
9bf7c86c
3fd7ffb8
01c0e0e1
e4000002
34fbed56
ff780021
fd8dcb7c
cffe0012
407c2002
0bf14fa0
3f1f05d7
01b8ed72
e47fffec
047f8dfb
d2033342
fc7bc7fd
381f7f24
7fc3e010
65fffffe
3fff0003
da1f7ffd
ff6477ef
03fb05d8
b83f004e
ff81dfc1
dffc7eb0
bfb6ff4a
e00600d1
c027ffcb
0006fb02
fa01bff4
ef24f247
6fd807e1
31fe1f80
2ff0054b
57c4bbe0
1c26d944
77d3f258
b5bffddf
509038df
1e807e52
413fec2c
00edbb12
ffe3f001
92f90106
3fcf80f7
038cf018
b3fe6f80
e2ffec13
feffff26
cffff02f
f86fc1ff
f17fff67
efbffff7
21bf7701
83600d80
322fc87d
0af007ff
4b280988
325fec06
00291004
f87da1fc
f23edb0b
00ff80ff
dbfb62d8
b60dec36
db0bb024
db6dffde
02f80c26
907c1e98
dfd01049
ed091c92
677e7b9b
0be04981
9e46fa7f
2004000f
00f46901
88811ff0
ffd2043f
ff22b600
703e85a6
2bfe064f
e61819fc
97a00fff
fc874b60
9053801b
ddf82000
da0037e3
904fefe0
7fe63fb0
ff245905
3fed92e0
fa494f0a
3ff9c6b1
43024dc9
26dc01d2
2fcdc8c1
336f6a55
b6c4c4b9
049e40be
f33742ff
2401247f
ed8747f4
977f9437
000001fe
6df6c801
0fa1be5b
77db7c09
fc0059ff
e37060fb
1ea0d836
201e0b6c
daea7034
b649400e
2cdd9f64
07ec3fff
b6fb6348
dd6d2741
03edbd7e
00c0deff
0c0ec118
ff6c0080
6ed6824d
24803fe4
813c01ff
ffc01c0e
1796006f
001fbf40
687d6872
0082fcf8
36007c00
71bca986
637031fe
2203ffdb
86b81fbd
e77ff8ff
c000003f
01f0002f
c01ff800
006f0030
8407fe7e
f4ffcd8c
97237e5b
5fc1e001
ffb02703
fcd27ffb
7fff5605
1e82485d
78004fc0
7b1adff3
91f3c003
207f73b7
1080c048
e100ff48
b8e5bfa6
0a00038d
f201fe00
6f00142f
aa000240
34e03fff
0f6f6c30
7fc2fc9e
e1df4ad9
f6edfe5f
7ecde4b7
4006fbef
b0df80e0
5824826d
db4d8411
dc029057
06eff240
db65d013
080db206
40c1000c
3f42cde0
0b6d8059
f01ffd2c
005db7ff
c3db7f04
6da485fd
fffe00a0
f497f24f
02bf13c9
c06cb6d9
44ffb306
6bffe764
67b52412
d90203b0
602480b6
ff6e0100
301b457e
7c161000
ed99b36e
6efff6ff
b3fcfa2e
9205dfe5
bb03f226
0da8d20d
006e1780
41bf4e00
07fdffff
bbf60006
c8234100
00100000
ffe916cd
d97f71ff
857cdfbf
f803fbdb
c6a2f007
01f7ec7e
c00ff80c
caa005bf
6e484401
1f803003
fe415c4b
0700000f
07bb21fc
c2c05ffa
91ff37be
3ff25803
40038c7f
e0f803b0
098d811b
58c2b1f8
80c0ff80
bffee0fe
00c0187f
f3ff0080
020ed3ff
fbff907e
bed05ccd
ff73c7fd
00bdbff9
e000004f
1381ff43
00990cb8
ef90886c
98ca0603
26130020
71f9ec02
03f4bfc0
b80341f8
fe38f097
fd0e805f
d8000007
0000ff81
0001f800
37ef0036
0001977e
007f76db
97e7eded
003ce005
f800ff08
ffe00fdf
01ff0bf9
37f26818
d0c207c0
7ffbbfc9
53dec002
b81e6100
fbaff2fc
de4fb71b
24f6f65c
41d93784
e40dfc83
fa930037
800123f7
7c61ff9f
8019df59
10741d99
9031df52
04ff96e5
29b60ab2
fef85c00
04d349d0
6030024e
052417e3
203f0049
f3d800b4
fc485b21
3fee0127
81ff05d8
1f764890
24ff7fd8
f4008000
ef803fff
ff640927
32c0dfff
9d01a6c8
1b7d7080
7c9b6590
1c75b813
ff67b6cc
d6f8804c
007fc04c
07bec024
03d91a09
9b93e676
03e5fdb6
485b9b72
9ffecd9a
2200eda4
01273e0e
24ed0024
d007f008
bfdbefb2
d3bf6501
359f70a7
97d4dfa6
c005b16d
2297ffd3
903883ac
6d422494
4ffb49b6
0b0bfbe2
001fe880
049dab43
4887c869
1365b82c
6e9c057b
605fbe02
7b001abb
277bf424
3fb6d070
e5ff405d
bafdf901
495826f3
fb73036c
f60fcac3
66d96423
6d859ff2
4c480000
4809baf6
68b33f94
7e5a03d8
62108046
7b72da7e
fc2cedc0
f24e796e
1280bb2d
24d3fc08
801fe240
da4d2024
b41d4ffe
49b6994f
40428483
b04db65f
024ed8a5
24cdfbf0
5bc3fd2e
92195c90
6c93c52d
a4042d23
4d7963ed
f9f67ecb
3d9a292d
604ff493
ffa02dfb
a9b792d8
7b5b3369
91bfe124
8fefbd06
7e49133b
adffc9a7
dc2079af
6f6da513
ecb7c903
5a0037b0
3c049db2
2481db04
18181818
7c480480
7042cb22
68006d00
0ec96df7
2f94c814
fbfc00cb
058f401e
644800fd
1b326823
6e000069
13719883
4900735f
82480c92
d8790084
3fe421a4
8458f3ff
cbd9f3db
4075bf04
b1260048
0107b6d8
04ecb030
00204b6c
00407a40
801c00f9
7f3b600f
c42bff69
c043fdb2
54a6a7b6
44b3c823
10090064
a0000182
0045201d
fe80b1fd
804fe067
2fbfff2f
3fe4997c
fe016080
e007f813
37102c0b
f1806000
2c092265
93f0bf85
6ff6fa34
f1bf054b
d81afd87
be4d9fb7
f0cd03fc
3e136dc4
b00023dc
db3301ad
0c849044
37fa7a44
00204124
c13fd7e8
82039212
734fb830
077f804f
f4fbc0cc
fa126cba
9fe7cd68
ffe68052
ffff41ab
b4ffeafe
022625cd
f0f147fc
a4587acf
4d37ec01
ec0bbfcc
dc80d620
cb337834
0902f6bd
f6001cf0
07248002
fbfc00dc
2cbfc19f
bffffe4f
2279367b
d84bd840
97e9fbf2
f817c465
848c1d3e
b22409f9
4a43dc24
08e6e5e1
82ded800
64a13f90
876a4a04
81802dff
25f52dfe
3fdf69a1
6cfbe77e
7ffeddae
189249b4
100efc3e
f7013fe1
16187e16
87c15e19
01ffb809
f95ff7b0
64c9ea03
2df7c163
f705fdb8
72089d30
25fb4b6e
46def81f
8da3d018
e3000bf5
5b61bcce
c8006878
3bfa415f
4b0483ff
b20459f6
f3b75360
609bfd48
003dfede
0001f810
ffdff924
6de7dfed
1b81f964
f60bf3c4
6030804d
5b240020
809bf6c0
6d89e346
3c093f00
00145f92
000ff28d
63f048d8
1a507ad9
f0010365
be4dbf3f
39e7fe12
8fc1e417
f8fec000
003997df
415f11e0
c7f2f848
9817ff80
e927f793
ed7b405b
00004290
ed928090
dad3bf15
79600fa6
687fd91e
3fc58004
b4936ddf
5db81c1f
7fc93bba
47bf7f40
0009f6fb
23fc10bc
0b7b68f8
5fff2fc1
e000f817
5f1b9ffb
51ffefbe
0ffc92fe
804bdf86
4b881246
9813ff03
383ed3fe
f3ffff81
00017a43
40ec8108
fdbf9c4f
03643f11
7ff80190
80083fff
bc0fb813
13578fff
ffff08b2
fff4812d
cd030c7f
4df927ff
087fc060
edfd3600
9000160e
026ec9a0
c2080a41
f0101f9a
f5f082d9
bff58abf
7fffffa1
6fffb87b
004390bc
73c04202
5fe92802
c1fd900a
996f2dce
0d42ffd0
120b01c0
4db59ec0
010b84fa
34801ec9
17c0ff99
8349ffda
5cd491f6
bfa04491
7cbbdffc
36ff82b7
98041200
203fd37c
07e4764b
f2017f81
f45f202d
c01bf0bb
69a7a402
124e7402
db25fe18
67c7f820
75edc3e0
c3fe6040
017c206d
509a3612
997c0038
4e43107f
0cff902c
fb0c2ffe
f9004406
9b803803
ab5389ff
ffc00ffb
22dfdf2c
c7d4f86d
f16d04fb
dc903fb4
00fb894b
16dffc00
0d0d9fe9
9043ffcf
2fc16cec
0130b000
00347000
fe04c296
ffc05fef
ff207de1
0d2c9475
4c0cafe4
b7fc00d8
800017c5
000bf817
85ff0b28
b21f0297
d4f9f04b
44027e24
efd803ff
487fc00f
4ec00a00
811f5fbb
42eff87c
d8059d02
f0056c4c
f241d003
ff2ad27f
fffc1e3e
f7fd20ed
5dfc0224
f637781f
037f6fff
021f4378
ec129b49
bbf6c007
a7127249
da0b7c90
00241dfa
4f107ffe
0010fffa
ffd282b4
84008007
66050407
7e0ffbf4
ff68103f
000013ff
08000044
85400047
f01b236a
000000ff
3ffff9f8
b37f1400
f7fff8a1
7408727f
fff80420
6fb7fffe
07fde9ff
003ffff0
0ff640ff
06e0024a
01e2ffec
e00ff890
feffcfff
027f6001
286ff810
412c5f20
00081f6e
fc29bf90
2dff9020
1fe8f27c
e22ff0ff
ff8a7002
70781005
00421d22
783c5bd8
d67e9f99
1c4e0013
d8070038
4098e101
139606de
ef34fff8
05307c6f
da014040
3f23e80f
00004522
0400fffc
c00e0e47
edc01970
eb0cc01f
d8940006
ffdfffff
ca04001d
b7bc49ec
82c7ffe4
bff9eecf
fd602f2d
7c208bf2
3b4fdfc2
f8f0683c
80200001
4900281f
f87c4808
fffffab7
f3ff2c0d
e8c7e9c7
1fc0dbff
e21c9f65
391befff
b600006e
0b5fa345
0ff009bf
29bb2e6e
03a040bc
3c17f340
70c90782
7f6007e0
7f604ffb
ebfdd00d
f20480c6
2803093e
7677fffe
dffe101c
c4df8b26
6607e4cf
c06f934f
a637c23e
67640fff
e0e9dd03
d96807f8
fb060035
6c81ff18
500c0e97
70550000
fff0fbec
04efffc7
f0f9ff6e
003fbde4
d96ff2a7
000cfff8
80258002
a60db7f8
925b64ed
1bf019bf
27fa07b0
b0dfeff7
b44e64c4
ff9001ff
78269f8f
40977f10
0be3f0f8
bec9ffd5
7ff1130b
00fd87c6
024f3000
f87d2440
ff580008
ed081ffe
248a0705
36c00fd8
01f0f268
60000000
d8e66d3b
0fe8100e
03b607b1
3fff5f20
7a38006c
108e26da
da090010
dfa0bc7f
f04f3ffe
080df048
80821c00
f3d80080
f81df1af
00193ffb
c04e2f00
ff02fff0
11ff3c83
130c3fff
f8001230
8bf7fda1
603100e6
26dffe4b
71bfb373
fc002900
000013d8
f6692fb8
7fe03a80
e841b5d9
3007fe4d
f40023f0
dc1ff1b2
0000447f
d99082fd
3fe103ff
01ff0154
ffe2c000
28e40580
edf37ffa
fd81c013
0fff0800
703ed500
e000e8ff
ff580607
e180fc7f
8f083017
2083923e
50161a41
ef80041c
6dbcb300
a242100f
2dfa56df
cd8db019
f8d9ffb6
fffd27e4
40db643f
6db36448
2fbbe21b
a771924a
cdb6c1bd
ce4defdf
581b06ce
b6b604f7
05bbd124
496617a0
fda003de
249b5b6d
46dc0120
9024c4b1
3421692c
f7f0034b
6db4fd96
d24db4d3
1bffb27f
965ea24c
ec000966
33ff20c4
13fffb6c
736ccf93
49bc77a3
09b69270
8dbdf7fe
db323ee4
fd849e04
d1ca1d3f
37c36278
add7fff1
8331dd0d
b916033e
b8429b8d
df724001
108c2a04
66c30248
dfb6c86f
83c381c8
5dc6a04e
99a0376e
d93b4d00
961f9357
840df924
f8f07372
f2e20001
fa32f603
24ffd16d
61ada034
e5f3d0c8
81637ed7
00106c6d
62607810
6797b3c1
fcca7fff
6bfa76ec
a6040a09
d209fa7d
417d8032
fec7c7b7
fc3d0007
b3f27cf1
a79bc0cb
6580bbf9
0837f6f3
30c1fe06
0e7f000d
1fb6075c
00f3e0c0
cfa7fec4
9ffe061b
03ecf61c
860c03da
fe5839fc
41706f7f
7ff9148e
fe003c40
3f9bd037
17b0fbb3
1ff007fd
ff000024
1fe80b03
9fcfc009
c7e2b67f
de2fc006
7ddc07f5
ca1c8df8
21ffe207
3f0f2b64
29fc84ff
f07800f2
099985fe
00ff2df8
03ed7c80
13a0b8ff
40e081bd
01ff0076
9ff747fc
fffc85fc
8e37ffe1
24ffc27f
796741df
c03f7ff2
0071d9fe
7f000016
685b0060
1ff1853d
01c87a42
f2a604b0
006feed2
fc001d00
2c3fdbcf
0be80713
bfe6f018
96ee6c7d
a0001ed9
e0fd96f9
0ff00000
40011920
4f904000
780b1012
00010f79
3a1ff100
fea0cb80
1f824323
00c06d7f
00000c28
b372400d
fcbe1fff
80345fef
f1ffcf65
c6000f27
6e20fa7b
838ffdff
c00037fd
f00d87f0
61a83c8f
033491ff
00013fff
03ffff90
c7d36800
31ef0f6d
fef00624
90048fe1
90fa429e
1971c31e
48fc80c6
0ffb7366
00b7b819
3fd67de0
fe99b3fe
01614a61
ff207fc9
71bdb403
237face4
23bf9e06
002deef1
00934013
fcffcfff
33bb018b
9ff93fec
a63fedb4
6037fff7
a8f1471e
c8802000
ffc2949f
0310d903
6ffbe2c0
20060492
3bf080a4
b6208813
712e9cff
53ff3f70
d003de92
57c0136f
3ff1b8b6
1d7fbe09
1bff6488
2301c258
bfec0018
fff8036f
e4ee3fdf
200cfff0
82e6cf9d
fc4beeff
c21b2f37
00480053
cdbee0bc
0718243e
f682fefe
908237f4
f80bfe1d
7e400d7f
bc01fe34
fc1ff26b
09ffeda4
13203412
7b00f1fe
b27ffd20
ffe8b90d
25bd61c0
02db214c
fc00061b
3fe0f06b
7e88f3ec
c0013925
6fa436c0
9fc5e401
4987fcc0
2bbfb724
f2793ff0
c087ed0c
c6d24ff8
717d275b
9f72fa03
0037a03e
048403a0
7c098f2b
c011bf37
6fc1206f
3f6000ec
001c1180
600f92ec
7b63db43
fec003c9
f0048165
a37fc0ae
873c0036
7fc6df70
01bef801
87ec8db0
0107fb9f
7cfffa43
061fff9b
602281ff
e063d74b
46c15230
edbadad2
4371804f
46c40fb0
20365d7e
1f7d801c
0400897b
70f81000
206dfde0
87df2800
007005d0
6993ff90
c01df9a2
f1ff047f
5ff007ff
fa500037
4836c365
184c000a
8103fe1b
ee804000
e401dff7
87c13ff9
4c08d92e
7dfe38db
bfe0009d
f0000a7e
ffc13bff
f7bd6c12
33f61ffd
fc01ff00
300c02af
01ffe788
1fb88081
3d0077ff
2bfb2825
fe500003
4ffffc9a
fc36c342
8201ffff
d6507000
3c00007f
c00fa001
01679236
0f076400
ffa02100
df245c27
003b2097
e3864f00
82134920
c1fbd009
9ffc0367
e910523e
0a057e89
c8100304
5ed98607
cd991a40
020180b7
3feffe40
fe10fe05
3a403803
b7ffaf99
40000001
93ed9ffb
5a103f30
3efd9ff3
d0107f43
80ff9f86
7e006fef
1f71c7e3
a410498b
7927fc01
047fb752
fffff7f3
6da2dd86
61b25ffe
601272d9
33b624b2
13e644d8
b6828fb8
49fdba49
9bf2c762
b8234187
6fd9e4fe
d9b3ffd8
e41fb9ce
f14d6f90
9f7d203d
b4002bf7
fc06bfff
7d8c30ff
b68001f8
0c3ef905
0261ed00
3fffffb8
1e00fda9
e4b9fffe
39007a3f
00000001
484dc680
0813ff39
beff0080
da1fb401
201ff77e
4bea3da4
0c8fffc8
f2004d9b
06c7ff6b
ffdffffe
f9781e00
c0001f9a
ca0820fe
fe1f05a6
44b75003
97f9b407
fbff8026
f27fff2f
01001ff2
7ca781a6
80257ffa
029e410b
db140ed0
fe47fc73
00003f27
80ff49ff
b097fc27
486dd8a1
ff23a1df
762fe251
c0602000
00e0f002
fe574584
2d88b81f
ef00b1d1
497fff61
fc367f1f
c7bc645b
fe021e0e
fa1e01ff
00e00fff
dfbeffb6
61924843
40225005
4fd00100
ff818011
0c8b07d3
703e80ff
600eb6df
ffdcf00b
0a001fef
478df9bc
7f5fffc4
f07cf1fe
fd001372
8ffc3e00
7feb64d4
619649df
cc9cf55b
80c9ec97
2f7dbb24
b0d3c9cb
8d23f661
0806c01c
2093d606
5040fd65
42681b13
0800ffc6
91ba1028
f58c7f30
c03f8241
f45e486c
bf3401ff
697e4d20
1ff644b2
ef4d7fa0
76fb7305
fe000480
f87c84d0
c0fc7fff
0fd0036c
448c2000
5b23de7f
9a19f860
831fa42c
a613ecb4
9712986f
fc0f87b7
c37fca7f
7fffa208
03c1bffc
92e044d8
9f1f9c1e
c3974803
3c9cddb7
7fc0ff79
e0000702
f81fef97
30380009
1fba2c01
d87bd36c
be00746f
fc0e081b
041b6f01
001fdb00
1243fc00
fdf8003e
55ffffcb
9200318b
f8036dbe
7e06def1
e65c0700
e7e34fc7
7fe7006f
e363a8df
c00dbfc7
db4003f7
405bb80b
ffa06ec0
6e00fbf4
fc2ff800
70007e9e
701fe500
f951786c
c0edff45
99b8dc6d
10263aec
7f805fff
7fc6fafa
e41e5ffd
c23c8df1
e17f3ffd
dfc248af
002f80c3
7180000e
6c743022
dfff92d8
2424fc0d
4268305d
0322fec6
4007dfbe
e00638ee
ff007fc3
7c7b0669
5c7f86e0
0a1f6178
87c60361
e41fd3b5
1bffffc7
07a60fd6
1c000008
f8027fc0
0e84ffff
016f1f1f
f8c15e37
8407ddd1
ffcecfed
47002f83
f0ee4000
dfd0047f
c0ffd27e
bd78c06f
fcf500f4
59006fff
b4180c7e
0bb62f3f
b6e18000
2d485801
1be20481
dd5f7204
0f3fe0ff
10763ec4
b8ff7010
fcfe0810
f79080fb
8003eec7
001efeed
e0027800
ff00483f
74d857fe
190c2fe3
c6fffff3
4ffd9ebe
98013f5d
3ffc9fe6
6df79384
0db00780
194869d8
800f7ffe
007e2c06
fc3ffdff
ffc01657
d049efbf
37e1f26f
018007d2
e009f84c
90ff9602
b1f7ef40
fc7fc7c8
a7fc4c00
8d85e04d
498ac124
001beff8
bf9c126d
a88086b7
5f0013f7
90d803b2
6bf8860b
06ed68f4
0925ee69
6e5fffde
801e41c1
01bfbfcd
e101f800
00ff802c
600db41e
4b0001e1
ffbf6404
73c3e071
4cba495d
03277db0
96280785
f6ffc87e
fc007bf9
d2d3fc01
fffb1101
780013bc
cd269ff1
1a0bff07
7fffed08
60206de8
ff400080
fe02b7ff
e0dffc92
5803fefb
c57d4c4d
f6df6007
d3018125
270ff6bc
e720000c
ff22c4d1
200cfbc1
365ef8b7
bfc52c84
5fefc9b7
020b25f6
b1972773
c71d8c03
fe12ffe7
fffe1b93
ff827f34
06dab483
df00b4c0
a2e1f3f9
89bdfef1
0811e403
d8168db6
00595c4d
e4f0593c
06096100
dff583fe
97fdecf6
3fe0d000
e811deb8
bda7a727
f7e19ccc
f0df2690
60227803
cf6f8999
0241fc1e
73b6f4c0
586e4c44
79001ff0
2d21fb00
38200fbe
32db006d
086f85dc
0bc04202
005ed0a0
000e04cc
f003de76
ec37810f
0e924f17
3b366038
000afbe9
e00067fe
80fde43f
301bbc7e
806c2878
ffdc0019
499d05bf
00907f18
3fc36000
f600c05e
3f0e412f
d8c07de1
1087fd31
f7760161
f8de5fff
4074cd8f
1ff18f00
801c0670
7e242dff
fd0d8020
0000024f
22ffdf80
f2003f81
9e4e810c
97d97bf0
e2030400
f980efff
93370fff
8006d920
a47ff2c0
9207c1df
7c70bed5
005ff1ff
7d87e3fe
3184f9b0
3f997fa1
f00bb3e0
73600363
1793fff7
724ff100
fb5e24e5
436cbcde
fc49fbf0
0cbfc00c
c0227edc
fe27f269
6df60367
5627c99b
63b8026f
1ccd9b02
0ed3f2e0
090b1ff8
55930bf3
06848cc7
f07c2076
bff43bef
0012b344
10010196
66090060
053c7ec0
803f7ff0
a001c5f7
36c806db
0f3b6dbe
e93f4180
c0f6b5c2
692e0091
d3b27c03
f86e41b4
a6c05c01
f00e3f07
07618695
c04665ad
e00497e3
a013ff03
3ff80009
d08fc121
f86f45ef
0fede00b
6df3e4fb
ff35cfc7
86808c49
3880f816
90879ed8
9d03fefe
06a677ff
7893fe37
8ff31ea0
dd6de7ff
adc170df
80dbf300
2dfdbf63
d0ff79fe
0f781d01
fe7e00fc
ff039010
20300057
23f62848
fb0f9ac7
ffdf25ff
dfe5fa09
d8c881ff
703fe07f
1ffe25e0
f8999afa
83c7be41
7f21fb03
fd0b7e42
d1f9e381
0c71ff03
ef940e37
8fe023c0
d0067fbc
f56b1e44
72007f8f
e387b202
d7e0076f
923f752f
83f423f7
40687e35
fe4a03b0
1fc74003
d883c1c8
7802b241
1c79e0e0
c1ffe410
1edb007d
ec413364
cfe4fe36
5f800006
5a7039c4
45007197
dfce53cb
c1ad2707
0400f098
b1ff4f0e
0e9c037c
d801bdbd
fa7f00f1
2ff37b24
7ed8f234
7d3fde42
019fff18
ffe3024f
afff64b2
04fe7bc3
431f0f98
c0a5ef9e
7f6c01e7
0c43ff80
b6f89ffa
1f6800e7
ffe49f47
7fc9084d
1b6da73d
3c920010
f9b7bf90
ff83dfec
792607fb
7da604fb
3e69dfc0
c01b674f
75b637b7
3bf00cc0
49e7d3fb
c93d0fed
46d247ff
583d21df
20096db2
0001ffdc
b9176066
070792c9
9ff9a300
ff8c7fe0
7a07e40f
c01cf386
0f5380d8
7d3807e0
0081242c
403fe648
900523a0
740ffc83
d207f183
57c80001
68023dd2
489ffc59
24dbef42
fc01db5b
2173f7fe
002603b4
e364e522
5e92c902
e6b5ffa6
40b53a57
9f983201
b41241fd
c00fb737
ff9bcc43
9000689c
324ff81a
2eefc83f
7005b82d
ff100022
19034980
81a6fffe
3d16522f
e401bf00
a0dbef96
0583d87d
04d6cfe6
fda7fde0
7fa4ffff
b7911700
784f688f
482dedfd
000df72e
df0464a9
602c0539
0225801b
40055800
00766d1f
236f9e40
80160c01
036ef600
7162f248
ffa44248
1d1364d3
d8d80d81
0487a64c
ff770010
7800dee9
303013ff
ffffff13
a43e003e
fa00107f
208d07ff
09f07fff
b9089a42
bfe8823d
83613622
0009336d
526176ec
d497b007
013f22fc
99f049b3
dcff999a
f82727ff
ef66fff3
0711f801
69f6e6b7
6e013b93
27ec1fe3
b42fedb3
7fee8923
24fc301b
7640c3b1
bbe41933
c76c0848
b65f1fff
ec0c487d
e2241edf
49fff214
24b03803
3fdbe819
bb380098
101cc01c
07f4519b
ede013fc
dbfff6fe
e6c04532
fc3f62ef
6362fcff
dbddbb3b
96410403
649e0090
c19edbfa
bebe0004
bc41b427
3920b07f
7fe84504
730f87fa
e7fff400
db7b7dff
b792668d
4e6fdb07
127f41b2
989e0700
c00d007c
fe18fff2
dffd00e3
fffdf676
07ffc24b
00827281
7beffa38
e964b37f
fc0026ec
c00e0def
01665879
fb060dbc
2924eded
db7c93fe
137dedf6
37bf4909
5bffff00
3c01fec2
ff2d82c9
f2ffb677
84b26b64
1d926506
80011d90
ff80024d
27dc1ff8
7fc81ff9
020fc004
7ffc8080
0fb2dbcb
e0a0c1d1
000fed00
b0b00002
01158120
301ff1f8
9fffde89
fc092004
00125da7
01ff1f00
c80807f4
fe407ffb
37f9c243
c201fbe2
6ffff83f
320be071
c009f7d0
7fb20d03
0f070ec2
d48001dc
a81bf276
cf0101f0
f0ff7804
b8001240
803dedb1
7c04c001
00007fb0
0161ff12
72024808
ab007401
fff9713d
1401fcf3
