1da8dc6a
ab570c15
910aa374
a1b534af
2e95b91a
75a99234
9d98e74d
2a91a93a
2ad893b6
15a96ad5
d695953c
8e6695c6
56895bd4
4b37b515
4aca9279
52ad256a
5ffa7543
8bda92a9
01e76dd2
7b01ffc8
7eca1b0b
4dad996b
013e0dcc
1c364718
f6cb3240
9cbff84d
92505be0
c0a76db6
ec24d59f
250824b4
7ec02001
7f77d87f
236f86f0
07678a00
4fc59348
03eea6fc
f7f204fe
4f4ffc09
ff0054ff
3003ef88
ffb91f6e
ebf22703
5eafc001
0fffc300
e07097fc
b8e31101
03c1a071
02be7f13
280c21f8
81f83e78
27e048ff
ff7fafe0
03c07f81
3ffc18de
9a67ff26
bc992416
28a6c96c
49269d95
de5a24e5
94925eda
b6db12f4
9da6fa49
da125960
58266dbe
c92685bb
6f6d3624
75924d23
93ffd24a
da6db6d8
4924cca6
1ffe5b68
f75b2696
3f3400c9
213ef47d
236dff92
27dcb471
012477e8
359efe72
c3424fd9
190490b6
9b7ffca4
a7fc0082
802805ed
fc013eff
000c920f
6ddff5f9
52601b2f
f7ffc912
7ff9574d
65c9a6df
c9198950
b329327e
0362e29f
94f78c71
7e662319
2c8dc6e7
07ec6cea
0e409fb3
ddf01980
bb222f26
6d4c2329
00b06631
86f26303
6937dc8d
2279bb24
c9ecb3bf
4ff91b77
4648f771
17e3ffe3
7e20fc02
fc0f3adf
02de8dd0
f03a36fe
fc1cc81f
cc2ace82
5e07400f
13f03f02
c6e3f046
fe00e07f
fc6fb8ff
0783f13a
b000f0f4
ff8fc0ff
c0487e02
0007602f
00f204fc
5adfe85d
3ec09f8c
e743a100
5012126a
ff30d972
7cadff27
dc8350c3
f007000a
274ec703
f8fcfc43
97d0de0f
c20933df
03e470ff
600d6d72
33aff81f
c601bfe8
0387d0b1
03fe08bc
38e077c7
61efc1fe
e70e3858
874381da
00381c0e
7c3c3f1c
c5e38f78
5e12e0f1
1d71e71c
f8e47bc7
21f87381
1f10381e
0da3a1c7
7849e39e
e38c3f08
41e18eb8
70071e34
e691c75c
696e49b6
100bef62
d2574d90
693f624e
ca4bdb50
7346d82f
b99232c9
89249a58
7d9ac9a4
5b774809
a5a5adb6
2249db6d
2db20809
9e0bde49
ad398127
d76de6e4
dff96cde
6ced1a0c
a0bd015b
25877f7d
032d6dc0
36949497
0fb034c1
749e0e58
9b181949
09a4db20
4ddbfe80
7da7a617
83d65e02
3c00bebf
1fe00007
6c0f2589
092a7967
2f26a2ad
78201d7c
078bd341
5f4001b0
b23ec000
ec2de504
47f9430f
00496c92
ec16a4dc
f40385ff
9000000b
db82fb3f
fa001edb
f9819ffe
03f7a6ff
3fffeff8
0000d200
7b4927fc
b7c14d07
0ffafb6d
c04b36dc
336c0157
315b4049
04820900
9730b1c1
4eb6908c
70425b0a
dbda725b
f006fe08
7d73c13f
fdffec5b
ffe4e18f
01b1f2ff
3fe002d8
49ffe589
1ba7fffe
e07eeda8
2482dff5
ffdd8a59
b69291a4
b2f48095
a0ea9724
db72d697
124f2596
96996a18
b46db6f6
96d925ad
d236fa70
6a6db4db
be9f568b
81bfa4d0
5bf346f4
5304d274
7a4ba693
0b90c90b
67ded348
92127490
96dab609
b4eef416
a425a425
9f5a4697
c8498036
f24d216f
0925e906
f24ef5f6
7fedb6df
76d9b65b
32493bfe
90b659d2
c924ba26
e9b636be
2da248df
34d26d05
f8796db5
db415b4f
e69801a4
7264848f
e25c0a00
7cff4a2b
fe036eb2
df8ce85f
04810fc0
fff8037c
137ef21f
ffeb7e01
7fffe00e
0001b6e8
7ff046c0
8000da12
f62fb7fc
b57bfe02
1043c809
ff8164c0
8253fefc
f83ff0bf
be07002f
023a4bc1
000f0bd0
0f4c0c2e
fe7f485c
0ff959c4
fa006610
0a43f8cf
bfcbe814
01fced00
3fbf6da4
01d6696d
e5c00a4a
ff2bd73d
00917fc5
1a17f25f
bee48193
c8b76649
22d5ff1b
bf22713b
01dacc8d
0279fd08
c8dbde72
bdfb4c4f
236ee424
04fc80c8
90391a82
ff7ed8dd
fb04024f
6f1d1389
858206cb
bfddd890
7fffa04d
9db24cf2
336c005b
2d893ff2
00d1240c
8841b5c0
d94843e1
e2fafbe3
ff49700f
f807fd81
6c71901f
ffff81ff
da209bff
402001d3
fffff368
ffffefff
89be6803
ffff81fc
f598e5bd
ffbfdb3f
080c8036
35c0000f
02f12000
cb358303
fe4b2193
5a4b24ef
be90763f
0000ff91
17e15900
fe97ffff
7fc81fff
01fbe093
3ff20ff8
01ffe580
034ffffc
bb93493d
765e806f
ff8b4ac3
ded91db3
cdd933b9
9a9062ff
c90338e4
76cec34d
d371fb23
01ccb00c
2ddf2899
244ce6d2
bfe223d1
45f4d501
c7b6ccc2
5dc049b7
11c864e6
5e38cd9b
d9194788
950eb991
ec3ad91b
976c01ed
24c30374
a025f800
b6405495
8db2b6b4
7ed83a4b
7f640fd2
f24003ff
4badfa1f
07f8ae0f
f0f71ed2
01b1b2db
c97d9a00
3dff2785
a9203b68
00943c25
31efd936
bf93d268
c71c7e78
5e386399
c473c7e0
f0e86c73
74c3e3b1
3b81d8e0
389c09cc
b6c71b8f
039e38c3
c41c1e3d
8e4f0871
ff83c303
80e07e38
0fc73c62
7c31c7e1
58e87307
cff9e08f
fc0e38f3
38e7e187
e182fcce
db90391b
0f03b1c8
703c1f8e
447ec761
c763de38
0138e6f0
dc718768
c0e6f1c4
7330f389
381e3d1c
fb0381cf
7279e22d
03cf4724
37038cf9
7e391bb0
1bf30f1c
3ae001e5
25c1049e
c38c3800
c74785d4
7ebb24b6
945e3f98
c06001f6
10c96d9f
5d73c780
f8f53fc9
ffc4fb01
03f0369f
ffe001f0
924f2296
8360fe98
bf1c4fac
2fc61de1
fff2c71d
3f0369e0
76360018
803e3a00
c7f8907f
fe0f60b2
1c0fe0ff
e0780ffe
f7f01c7f
1b8ff803
f3e87e5f
3c06fd0f
6f81c0fc
c7ff0f87
0e03d003
fc0d47c0
bad9f807
3107806f
098046f8
696c0c5f
c98b7f78
2fa1a0df
b405bf21
61a49e49
23fb3f03
5b7b700f
6906d380
6ce903d8
b0cfc3b4
a5c87b0d
6a5c5b3d
bf44b17f
e9fe6ded
05e6d927
583797f4
4ff86db0
f7ff1b3b
6e13ffb6
b6e47009
d2b200fd
597a42fe
b669c112
fb600125
eb7f8480
0ffb664f
64800150
1003ffed
7ffe8486
01bf5b00
3fedf938
8124517d
e49fe89b
00023d01
900765b7
9236d9bc
df6401f8
3cbee403
032bcd00
f6ef9088
924d9634
c573024f
f0ffc976
0ffffc17
0a7ad920
fb7db3fe
ffc0ff6f
03fe96db
7fe00f38
b1fffa72
5b4984d9
ffff85c0
effc5be9
fffa03ff
099a485e
89013362
ff56169f
20acb439
0f068249
371016e8
fbf8c4d9
6c26dbf6
fd80029a
0003f726
7efb6400
11d3db4d
a9bfb240
6c266dc9
4deffb66
004077ef
467b77f6
034dbb72
92259b65
24925d24
b5256c93
d276d695
d892b6e4
56db6e4a
92eda4f2
8a40fb24
49249246
6ad12696
3752569b
b72692c1
52530b64
354d36e6
a9236e4d
6de2e4ad
2002492d
b6db1259
68066fd2
c92d23db
4adaff92
2da9bb28
f76621c0
8db24c92
b7e99b62
d6fdc82d
92120924
11236da6
4cb6e0ae
272d2424
36c02089
93dfda01
526db3a0
4dfffb7f
900492ca
1aa4a5fd
64cfb399
76465c9e
cccc1324
4cfc8675
333399e6
8ce6639b
9d4209e2
0021ecdb
224d9cf8
cc1b93fd
ee666a4c
11186311
67e00d98
f2cdc632
933760da
271b38a9
cff98f99
9b56548c
cd4a25f1
c2f803fc
dcd4c3f8
e3c8bc61
fee37254
31ccfaab
31c43baa
f044530e
8d9c71c1
fd7a76b0
4fcc7c5d
c702e23f
d4ea7e31
5e078883
7633ffc0
006063bc
dffbab56
021cf1ea
9e309c63
99b32263
311ece1b
a38738cb
4d8ec619
51939e65
e119e71c
399c3b38
9998e3a3
11aac661
1c4cdd26
8ce78ec6
5dddcac3
183739cd
6ce31b27
198ce51c
1ffa33c7
c639b325
fbf006de
93817e00
4743e601
b825e2f6
ed81d09b
6d4fa625
9705f80b
007c963e
2f780f85
a1781fa1
01f07d87
d03ef5f2
812a125b
e87f2f3b
6f6fb17f
0bc8b720
e0039476
1df90fe7
4d4a4c96
da4d25eb
d2d24bd0
a929396a
9aad495a
2d26d4b5
a4d212e5
29945a53
b612cd65
912e4ba5
ed2cad26
6f492524
749b4c93
9b9be942
d65d35b6
122dcb16
d004b25a
6fb5a5b2
68f36882
59679efb
e2dff812
2d09bb27
9f6d4ddb
88264c9d
07487976
b090fef0
b2d1ff0d
ff23fe07
fde58fbe
14796c20
7ffc4635
d83fc102
56dfbfb0
ff7fd81f
7c05bedb
ffa5e786
3fa3e107
7401fcd0
b02ff80b
07dc8e47
81783c7a
e87e10df
870bfc02
01f8f07e
f801fb14
07638027
7007a74e
1c7fe8e0
3f9e0fc7
b169a27a
ff8f801f
3f1ff407
7ffb516e
1ff1ff00
d3502bee
558b9a5a
a6951e85
8ab0eac6
472b5495
cf5bed6a
aa2b356a
52d296f5
2f686bea
a356b52a
28754a53
96b5aa4a
a170a5aa
a85e5a57
78ad2c21
b5d0d621
affd2ab4
5aad6bd5
96599269
4cf49b09
662636c8
72c6dd93
039226b6
26d93448
9b64c992
064f6b62
85cdae40
64d19392
36b27662
99b3b3db
336c06c4
757f68d9
89364c8e
249348cd
6ffe4e27
9bb2ecb2
32359a66
33233973
77231602
3336299a
5d91d73b
963b1647
99b344dd
6b32362b
99bcea62
52999998
bb31b6a6
9ecd91c8
9329c365
2766364c
d8d76323
3289c4cc
2ffe65d9
99ab6e57
2da5b69a
e92496fd
6b4b6968
65a59d21
12d52dcb
a5a95e94
d65b4b74
a6812de8
5acb7480
34b56cd6
b492d5e9
a5e8d496
5acd46b5
4bf52da9
5956d696
0aa42d53
4006d568
9b1696ab
387c4203
930041f8
07e01f0f
9f80f3e6
ff0e5187
4c18fbd3
83f27d3c
1f01d761
be78c1e0
f0743df0
383065c7
7f0c0b7d
fe00bf80
1d1e0f87
80f70fc0
a0d006f6
fe5f0ebd
e030e781
f5244809
0e885a01
dd71c700
b8545e3c
7f87c2e5
23000be3
5b637149
0db7c34c
6d1e64e0
df274c58
8fa6ccb6
dc878767
3b201218
c9fb34fc
c9b2596f
ff67ada4
a2f0efb1
ffde1a6d
d2525b6f
96f9ff02
91a49e06
9a42d694
f00bd2a6
5a56016f
6dbfac00
0978569f
2db49bca
c378b76b
7b707f57
4a97ff49
e513fb6b
241bb5bf
e1a92368
00f2b6a9
a51208b6
00690b65
cd9c01f8
bfc9e003
16f0cfdf
937c7018
6e87f831
321ec7e3
ba23b21b
0ffedb90
6b7208e0
9f2411f8
8000e375
fc7f0703
1800027f
01e8fc78
1a6e837f
ffffe1ff
8f56e169
ffed187f
2b388936
0965fb91
33322770
33272c8b
93955319
b44b3675
b1127645
01363fb3
eccee882
009fb333
f61b3262
de4d998c
bb6c8234
65bf754c
d8deda3b
bbcce46d
7ffe3613
dfaef331
5a28d349
92d93f26
b4b3a40d
9eda62dc
32ce5b34
796d31b4
4b25ed0b
0a492cb2
24ed3649
b6d0b6da
12493f6c
90964bda
cb649da2
b4df2496
85b25bf9
a5da1276
bef92597
1206c92d
98060101
816fe013
01f5033f
dfa425f7
1e5e0381
90bc07f9
81afafbe
8ff8ffff
9f2f803f
1a0040fe
00b3df84
03c90100
ff9f0f00
1e019083
801807c0
ffffc07f
7406837f
3402d5e0
d29bed2c
24d249b6
d1b6da00
da56d49d
fed796a4
d6ce805f
06b687c0
dff817fc
422ed6d6
16da5e22
7f3f4000
080096c1
2cc48b20
244f9236
a1292a79
244b34bd
3ffa4905
84495080
a0241e0b
3d0972d7
07e9a000
356b4724
405e85b9
989fa3d3
4b0f7d1e
13f02ee8
2ae49c28
83d9ec5e
83e9d81f
44bd0bf0
5ff08d16
c3ff05b4
c1d81ad7
4b05ecdb
cffc44aa
7f82ca8d
18f0f1c0
cd385f8e
860e3ee7
03e3d1c7
701f250f
fe1dc1c8
e1e18f60
7c020c2f
0ef0279b
c0f879c3
7e18c3e3
e30f989c
04dff1ef
7200f00f
dba3c718
01e09c21
0fff801f
017401ff
8c040100
976405f2
81b9fb0f
dfc7b55c
ff5efe9e
923ad974
005037f4
f50124a8
10df9c6f
bf9284d6
61241fef
034120f7
fc881da0
be0b8092
d00006c0
20f2406b
bffe9018
0003c425
c5124493
319b3b66
d8d8c990
8c9c9264
4c6cacc5
d996c99a
3619b30a
10dcde6d
c93259b0
03266d36
4c04dc92
2f363264
26d2e8cb
c8afc9a7
7369b324
896423b2
9df9bb64
064cb26c
6e965ed2
db4db78b
4ada97a1
65a9212b
676d495b
a92495b4
69695b6d
06970edb
b6da24a9
5d2edb68
84ada844
b58d4d36
2db68499
db936d31
56dc1596
92c09313
ca45b4da
e126cdb6
7e0e5f36
b6c1e002
037c08ff
f9f24b78
4ceb0136
c06447aa
9097afb6
05bf7c0f
fb841b60
f8c15efa
ffc0bfbf
03bfe4ff
3fd00ff9
0000d800
bb0db7fc
ff894d01
83075bfd
005e369f
801f6883
ea287bed
d8714f03
f088707f
fd3607cd
2f8204e3
5b61de19
8ff01a68
7ff020e0
c36ff8c1
f23604ff
b50e4fe4
1905f648
7fffb449
05ffc326
fd64fdb6
bde3e00f
ff9209e4
0f2bd0f4
e87601cd
f862a373
e1de1c19
bef13a68
31e65a84
541f46d4
27e5d062
d09d3540
fc2f03e0
770edb02
05c2f5af
30081c56
c1a16768
2f42f82c
f43b2bdc
0ff9fb43
9055343a
4d240043
1189e002
032beffb
378c1490
4fb11ce4
60f05e3a
d0fa6d49
0807f810
5a727bc0
fb2c603a
80003bef
fff5b6ff
0000004f
e0492d80
d3600fff
0424e9b6
6ffa3f7c
001dd68f
44940149
76df2db0
dc1e0900
ea35bc18
fed8bca6
d2fa6f43
e0bdf124
8ffb6381
647fe3e4
ffff3ff0
ffc4fb4f
00009fc6
7fe00938
b3ff1236
403efc99
ffff82ec
80026f81
ffb22a8d
6826c892
5b6d937b
60db3000
25a92b6a
0969591b
39649db7
cfd24cdd
b00482d8
36a5ed9f
1a6e9e5b
9b2dad96
9f91696c
1fe4b6d4
49ff5949
4692ddb6
805ddb52
d30d34da
7fa4e9b2
556c00da
adc37ff2
01f270ff
b11c9fe0
ff4c5fcd
d0600363
fafefe02
0ffffc81
6d797b20
ffa7efbe
ffc03fff
024cdbf7
ffe00020
ffff2def
1bbff801
fffb43f4
62592fbf
dfb59f1b
5c73b8a3
c2b54d88
c7c70b81
8b98b8f3
13a13ae2
45e85ca0
e1504734
e509d316
c73c61c1
647b06f1
1d1c35c6
5f42a19c
fc1a18f1
c18aad42
6e17a68d
a07a42b4
affbc714
da3d71d8
